[PAD]	0
[UNK]	0
[BOS]	0
[EOS]	0
[SEP]	0
[CLS]	0
[MASK]	0
▁'	-0
했다	-1
▁이	-2
으로	-3
▁있	-4
▁대	-5
==	-6
▁1	-7
에서	-8
▁지	-9
▁수	-10
▁2	-11
▁전	-12
▁사	-13
▁기	-14
..	-15
▁등	-16
▁것	-17
▁시	-18
▁가	-19
▁있다	-20
하는	-21
===	-22
▁===	-23
▁한	-24
이다	-25
▁보	-26
하고	-27
▁제	-28
▁중	-29
▁위	-30
▁정	-31
▁공	-32
▁경	-33
00	-34
▁주	-35
▁3	-36
▁상	-37
▁자	-38
▁인	-39
▁아	-40
▁국	-41
▁관	-42
▁부	-43
▁의	-44
▁다	-45
▁선	-46
▁오	-47
▁나	-48
▁일	-49
▁모	-50
한다	-51
▁유	-52
▁내	-53
▁소	-54
▁연	-55
▁통	-56
▁개	-57
▁고	-58
이라	-59
▁비	-60
▁하	-61
▁발	-62
▁조	-63
▁그	-64
▁신	-65
▁4	-66
▁최	-67
▁미	-68
▁5	-69
▁해	-70
▁말	-71
▁예	-72
▁방	-73
▁마	-74
▁서	-75
▁확	-76
▁있는	-77
▁않	-78
▁20	-79
▁지난	-80
▁구	-81
까지	-82
▁진	-83
▁밝	-84
▁여	-85
▁만	-86
▁강	-87
▁따	-88
면서	-89
▁없	-90
됐다	-91
부터	-92
혔다	-93
지만	-94
▁영	-95
▁실	-96
▁감	-97
▁도	-98
▁추	-99
▁밝혔다	-100
▁동	-101
었다	-102
▁안	-103
▁분	-104
▁‘	-105
▁성	-106
▁우	-107
▁받	-108
▁현	-109
에게	-110
▁결	-111
▁어	-112
된다	-113
▁6	-114
▁스	-115
▁것으로	-116
▁바	-117
▁후	-118
▁생	-119
▁거	-120
▁재	-121
▁매	-122
▁계	-123
들이	-124
▁대한	-125
▁위해	-126
▁출	-127
▁장	-128
▁세	-129
▁무	-130
적인	-131
▁통해	-132
▁올	-133
▁때	-134
▁교	-135
▁당	-136
▁차	-137
▁원	-138
적으로	-139
▁불	-140
▁문	-141
▁설	-142
▁더	-143
에는	-144
▁말했다	-145
▁7	-146
▁입	-147
▁반	-148
이라고	-149
▁적	-150
▁회	-151
▁및	-152
▁증	-153
▁10	-154
▁201	-155
다는	-156
▁대해	-157
하기	-158
▁노	-159
▁열	-160
▁했다	-161
하게	-162
▁8	-163
았다	-164
▁배	-165
▁총	-166
▁투	-167
▁과	-168
▁“	-169
▁참	-170
장은	-171
▁특	-172
들의	-173
▁코	-174
▁판	-175
▁역	-176
▁함	-177
▁금	-178
자는	-179
▁9	-180
▁활	-181
▁단	-182
▁한국	-183
▁많	-184
▁직	-185
억원	-186
▁포	-187
▁운	-188
▁평	-189
▁진행	-190
▁행	-191
▁관련	-192
▁건	-193
위원	-194
▁남	-195
▁대표	-196
▁달	-197
▁서울	-198
▁프	-199
▁높	-200
000	-201
▁알	-202
▁청	-203
▁같	-204
▁함께	-205
▁검	-206
20	-207
통령	-208
들은	-209
▁한다	-210
▁집	-211
하다	-212
▁지원	-213
겠다	-214
▁사업	-215
▁새	-216
라고	-217
▁피	-218
▁요	-219
▁대통령	-220
▁의원	-221
▁위한	-222
▁외	-223
▁할	-224
되는	-225
▁법	-226
▁이날	-227
▁앞	-228
장을	-229
였다	-230
니다	-231
사를	-232
▁지역	-233
르면	-234
▁점	-235
▁등을	-236
하며	-237
에서는	-238
에도	-239
▁협	-240
도록	-241
▁두	-242
▁가능	-243
▁각	-244
▁맞	-245
기를	-246
▁작	-247
▁업	-248
▁파	-249
졌다	-250
▁따르면	-251
▁관계	-252
▁경우	-253
▁미국	-254
만원	-255
▁필	-256
▁학	-257
▁들	-258
▁물	-259
▁정부	-260
19	-261
▁임	-262
▁못	-263
비스	-264
▁화	-265
하지	-266
리는	-267
▁본	-268
▁초	-269
▁민	-270
▁예정	-271
▁산	-272
▁변	-273
보다	-274
▁게	-275
▁규	-276
▁양	-277
▁11	-278
▁체	-279
▁이어	-280
▁처	-281
로나	-282
▁12	-283
▁환	-284
이어	-285
으며	-286
▁취	-287
▁저	-288
▁간	-289
▁기업	-290
▁명	-291
▁데	-292
▁종	-293
회의	-294
.1	-295
▁경기	-296
▁약	-297
▁기록	-298
▁계획	-299
▁심	-300
▁이후	-301
▁목	-302
▁때문	-303
기업	-304
▁s	-305
▁중국	-306
▁따라	-307
▁합	-308
▁국민	-309
▁좋	-310
▁지난해	-311
사업	-312
▁광	-313
▁것이	-314
▁타	-315
▁▲	-316
리를	-317
▁하는	-318
자가	-319
지난	-320
▁호	-321
▁설명	-322
들을	-323
▁충	-324
스트	-325
▁시작	-326
▁a	-327
▁국내	-328
▁사람	-329
▁드	-330
▁상황	-331
대로	-332
▁또	-333
▁문제	-334
▁김	-335
▁되	-336
▁이번	-337
▁아니	-338
▁운영	-339
이번	-340
장이	-341
▁프로	-342
▁뒤	-343
▁삼	-344
▁필요	-345
▁후보	-346
.2	-347
은행	-348
▁채	-349
▁담	-350
▁치	-351
력을	-352
▁k	-353
해야	-354
▁대상	-355
▁19	-356
정을	-357
▁오후	-358
성을	-359
라는	-360
.'	-361
▁접	-362
▁완	-363
▁리	-364
▁=	-365
▁코로나	-366
▁투자	-367
▁크	-368
▁생각	-369
위원회	-370
▁사용	-371
▁논	-372
▁같은	-373
▁트	-374
▁순	-375
▁다양	-376
▁승	-377
▁올해	-378
부는	-379
사는	-380
▁증가	-381
▁늘	-382
▁브	-383
이는	-384
▁준	-385
▁시장	-386
▁발생	-387
▁결과	-388
▁제공	-389
했다고	-390
▁추진	-391
▁가장	-392
이라며	-393
▁넘	-394
지를	-395
▁15	-396
▁에	-397
▁없다	-398
▁30	-399
▁북	-400
지는	-401
▁속	-402
▁돌	-403
▁살	-404
▁메	-405
레이	-406
▁자신	-407
▁모두	-408
▁카	-409
▁우리	-410
▁발표	-411
▁줄	-412
하면서	-413
센터	-414
▁창	-415
▁서비스	-416
▁경제	-417
이에	-418
서는	-419
▁이상	-420
하면	-421
▁예정이다	-422
시장	-423
명이	-424
▁것은	-425
▁다양한	-426
▁표	-427
성이	-428
▁교육	-429
▁근	-430
▁디	-431
▁참여	-432
▁만들	-433
▁편	-434
▁개발	-435
랜드	-436
▁손	-437
기에	-438
▁관계자는	-439
하지만	-440
▁들어	-441
▁음	-442
▁확대	-443
화를	-444
그러	-445
특히	-446
▁측	-447
▁찾	-448
▁기준	-449
▁기대	-450
▁공개	-451
그는	-452
왔다	-453
▁잘	-454
▁△	-455
▁있어	-456
▁박	-457
▁판매	-458
들에게	-459
▁향	-460
▁큰	-461
는데	-462
▁전망	-463
상을	-464
▁아이	-465
▁세계	-466
혐의	-467
▁확인	-468
▁나타	-469
▁기술	-470
사가	-471
▁복	-472
▁첫	-473
교육	-474
▁추가	-475
▁0	-476
▁된다	-477
▁오전	-478
▁제품	-479
▁상승	-480
시간	-481
▁최근	-482
이나	-483
▁것이다	-484
▁걸	-485
▁농	-486
되고	-487
▁최고	-488
이날	-489
▁오는	-490
▁13	-491
▁강조	-492
▁글	-493
▁누	-494
▁은	-495
▁금융	-496
▁있도록	-497
▁라	-498
▁대비	-499
▁설명했다	-500
로운	-501
▁혐의	-502
▁많은	-503
리고	-504
운데	-505
그램	-506
▁이용	-507
▁국가	-508
▁형	-509
▁언	-510
▁확진	-511
▁사회	-512
씨는	-513
▁연구	-514
▁현재	-515
▁뉴	-516
.5	-517
자의	-518
렸다	-519
▁평가	-520
▁모습	-521
▁c	-522
▁것을	-523
▁번	-524
원은	-525
대표	-526
▁가운데	-527
이고	-528
▁될	-529
▁토	-530
이라는	-531
시아	-532
▁등의	-533
▁l	-534
▁다른	-535
▁열린	-536
주당	-537
한국	-538
는다	-539
▁14	-540
수는	-541
▁독	-542
▁전문	-543
.3	-544
▁패	-545
▁백	-546
▁군	-547
▁갖	-548
▁사실	-549
▁등이	-550
▁절	-551
났다	-552
지역	-553
회를	-554
▁폭	-555
▁정책	-556
학교	-557
▁18	-558
▁힘	-559
▁결정	-560
했고	-561
▁마련	-562
들과	-563
▁됐다	-564
▁고객	-565
한편	-566
▁내용	-567
▁일본	-568
▁삼성	-569
▁예상	-570
▁항	-571
▁방송	-572
에서도	-573
▁질	-574
치를	-575
▁16	-576
냈다	-577
일부터	-578
▁시간	-579
▁커	-580
▁지적	-581
페이	-582
▁효	-583
▁조사	-584
일까지	-585
지고	-586
인다	-587
했던	-588
이트	-589
명을	-590
산업	-591
▁허	-592
▁전국	-593
▁로	-594
▁때문에	-595
▁하고	-596
▁규모	-597
▁플	-598
▁강화	-599
▁국회	-600
201	-601
▁피해	-602
자를	-603
▁안전	-604
기관	-605
▁포함	-606
리가	-607
▁없는	-608
▁25	-609
▁활용	-610
▁면	-611
▁200	-612
▁눈	-613
▁식	-614
마트	-615
▁최대	-616
0%	-617
시스	-618
하겠다	-619
거나	-620
▁i	-621
▁m	-622
▁급	-623
기가	-624
▁수준	-625
▁활동	-626
▁감독	-627
안을	-628
라며	-629
한다고	-630
▁친	-631
▁17	-632
점을	-633
도로	-634
▁장관	-635
▁개선	-636
러스	-637
▁지속	-638
▁전했다	-639
위를	-640
▁애	-641
▁알려	-642
▁주장	-643
▁보고	-644
▁벌	-645
▁계획이다	-646
▁분석	-647
시는	-648
▁책	-649
기도	-650
▁강조했다	-651
가는	-652
▁구성	-653
▁날	-654
습니다	-655
로벌	-656
▁100	-657
▁아니라	-658
▁권	-659
▁다시	-660
▁태	-661
관리	-662
사의	-663
▁산업	-664
▁직접	-665
▁야	-666
정부	-667
▁감염	-668
▁사건	-669
▁매출	-670
개월	-671
▁낮	-672
▁있다는	-673
▁실시	-674
▁거래	-675
.4	-676
▁성장	-677
▁의원은	-678
세를	-679
▁방문	-680
원을	-681
▁선정	-682
서울	-683
▁t	-684
▁적용	-685
▁베	-686
도를	-687
▁해외	-688
▁준비	-689
▁어려	-690
▁끝	-691
▁하락	-692
▁축	-693
▁주요	-694
▁싶	-695
▁24	-696
▁빠	-697
▁검찰	-698
▁경찰	-699
▁선보	-700
분기	-701
시설	-702
금융	-703
▁있을	-704
의를	-705
▁모든	-706
▁동안	-707
▁등에	-708
▁하나	-709
인은	-710
▁출시	-711
▁홈	-712
▁영향	-713
식을	-714
▁공동	-715
▁개최	-716
▁높은	-717
▁21	-718
명의	-719
▁범	-720
이터	-721
그룹	-722
▁홍	-723
▁새로운	-724
투자	-725
▁중심	-726
▁정보	-727
처럼	-728
리아	-729
연구	-730
지원	-731
▁요구	-732
이었다	-733
30	-734
바이	-735
▁대상으로	-736
▁느	-737
▁용	-738
▁관심	-739
▁철	-740
다고	-741
▁막	-742
▁병	-743
▁프로그램	-744
▁b	-745
▁기간	-746
▁경쟁	-747
인이	-748
▁각각	-749
금을	-750
달러	-751
▁참석	-752
▁분야	-753
스타	-754
혁신	-755
▁전체	-756
▁소비	-757
.6	-758
감을	-759
기로	-760
제로	-761
▁영화	-762
▁가격	-763
▁곳	-764
▁버	-765
▁생산	-766
장의	-767
인트	-768
▁선수	-769
▁콘	-770
으나	-771
▁해당	-772
▁많이	-773
▁극	-774
▁국제	-775
▁22	-776
▁기존	-777
▁배우	-778
▁잡	-779
▁처음	-780
▁영업	-781
▁우려	-782
했지만	-783
▁과정	-784
▁브랜드	-785
▁중요	-786
▁월	-787
.7	-788
▁일부	-789
▁비롯	-790
▁응	-791
▁받아	-792
▁상품	-793
▁않은	-794
▁23	-795
▁글로벌	-796
▁특별	-797
스는	-798
▁광주	-799
기술	-800
대를	-801
경찰	-802
▁정치	-803
▁이뤄	-804
▁위원	-805
선을	-806
▁업무	-807
장에서	-808
전을	-809
▁않았다	-810
증권	-811
▁는	-812
▁현대	-813
럼프	-814
▁볼	-815
▁대표는	-816
▁유지	-817
▁블	-818
인을	-819
▁감소	-820
▁북한	-821
▁있다고	-822
▁당시	-823
▁이를	-824
▁않고	-825
▁스타	-826
▁부산	-827
▁보인다	-828
기는	-829
▁문화	-830
제를	-831
▁확보	-832
▁네	-833
으면	-834
.8	-835
▁적극	-836
도가	-837
▁관리	-838
▁역시	-839
원이	-840
조사	-841
▁온	-842
▁맡	-843
▁판단	-844
▁있었다	-845
▁클	-846
사회	-847
▁핵	-848
▁선거	-849
▁골	-850
업체	-851
▁받고	-852
▁27	-853
시에	-854
▁시민	-855
▁받았다	-856
▁환경	-857
▁상태	-858
문화	-859
▁성공	-860
▁자신의	-861
▁만큼	-862
원의	-863
스를	-864
▁미래	-865
자로	-866
▁캐	-867
▁시즌	-868
▁26	-869
▁학생	-870
▁없이	-871
라마	-872
▁28	-873
▁기자	-874
▁따른	-875
▁여성	-876
▁휴	-877
▁팀	-878
▁개인	-879
수를	-880
▁대응	-881
.9	-882
▁의견	-883
▁테	-884
환경	-885
동차	-886
▁덧	-887
롯데	-888
▁e	-889
약을	-890
▁탄	-891
▁수사	-892
▁집중	-893
▁보여	-894
그러나	-895
스크	-896
개발	-897
▁좋은	-898
▁시행	-899
▁마음	-900
▁덧붙	-901
이를	-902
원에	-903
▁등으로	-904
▁떨	-905
주는	-906
▁여러	-907
▁이야	-908
▁인터	-909
정보	-910
▁계속	-911
겠다는	-912
력이	-913
▁레	-914
▁받은	-915
료를	-916
▁수도	-917
수가	-918
▁다음	-919
▁기록했다	-920
▁폐	-921
이며	-922
▁지난달	-923
▁원내	-924
▁펼	-925
거래	-926
▁더욱	-927
불어	-928
▁부분	-929
이익	-930
▁키	-931
▁덧붙였다	-932
▁역할	-933
▁게임	-934
▁출연	-935
▁p	-936
▁만나	-937
민주당	-938
▁논의	-939
▁늘어	-940
주의	-941
과의	-942
부를	-943
또한	-944
▁긴	-945
▁제작	-946
현재	-947
경제	-948
인의	-949
▁가족	-950
10	-951
쳤다	-952
▁관련해	-953
트를	-954
움을	-955
▁수출	-956
▁29	-957
▁갈	-958
▁책임	-959
▁공급	-960
▁신청	-961
▁된	-962
▁효과	-963
▁도입	-964
앞서	-965
단체	-966
장에	-967
었던	-968
▁사랑	-969
▁주민	-970
▁구축	-971
▁전년	-972
라이	-973
▁건강	-974
치는	-975
하기로	-976
▁답	-977
▁스마트	-978
▁목표	-979
드는	-980
▁즐	-981
▁중이다	-982
▁설치	-983
▁50	-984
▁와	-985
케이	-986
동안	-987
▁찾아	-988
▁희	-989
▁지방	-990
▁의혹	-991
▁지급	-992
▁사이	-993
전자	-994
bs	-995
▁대학	-996
▁내년	-997
부가	-998
▁sk	-999
▁경영	-1000
정책	-1001
계를	-1002
▁평균	-1003
권을	-1004
▁떨어	-1005
▁자리	-1006
▁예산	-1007
년간	-1008
▁만에	-1009
▁만들어	-1010
▁몰	-1011
▁노력	-1012
▁"	-1013
▁공식	-1014
국민	-1015
▁소속	-1016
▁대통령은	-1017
도는	-1018
서를	-1019
되지	-1020
경기	-1021
▁악	-1022
▁협력	-1023
▁팬	-1024
▁행사	-1025
▁잠	-1026
▁신규	-1027
▁고려	-1028
▁아닌	-1029
▁육	-1030
와의	-1031
지난해	-1032
장과	-1033
올해	-1034
한다는	-1035
▁떠	-1036
▁생활	-1037
▁lg	-1038
▁인정	-1039
▁실적	-1040
▁별	-1041
자인	-1042
▁제기	-1043
▁의미	-1044
▁드러	-1045
▁자유	-1046
가지	-1047
동을	-1048
▁바이	-1049
안전	-1050
▁부담	-1051
▁확산	-1052
▁나타났다	-1053
다만	-1054
반기	-1055
▁압	-1056
▁학교	-1057
▁얼	-1058
▁얻	-1059
라도	-1060
▁인천	-1061
씨가	-1062
▁격	-1063
▁혐의로	-1064
▁차지	-1065
▁울	-1066
해서	-1067
▁인사	-1068
와대	-1069
억원을	-1070
시키	-1071
▁업체	-1072
하여	-1073
▁길	-1074
▁중인	-1075
▁기반	-1076
▁외국	-1077
▁전략	-1078
오는	-1079
▁제주	-1080
최근	-1081
가를	-1082
서비스	-1083
▁밀	-1084
▁풀	-1085
▁중소	-1086
▁선택	-1087
▁방식	-1088
▁수익	-1089
▁크게	-1090
너지	-1091
본부	-1092
▁일반	-1093
▁착	-1094
▁국민의	-1095
▁않는	-1096
▁돌아	-1097
▁쓰	-1098
▁시스	-1099
업을	-1100
▁이같	-1101
▁트럼프	-1102
도의	-1103
▁기관	-1104
▁있고	-1105
▁구매	-1106
통신	-1107
▁탈	-1108
▁존	-1109
▁작품	-1110
상이	-1111
회사	-1112
텐츠	-1113
▁공공	-1114
▁지적했다	-1115
▁징	-1116
자리	-1117
▁n	-1118
▁촉	-1119
▁해결	-1120
위에	-1121
▁최초	-1122
▁혁신	-1123
▁천	-1124
▁재판	-1125
▁나온	-1126
▁선발	-1127
▁머	-1128
우리	-1129
50	-1130
▁시스템	-1131
회는	-1132
나는	-1133
▁더불어	-1134
▁끌	-1135
▁g	-1136
리그	-1137
▁도시	-1138
업계	-1139
▁행정	-1140
▁자체	-1141
▁f	-1142
밖에	-1143
▁지금	-1144
명으로	-1145
진다	-1146
원에서	-1147
리스	-1148
▁물론	-1149
▁의료	-1150
도시	-1151
▁같다	-1152
섰다	-1153
파트	-1154
드를	-1155
▁전날	-1156
▁사고	-1157
bc	-1158
▁관광	-1159
▁검토	-1160
별로	-1161
전에	-1162
▁원내대표	-1163
기간	-1164
';	-1165
선거	-1166
▁먹	-1167
▁31	-1168
렇게	-1169
동산	-1170
▁너	-1171
보험	-1172
미국	-1173
원으로	-1174
지가	-1175
▁비판	-1176
지에	-1177
▁방침	-1178
▁수요	-1179
▁알려졌다	-1180
▁차량	-1181
▁터	-1182
▁반영	-1183
▁사진	-1184
▁침	-1185
▁보도	-1186
▁엄	-1187
▁제출	-1188
사와	-1189
▁컨	-1190
▁또는	-1191
▁요청	-1192
복지	-1193
포인트	-1194
▁기능	-1195
▁연속	-1196
▁이유	-1197
로부터	-1198
▁송	-1199
소를	-1200
위는	-1201
▁합의	-1202
▁40	-1203
주택	-1204
물을	-1205
회가	-1206
▁있으며	-1207
▁중앙	-1208
▁보유	-1209
▁롯데	-1210
소년	-1211
스가	-1212
두고	-1213
자들이	-1214
▁인해	-1215
▁필요한	-1216
▁어떤	-1217
▁최종	-1218
▁때문이다	-1219
바일	-1220
▁주장했다	-1221
랐다	-1222
▁통합	-1223
▁제시	-1224
▁핵심	-1225
▁전달	-1226
▁앞으로	-1227
▁가능성이	-1228
▁d	-1229
회에서	-1230
▁논란	-1231
▁품	-1232
▁경험	-1233
세계	-1234
문을	-1235
▁러	-1236
▁귀	-1237
▁모습을	-1238
▁했	-1239
▁코스	-1240
촬영	-1241
자들의	-1242
▁지지	-1243
▁구조	-1244
▁개정	-1245
년부터	-1246
스터	-1247
가가	-1248
▁꾸	-1249
했다는	-1250
▁놓	-1251
▁본격	-1252
▁쉽	-1253
부분	-1254
▁돼	-1255
▁뿐	-1256
언론	-1257
프로	-1258
▁넘어	-1259
보고	-1260
▁되는	-1261
사에	-1262
▁뜻	-1263
갔다	-1264
▁민주당	-1265
.0	-1266
삼성	-1267
▁모델	-1268
▁난	-1269
21	-1270
▁오른	-1271
▁성과	-1272
▁건설	-1273
▁과정에서	-1274
▁신고	-1275
지막	-1276
랫폼	-1277
▁뛰	-1278
성과	-1279
▁직원	-1280
▁활성	-1281
▁사망	-1282
누리	-1283
월부터	-1284
제가	-1285
▁우수	-1286
▁정상	-1287
tv	-1288
▁않을	-1289
▁중심으로	-1290
대책	-1291
▁사례	-1292
들도	-1293
▁대통령이	-1294
▁분위	-1295
규모	-1296
▁2015	-1297
당은	-1298
▁혼	-1299
▁있지만	-1300
▁노동	-1301
▁않았	-1302
먼저	-1303
▁청와대	-1304
르는	-1305
림픽	-1306
중국	-1307
▁아니다	-1308
▁전환	-1309
▁이벤	-1310
▁상당	-1311
차를	-1312
▁2018	-1313
계획	-1314
▁위반	-1315
▁전문가	-1316
▁뉴시스	-1317
▁앞서	-1318
대에	-1319
▁';	-1320
항공	-1321
전히	-1322
프라	-1323
단계	-1324
연합	-1325
▁보호	-1326
린다	-1327
▁2016	-1328
▁대해서는	-1329
▁어린	-1330
▁2017	-1331
▁소재	-1332
▁가입	-1333
▁고용	-1334
겼다	-1335
음을	-1336
▁공연	-1337
펀드	-1338
▁진출	-1339
▁서비스를	-1340
▁하루	-1341
했으며	-1342
▁측은	-1343
▁유럽	-1344
행을	-1345
▁전망이다	-1346
학생	-1347
▁솔	-1348
이자	-1349
▁확정	-1350
시가	-1351
중앙	-1352
▁국정	-1353
부에	-1354
▁통한	-1355
▁기획	-1356
떻게	-1357
▁주목	-1358
▁시청	-1359
▁보험	-1360
공감	-1361
그러면서	-1362
리에	-1363
▁변화	-1364
▁방법	-1365
▁갖고	-1366
하려	-1367
스로	-1368
▁정부가	-1369
구를	-1370
▁풍	-1371
▁보였다	-1372
▁감사	-1373
이후	-1374
자와	-1375
▁가능하다	-1376
▁주택	-1377
▁역할을	-1378
▁제외	-1379
▁아직	-1380
▁참가	-1381
디어	-1382
▁발전	-1383
▁비롯해	-1384
하도록	-1385
▁있게	-1386
▁체결	-1387
량을	-1388
▁웃	-1389
▁받을	-1390
검찰	-1391
▁변호	-1392
▁정도	-1393
▁앞두고	-1394
▁드라마	-1395
▁현장	-1396
▁예방	-1397
▁위치	-1398
▁tv	-1399
▁소개	-1400
▁지정	-1401
▁시설	-1402
스의	-1403
만원을	-1404
▁백신	-1405
▁엔	-1406
쇼핑	-1407
▁번째	-1408
▁이미	-1409
▁안정	-1410
▁입장	-1411
▁겪	-1412
▁그룹	-1413
▁공격	-1414
▁콘텐츠	-1415
▁청년	-1416
입니다	-1417
청은	-1418
▁자동차	-1419
운드	-1420
▁<	-1421
▁두고	-1422
▁종합	-1423
디오	-1424
관은	-1425
▁촬영	-1426
▁언급	-1427
▁연기	-1428
▁영향을	-1429
공감언론	-1430
▁제한	-1431
없이	-1432
씨의	-1433
▁하지	-1434
생활	-1435
▁수상	-1436
▁이름	-1437
▁기본	-1438
비를	-1439
▁것도	-1440
되면서	-1441
▁높아	-1442
▁어렵	-1443
.◎	-1444
▁상대	-1445
▁모바일	-1446
에선	-1447
▁않는다	-1448
멤버	-1449
▁이런	-1450
▁조성	-1451
▁2014	-1452
사고	-1453
이와	-1454
무리	-1455
▁더불어민주당	-1456
▁윤	-1457
▁조치	-1458
▁향후	-1459
▁한다는	-1460
사로	-1461
▁올라	-1462
▁부문	-1463
▁캠	-1464
율은	-1465
대비	-1466
관계	-1467
▁있었	-1468
▁처리	-1469
▁몸	-1470
포츠	-1471
당이	-1472
▁대통령의	-1473
▁위험	-1474
장으로	-1475
▁조직	-1476
세가	-1477
▁선고	-1478
지방	-1479
지털	-1480
▁-	-1481
▁맛	-1482
▁중단	-1483
▁할인	-1484
정치	-1485
세대	-1486
▁플랫폼	-1487
▁돈	-1488
▁은행	-1489
▁사무	-1490
▁방역	-1491
▁정부의	-1492
카드	-1493
▁너무	-1494
▁구속	-1495
▁홈페이	-1496
▁어떻게	-1497
롭게	-1498
제품	-1499
울러	-1500
단은	-1501
▁입장을	-1502
▁퇴	-1503
▁사회적	-1504
훈련	-1505
▁설립	-1506
서도	-1507
▁숨	-1508
▁거쳐	-1509
▁기념	-1510
▁관한	-1511
회에	-1512
건설	-1513
▁을	-1514
▁치료	-1515
▁사태	-1516
▁달러	-1517
제는	-1518
▁회의	-1519
하다는	-1520
하거나	-1521
▁회복	-1522
▁불법	-1523
▁o	-1524
▁비해	-1525
▁전남	-1526
▁컬	-1527
▁혜	-1528
▁티	-1529
명은	-1530
▁계약	-1531
▁.	-1532
▁파악	-1533
▁창업	-1534
무원	-1535
▁대책	-1536
▁보면	-1537
▁나오	-1538
▁부동산	-1539
주시	-1540
▁목소	-1541
.201	-1542
아이	-1543
▁비용	-1544
.5%	-1545
▁출신	-1546
억원으로	-1547
▁헌	-1548
바이러스	-1549
나라	-1550
▁각종	-1551
사에서	-1552
▁대부분	-1553
평가	-1554
▁대출	-1555
▁제조	-1556
가격	-1557
▁데이터	-1558
움이	-1559
스러	-1560
▁공모	-1561
▁부족	-1562
전문	-1563
워크	-1564
...	-1565
▁음악	-1566
▁영국	-1567
▁않아	-1568
르게	-1569
▁필요하다	-1570
▁바로	-1571
▁보다	-1572
▁민간	-1573
교통	-1574
▁공정	-1575
머니	-1576
▁주식	-1577
액은	-1578
▁페이	-1579
▁아파트	-1580
km	-1581
▁이끌	-1582
▁인상	-1583
수의	-1584
▁열고	-1585
소득	-1586
▁제안	-1587
25	-1588
대가	-1589
▁발견	-1590
▁표현	-1591
▁1000	-1592
▁경기도	-1593
▁나선	-1594
대상	-1595
실을	-1596
▁해야	-1597
▁석	-1598
▁체험	-1599
일을	-1600
▁공간	-1601
▁전기	-1602
▁교통	-1603
▁같이	-1604
▁문제가	-1605
▁그는	-1606
▁비교	-1607
▁대형	-1608
▁발언	-1609
점으로	-1610
▁나서	-1611
11	-1612
▁마지막	-1613
건을	-1614
▁영업이익	-1615
되면	-1616
임을	-1617
▁중소기업	-1618
▁충북	-1619
▁이해	-1620
당국	-1621
▁사업을	-1622
.◇	-1623
▁꼽	-1624
코로나	-1625
▁견	-1626
▁프리	-1627
▁업계	-1628
▁이같이	-1629
▁라이	-1630
율이	-1631
정이	-1632
▁영상	-1633
▁예상된다	-1634
▁대변	-1635
▁못했다	-1636
들에	-1637
▁연결	-1638
마다	-1639
▁가능한	-1640
▁대전	-1641
▁kt	-1642
▁공유	-1643
관광	-1644
지로	-1645
5%	-1646
하기도	-1647
앨범	-1648
▁언론	-1649
▁국회의	-1650
부의	-1651
▁것이라고	-1652
▁대구	-1653
▁나왔다	-1654
앞으로	-1655
프트	-1656
▁반대	-1657
▁팔	-1658
이크	-1659
▁둘	-1660
이가	-1661
▁내려	-1662
▁최저	-1663
▁아시아	-1664
▁매우	-1665
▁통과	-1666
▁희망	-1667
▁멤버	-1668
반면	-1669
대학	-1670
▁방침이다	-1671
자산	-1672
있는	-1673
▁여행	-1674
▁신종	-1675
▁항공	-1676
현대	-1677
▁우선	-1678
되며	-1679
과학	-1680
▁인한	-1681
봤다	-1682
▁방안	-1683
지도	-1684
릭터	-1685
▁강원	-1686
▁장관은	-1687
▁담당	-1688
병원	-1689
지금	-1690
년을	-1691
시스템	-1692
▁이에	-1693
개의	-1694
대한	-1695
▁생각한다	-1696
어나	-1697
▁점검	-1698
▁현지	-1699
▁않다	-1700
▁2019	-1701
션을	-1702
분을	-1703
▁대선	-1704
상품	-1705
번째	-1706
거리	-1707
인으로	-1708
▁감염증	-1709
▁봉	-1710
▁보이	-1711
문에	-1712
▁60	-1713
▁kb	-1714
해졌다	-1715
▁러시아	-1716
▁검사	-1717
▁자연	-1718
▁의견을	-1719
▁투입	-1720
▁고민	-1721
▁근로	-1722
정에	-1723
▁방향	-1724
대의	-1725
▁등록	-1726
▁점을	-1727
▁얘	-1728
▁유통	-1729
아울러	-1730
란다	-1731
▁퍼	-1732
▁장기	-1733
느냐	-1734
활동	-1735
자에게	-1736
단을	-1737
게임	-1738
구가	-1739
▁동시에	-1740
하자	-1741
▁사전	-1742
성에	-1743
▁마무리	-1744
▁혜택	-1745
▁국무	-1746
▁상황에서	-1747
리지	-1748
스코	-1749
치고	-1750
인데	-1751
하던	-1752
▁먼저	-1753
국제	-1754
▁즉	-1755
▁기소	-1756
자들은	-1757
▁납	-1758
▁밤	-1759
▁서울시	-1760
케팅	-1761
체육	-1762
▁활성화	-1763
ns	-1764
▁코로나바이러스	-1765
트는	-1766
.1%	-1767
▁발표했다	-1768
▁근무	-1769
▁못한	-1770
▁겨	-1771
심을	-1772
▁캐릭터	-1773
▁놀	-1774
▁비중	-1775
▁규모의	-1776
▁이전	-1777
▁페	-1778
.2%	-1779
다른	-1780
위가	-1781
량이	-1782
▁단체	-1783
▁지도	-1784
▁반응	-1785
카오	-1786
▁새누리	-1787
스럽	-1788
15	-1789
위로	-1790
▁촉구	-1791
▁슈	-1792
▁좌	-1793
▁회사	-1794
리즈	-1795
식품	-1796
노동	-1797
▁감독은	-1798
▁의원이	-1799
▁황	-1800
▁단계	-1801
▁이달	-1802
보는	-1803
▁없었다	-1804
▁2020	-1805
개를	-1806
▁인근	-1807
자에	-1808
▁충분	-1809
구는	-1810
.3%	-1811
그런	-1812
▁헤	-1813
증을	-1814
지지	-1815
▁이하	-1816
▁내용을	-1817
▁울산	-1818
▁보건	-1819
▁프로젝	-1820
▁주변	-1821
▁어려운	-1822
군은	-1823
40	-1824
▁규제	-1825
▁홍보	-1826
운동	-1827
국내	-1828
▁녹	-1829
감이	-1830
▁과거	-1831
▁협의	-1832
인과	-1833
당의	-1834
가능	-1835
점이	-1836
▁채용	-1837
▁연출	-1838
12	-1839
▁바란다	-1840
▁인도	-1841
씨를	-1842
▁흐	-1843
▁가까	-1844
.4%	-1845
면서도	-1846
━.	-1847
부와	-1848
▁깊	-1849
이기	-1850
▁그런	-1851
플레이	-1852
▁이사	-1853
화된	-1854
진을	-1855
▁상대로	-1856
▁바탕	-1857
더라도	-1858
▁스마트폰	-1859
율을	-1860
▁중요한	-1861
▁맞아	-1862
▁전시	-1863
▁능	-1864
▁인수	-1865
▁디지털	-1866
이드	-1867
▁수입	-1868
▁문제를	-1869
▁나가	-1870
▁올랐다	-1871
년까지	-1872
▁제도	-1873
대회	-1874
승을	-1875
회견	-1876
▁구체	-1877
▁일자리	-1878
▁누구	-1879
▁대신	-1880
스와	-1881
:00	-1882
▁만든	-1883
같은	-1884
▁쿠	-1885
▁삶	-1886
영화	-1887
▁변경	-1888
▁투표	-1889
▁활동을	-1890
▁소통	-1891
▁지켜	-1892
민주	-1893
▁달리	-1894
▁특히	-1895
▁받는	-1896
▁장애	-1897
▁제대로	-1898
▁r	-1899
▁강력	-1900
▁암	-1901
등학교	-1902
▁등은	-1903
대학교	-1904
방송	-1905
인지	-1906
▁것에	-1907
정한	-1908
도체	-1909
▁숙	-1910
▁추천	-1911
22	-1912
▁없어	-1913
▁찬	-1914
.7%	-1915
.6%	-1916
▁마감	-1917
▁2013	-1918
▁나온다	-1919
18	-1920
▁방안을	-1921
만에	-1922
▁발생한	-1923
▁전반	-1924
▁집계	-1925
▁v	-1926
회담	-1927
▁종목	-1928
▁예비	-1929
▁전자	-1930
▁법무	-1931
▁자금	-1932
▁좋아	-1933
협의	-1934
.‘	-1935
만의	-1936
로는	-1937
▁수행	-1938
▁관심이	-1939
▁어린이	-1940
▁보내	-1941
▁달라	-1942
차례	-1943
▁탑	-1944
▁전북	-1945
▁그리고	-1946
▁인터뷰	-1947
었고	-1948
▁통신	-1949
▁'201	-1950
.8%	-1951
발전	-1952
되어	-1953
▁한다고	-1954
▁행복	-1955
▁승리	-1956
직원	-1957
구조	-1958
lg	-1959
▁나섰다	-1960
▁바탕으로	-1961
하이	-1962
고를	-1963
가족	-1964
▁등장	-1965
▁사람이	-1966
▁가진	-1967
▁워	-1968
▁인터넷	-1969
▁기자회견	-1970
▁무역	-1971
장관	-1972
▁외교	-1973
▁를	-1974
웠다	-1975
▁민주	-1976
.9%	-1977
▁곡	-1978
▁줄어	-1979
성장	-1980
안타	-1981
▁듯	-1982
▁또한	-1983
하는데	-1984
▁h	-1985
▁방송된	-1986
▁증가했다	-1987
▁관심을	-1988
60	-1989
하겠다는	-1990
▁내부	-1991
이스	-1992
▁앱	-1993
▁접종	-1994
시즌	-1995
기준	-1996
▁기여	-1997
▁혐의를	-1998
▁회장은	-1999
▁낙	-2000
▁사실을	-2001
보호	-2002
▁빅	-2003
▁긴급	-2004
수사	-2005
▁외국인	-2006
자체	-2007
공개	-2008
르고	-2009
▁달성	-2010
▁데뷔	-2011
이션	-2012
당시	-2013
다가	-2014
▁결과를	-2015
▁자산	-2016
5000	-2017
월까지	-2018
미래	-2019
수로	-2020
함을	-2021
▁작업	-2022
률을	-2023
그래	-2024
▁발표한	-2025
▁죽	-2026
▁u	-2027
▁결혼	-2028
▁어느	-2029
명에	-2030
▁지원을	-2031
▁집행	-2032
▁열리는	-2033
▁좀	-2034
▁연구원은	-2035
▁힘을	-2036
▁움	-2037
▁에너지	-2038
률이	-2039
▁하면	-2040
▁부정	-2041
.-	-2042
라우	-2043
이들은	-2044
▁거리	-2045
▁실제	-2046
▁수석	-2047
▁불구	-2048
지면서	-2049
협회	-2050
월호	-2051
▁뮤	-2052
트로	-2053
▁분양	-2054
▁약속	-2055
▁범죄	-2056
▁부회	-2057
▁알고	-2058
▁여전히	-2059
24	-2060
▁제공한다	-2061
▁정부는	-2062
▁최초로	-2063
▁뛰어	-2064
▁꿈	-2065
▁이야기	-2066
▁디자인	-2067
이버	-2068
▁신뢰	-2069
상에	-2070
▁싱	-2071
▁왔다	-2072
▁지속적으로	-2073
▁경남	-2074
항을	-2075
▁500	-2076
▁마스크	-2077
안이	-2078
▁오픈	-2079
공사	-2080
▁앨범	-2081
▁연계	-2082
▁결국	-2083
▁완료	-2084
▁미국의	-2085
▁선물	-2086
주가	-2087
▁2000	-2088
▁겸	-2089
▁완성	-2090
▁199	-2091
▁의무	-2092
▁접촉	-2093
▁비롯한	-2094
▁확진자	-2095
협력	-2096
▁형태	-2097
▁잔	-2098
연금	-2099
▁붙	-2100
벤처	-2101
자동차	-2102
시했다	-2103
▁통화	-2104
니스	-2105
긍정	-2106
대는	-2107
500	-2108
▁기초	-2109
상의	-2110
▁남북	-2111
▁국방	-2112
sk	-2113
▁내놓	-2114
식이	-2115
켰다	-2116
▁있는데	-2117
▁액	-2118
격을	-2119
▁찍	-2120
▁택	-2121
▁창출	-2122
▁묻	-2123
▁이야기를	-2124
스러운	-2125
▁2012	-2126
트리	-2127
▁무료	-2128
▁뉴욕	-2129
구의	-2130
▁진행한다	-2131
▁일정	-2132
수도	-2133
▁서로	-2134
부했다	-2135
재판	-2136
▁정보를	-2137
▁것이라는	-2138
치가	-2139
▁꾸준	-2140
▁싶다	-2141
▁색	-2142
니까	-2143
▁처음으로	-2144
▁흥	-2145
14	-2146
▁현실	-2147
드라마	-2148
▁법률	-2149
▁나라	-2150
▁징역	-2151
▁등이다	-2152
▁잇	-2153
일에	-2154
▁움직	-2155
▁금리	-2156
러한	-2157
▁이동	-2158
어요	-2159
▁차례	-2160
▁마케팅	-2161
▁전통	-2162
▁교수는	-2163
이로	-2164
▁일이	-2165
▁벗	-2166
안에	-2167
받은	-2168
▁선언	-2169
년에	-2170
겠다고	-2171
자치	-2172
경영	-2173
▁금지	-2174
상공	-2175
관을	-2176
▁형사	-2177
▁평화	-2178
▁지나	-2179
▁후보는	-2180
▁시험	-2181
부산	-2182
률은	-2183
품을	-2184
▁둔	-2185
금리	-2186
▁소비자	-2187
▁유치	-2188
부문	-2189
길을	-2190
▁진단	-2191
▁오늘	-2192
▁소송	-2193
▁증가한	-2194
원과	-2195
▁빌	-2196
▁대체	-2197
▁취업	-2198
▁모집	-2199
감독	-2200
▁여자	-2201
▁벌어	-2202
▁흔	-2203
▁판결	-2204
먼트	-2205
만큼	-2206
▁당선	-2207
▁있던	-2208
이런	-2209
▁독일	-2210
▁공개했다	-2211
▁딸	-2212
13	-2213
80	-2214
지의	-2215
으로는	-2216
▁수는	-2217
▁도전	-2218
▁맞춰	-2219
▁70	-2220
▁발굴	-2221
▁긍정	-2222
▁슬	-2223
▁원내대표는	-2224
▁받았	-2225
개혁	-2226
▁프리미	-2227
▁보도했다	-2228
특별	-2229
스북	-2230
▁정도로	-2231
예술	-2232
▁소득	-2233
▁300	-2234
▁토론	-2235
▁프랑	-2236
▁조금	-2237
줬다	-2238
▁정확	-2239
웨어	-2240
▁컴	-2241
시민	-2242
했을	-2243
적이	-2244
▁가능성	-2245
시켜	-2246
스에	-2247
조정	-2248
▁빈	-2249
진흥	-2250
일본	-2251
er	-2252
▁상장	-2253
대출	-2254
지법	-2255
~2	-2256
▁상황을	-2257
▁믿	-2258
▁허용	-2259
▁포함한	-2260
화가	-2261
▁대회	-2262
▁강남	-2263
▁시간을	-2264
▁새누리당	-2265
▁진행된다	-2266
단이	-2267
▁타이	-2268
▁여론	-2269
▁주도	-2270
▁교수	-2271
도에	-2272
▁ai	-2273
보를	-2274
▁던	-2275
▁예고	-2276
결과	-2277
대전	-2278
지수는	-2279
데이터	-2280
국가	-2281
▁역사	-2282
▁해소	-2283
▁불과	-2284
▁늘었다	-2285
▁제품을	-2286
▁j	-2287
▁됐	-2288
▁대법	-2289
시의	-2290
▁접수	-2291
▁증권	-2292
16	-2293
▁특징	-2294
로서	-2295
세먼	-2296
수수	-2297
법을	-2298
국의	-2299
▁회장	-2300
▁무엇	-2301
▁위원장은	-2302
▁가지고	-2303
▁빨	-2304
년생	-2305
지와	-2306
▁여야	-2307
프리	-2308
▁그동안	-2309
했으나	-2310
▁살아	-2311
정부는	-2312
▁차별	-2313
▁되고	-2314
▁청소년	-2315
▁여름	-2316
▁듣	-2317
▁수도권	-2318
주를	-2319
▁왕	-2320
관에서	-2321
▁이벤트	-2322
▁깨	-2323
자금	-2324
위원회는	-2325
범죄	-2326
▁호텔	-2327
▁매년	-2328
▁sns	-2329
하우	-2330
▁시작으로	-2331
▁기회를	-2332
▁가수	-2333
가구	-2334
▁그대로	-2335
▁거주	-2336
계약	-2337
17	-2338
▁바람	-2339
▁비상	-2340
테인	-2341
신을	-2342
타를	-2343
▁넣	-2344
▁완화	-2345
▁전용	-2346
▁확진자가	-2347
테크	-2348
▁보이고	-2349
▁존재	-2350
▁출마	-2351
▁가지	-2352
▁시작했다	-2353
관이	-2354
▁몇	-2355
▁수원	-2356
▁갈등	-2357
▁유명	-2358
▁w	-2359
전에서	-2360
리의	-2361
▁훈련	-2362
투자증권	-2363
▁방식으로	-2364
기의	-2365
▁있기	-2366
▁위치한	-2367
조합	-2368
정의	-2369
▁광고	-2370
▁대표가	-2371
▁출발	-2372
▁연장	-2373
▁상반기	-2374
▁특정	-2375
였던	-2376
으로부터	-2377
명이다	-2378
▁못하고	-2379
▁스스로	-2380
▁우리나라	-2381
실에서	-2382
▁많다	-2383
조선	-2384
시험	-2385
코리아	-2386
제도	-2387
적을	-2388
▁말을	-2389
▁아동	-2390
▁왜	-2391
트남	-2392
▁펼쳐	-2393
▁kbs	-2394
▁루	-2395
▁과학	-2396
▁담은	-2397
이즈	-2398
▁매각	-2399
▁상담	-2400
▁편의	-2401
▁사과	-2402
▁스타일	-2403
▁기준으로	-2404
량은	-2405
▁밝혀	-2406
시부터	-2407
사실	-2408
▁출전	-2409
▁낮은	-2410
▁힘들	-2411
기와	-2412
▁모습이	-2413
종합	-2414
▁국토	-2415
가고	-2416
케어	-2417
▁채널	-2418
▁노래	-2419
▁신속	-2420
▁시도	-2421
억원의	-2422
역을	-2423
▁쉽게	-2424
시를	-2425
의료	-2426
▁남자	-2427
▁집단	-2428
드시	-2429
▁씨	-2430
▁한화	-2431
▁추정	-2432
▁도움이	-2433
올림픽	-2434
▁전해졌다	-2435
점에서	-2436
주고	-2437
한국당	-2438
▁35	-2439
▁총선	-2440
▁콜	-2441
텔레	-2442
▁지하	-2443
▁대변인은	-2444
▁마음을	-2445
소에	-2446
23	-2447
▁밝힌	-2448
하겠다고	-2449
▁기술을	-2450
학과	-2451
트워크	-2452
▁부과	-2453
히려	-2454
위원장	-2455
스토	-2456
▁조정	-2457
우선	-2458
▁복지	-2459
▁개혁	-2460
통합	-2461
▁시장은	-2462
▁33	-2463
▁재정	-2464
▁이렇게	-2465
▁것과	-2466
▁작성	-2467
▁페이스북	-2468
▁국립	-2469
~3	-2470
▁대규모	-2471
▁싸	-2472
▁관객	-2473
.19	-2474
▁컬러	-2475
▁회원	-2476
▁누적	-2477
▁제공하는	-2478
오늘	-2479
▁자료	-2480
▁남성	-2481
▁포인트	-2482
▁애플	-2483
▁카드	-2484
플러스	-2485
는지	-2486
금은	-2487
▁주제로	-2488
이너	-2489
▁걸쳐	-2490
▁판정을	-2491
▁맥	-2492
약품	-2493
상황	-2494
▁돌파	-2495
과정	-2496
행정	-2497
공항	-2498
▁임대	-2499
내는	-2500
분야	-2501
▁지키	-2502
▁mbc	-2503
자원	-2504
위의	-2505
▁궁	-2506
▁시간이	-2507
▁친구	-2508
분이	-2509
▁사실상	-2510
▁메시	-2511
▁인증	-2512
▁밝히	-2513
전략	-2514
보다는	-2515
▁공무원	-2516
▁즐길	-2517
..'	-2518
이란	-2519
페인	-2520
▁반도체	-2521
▁이익	-2522
명과	-2523
▁주는	-2524
▁운동	-2525
▁비슷	-2526
▁취소	-2527
▁얼마	-2528
▁푸	-2529
▁맺	-2530
▁보장	-2531
▁도로	-2532
갤럭	-2533
▁부진	-2534
▁임시	-2535
▁블랙	-2536
세로	-2537
▁국회에서	-2538
▁청구	-2539
됐다고	-2540
▁스포츠	-2541
▁등에서	-2542
▁두산	-2543
▁잘못	-2544
▁인물	-2545
▁규정	-2546
▁느낌	-2547
70	-2548
▁신용	-2549
▁이루	-2550
▁프로젝트	-2551
파크	-2552
▁36	-2553
은행은	-2554
일에는	-2555
▁위해서는	-2556
▁지자체	-2557
화에	-2558
mm	-2559
▁염	-2560
▁포함해	-2561
재단	-2562
▁자동	-2563
소에서	-2564
차가	-2565
▁걱	-2566
년도	-2567
단지	-2568
▁얼굴	-2569
▁없다는	-2570
▁하반기	-2571
이닝	-2572
▁가져	-2573
▁내린	-2574
마을	-2575
▁졸	-2576
인공	-2577
내고	-2578
점에	-2579
▁상황이다	-2580
▁만족	-2581
갤럭시	-2582
바이오	-2583
▁맞춤	-2584
사랑	-2585
▁획	-2586
▁낸	-2587
가의	-2588
술을	-2589
▁우려가	-2590
▁히	-2591
상으로	-2592
▁케이	-2593
터테인	-2594
▁정당	-2595
간의	-2596
▁시절	-2597
▁홈페이지	-2598
▁답했다	-2599
리기	-2600
무를	-2601
소는	-2602
법인	-2603
▁대해서도	-2604
▁패션	-2605
▁계열	-2606
▁it	-2607
▁최선을	-2608
북한	-2609
▁추가로	-2610
▁응답	-2611
▁코스피	-2612
▁갑	-2613
일이	-2614
리며	-2615
▁최소	-2616
▁셈	-2617
해왔다	-2618
전자는	-2619
▁대중	-2620
▁보수	-2621
▁인기	-2622
▁비판했다	-2623
체를	-2624
▁접근	-2625
▁기억	-2626
▁끌어	-2627
했는데	-2628
▁삼성전자	-2629
지검	-2630
▁심사	-2631
검사	-2632
▁배치	-2633
웨이	-2634
▁활용해	-2635
▁출범	-2636
▁주문	-2637
▁증거	-2638
▁그의	-2639
▁정말	-2640
었지만	-2641
부모	-2642
in	-2643
에서의	-2644
▁잃	-2645
있다	-2646
▁에게	-2647
재를	-2648
▁연간	-2649
▁늦	-2650
표를	-2651
▁이른	-2652
안은	-2653
▁조사를	-2654
▁나갈	-2655
점은	-2656
후보	-2657
▁특수	-2658
판매	-2659
▁조치를	-2660
▁근거	-2661
▁32	-2662
▁필요가	-2663
사인	-2664
.▶	-2665
뿐만	-2666
준다	-2667
▁신한	-2668
상은	-2669
▁여부를	-2670
▁덕	-2671
보건	-2672
형을	-2673
임금	-2674
소가	-2675
▁뽑	-2676
▁맞는	-2677
▁사람은	-2678
으로써	-2679
▁올렸다	-2680
▁심각	-2681
▁철저	-2682
▁처벌	-2683
▁극복	-2684
▁자율	-2685
▁충남	-2686
차는	-2687
▁카카오	-2688
▁끊	-2689
▁전면	-2690
구에	-2691
▁뜨	-2692
해당	-2693
광주	-2694
▁자리를	-2695
선수	-2696
▁옥	-2697
▁사상	-2698
하나	-2699
▁보는	-2700
▁착용	-2701
▁34	-2702
▁고위	-2703
산물	-2704
▁일을	-2705
▁냉	-2706
▁역대	-2707
▁쇼핑	-2708
▁조선	-2709
▁수립	-2710
▁배경	-2711
▁효율	-2712
운영	-2713
▁화장	-2714
당을	-2715
▁건물	-2716
▁지분	-2717
▁그러	-2718
▁음식	-2719
하다고	-2720
니아	-2721
▁해양	-2722
▁예능	-2723
▁수밖에	-2724
▁마쳤다	-2725
▁우승	-2726
리와	-2727
젊은	-2728
▁빼	-2729
건으로	-2730
▁환자	-2731
▁높다	-2732
▁이내	-2733
▁원칙	-2734
▁주거	-2735
일은	-2736
▁확인할	-2737
리핑	-2738
▁친환경	-2739
▁쏟	-2740
로를	-2741
▁직후	-2742
트럼프	-2743
▁원하는	-2744
▁당부했다	-2745
운용	-2746
▁진행된	-2747
▁새롭게	-2748
▁의심	-2749
▁불편	-2750
.20	-2751
▁쌓	-2752
▁뇌	-2753
레스	-2754
월에	-2755
▁실패	-2756
▁식품	-2757
우는	-2758
티브	-2759
▁감안	-2760
▁프리미엄	-2761
▁피부	-2762
▁넓	-2763
적이고	-2764
▁주말	-2765
▁소방	-2766
온은	-2767
▁외부	-2768
▁자신이	-2769
▁''	-2770
영업	-2771
▁재산	-2772
▁반드시	-2773
▁바른	-2774
따라	-2775
해를	-2776
▁설계	-2777
▁10%	-2778
▁예술	-2779
▁바이러스	-2780
▁정기	-2781
▁눈길을	-2782
▁이용해	-2783
▁상태다	-2784
▁있습니다	-2785
▁늘어난	-2786
▁좋다	-2787
▁다음달	-2788
▁정의	-2789
▁정권	-2790
▁상황이	-2791
▁얘기	-2792
다운	-2793
단의	-2794
▁하지만	-2795
유의	-2796
면을	-2797
▁기업의	-2798
회의에서	-2799
▁의사	-2800
▁기다	-2801
▁육성	-2802
에게는	-2803
ed	-2804
장애	-2805
주로	-2806
라운드	-2807
▁익	-2808
▁경기를	-2809
력과	-2810
▁인식	-2811
▁성과를	-2812
만을	-2813
▁독립	-2814
▁대화	-2815
▁안내	-2816
인터	-2817
▁피해를	-2818
st	-2819
비용	-2820
▁다소	-2821
▁재난	-2822
리스트	-2823
ia	-2824
려고	-2825
▁돕	-2826
공업	-2827
받고	-2828
등급	-2829
▁논란이	-2830
▁불안	-2831
▁득	-2832
▁월드	-2833
▁자기	-2834
회의를	-2835
▁2011	-2836
▁거듭	-2837
▁열어	-2838
▁올림픽	-2839
메라	-2840
▁개편	-2841
기존	-2842
수록	-2843
▁마을	-2844
▁순간	-2845
▁50%	-2846
▁위협	-2847
▁망	-2848
미를	-2849
▁세종	-2850
이지	-2851
개국	-2852
▁한편	-2853
▁억	-2854
▁전혀	-2855
▁취임	-2856
▁발행	-2857
기상	-2858
▁교체	-2859
▁차지했다	-2860
건강	-2861
▁꾸준히	-2862
▁구입	-2863
▁레이	-2864
▁놓고	-2865
▁옮	-2866
반도	-2867
▁어려움을	-2868
▁순매	-2869
달라	-2870
▁보안	-2871
▁정규	-2872
▁동기	-2873
▁인공	-2874
▁상임	-2875
▁곧	-2876
인가	-2877
합니다	-2878
라우드	-2879
진은	-2880
▁강한	-2881
으면서	-2882
아가	-2883
▁넘는	-2884
으니	-2885
액이	-2886
액을	-2887
어로	-2888
▁비대	-2889
▁개봉	-2890
▁챙	-2891
▁80	-2892
▁베트남	-2893
코스	-2894
▁적극적으로	-2895
or	-2896
▁업종	-2897
사업을	-2898
▁바이오	-2899
비가	-2900
씨와	-2901
▁싶은	-2902
.━.	-2903
▁둘러	-2904
▁주관	-2905
진이	-2906
▁홍콩	-2907
▁활용한	-2908
▁반면	-2909
▁아무	-2910
금이	-2911
▁프로그램을	-2912
▁등도	-2913
▁해도	-2914
▁부모	-2915
▁부여	-2916
▁선임	-2917
▁전에	-2918
▁하기	-2919
이지만	-2920
▁그린	-2921
▁혜택을	-2922
▁진입	-2923
▁전화	-2924
▁건축	-2925
리티	-2926
어야	-2927
제주	-2928
▁최고의	-2929
리오	-2930
▁메이	-2931
▁프랑스	-2932
▁향해	-2933
어를	-2934
▁살펴	-2935
▁가맹	-2936
▁최고위원	-2937
▁유일	-2938
▁책임을	-2939
주민	-2940
루션	-2941
▁빠르게	-2942
교육청	-2943
▁스토	-2944
▁총리는	-2945
▁정신	-2946
기획	-2947
뱅크	-2948
서관	-2949
▁불러	-2950
일간	-2951
식에	-2952
세다	-2953
시키는	-2954
▁5000	-2955
리한	-2956
▁양성	-2957
▁커피	-2958
의원	-2959
▁이름을	-2960
▁디자	-2961
▁말씀	-2962
▁웹	-2963
▁발생했다	-2964
으로서	-2965
세한	-2966
화학	-2967
제한	-2968
▁등과	-2969
거운	-2970
▁시리즈	-2971
▁이는	-2972
▁확진자는	-2973
더라	-2974
▁운영하는	-2975
▁사람들이	-2976
▁자녀	-2977
▁효과를	-2978
튜브	-2979
공원	-2980
사무	-2981
▁취약	-2982
▁실현	-2983
▁불구하고	-2984
▁트렌	-2985
지능	-2986
프로그램	-2987
경찰은	-2988
▁노력을	-2989
대에서	-2990
▁이같은	-2991
▁가치	-2992
아시아	-2993
조를	-2994
▁질문에	-2995
내가	-2996
리로	-2997
▁니	-2998
그동안	-2999
▁38	-3000
▁의결	-3001
▁받는다	-3002
피해	-3003
▁플레이	-3004
▁간담	-3005
▁평가를	-3006
▁자랑	-3007
▁점에서	-3008
▁스트	-3009
피스	-3010
▁끼	-3011
▁종료	-3012
▁관측	-3013
▁확인됐다	-3014
on	-3015
▁인프라	-3016
▁하겠다	-3017
▁거부	-3018
▁메뉴	-3019
이사	-3020
▁홈런	-3021
▁펀드	-3022
시킨	-3023
▁안에	-3024
▁만드는	-3025
해양	-3026
▁관련한	-3027
텔레콤	-3028
▁20%	-3029
▁공감	-3030
▁파트	-3031
▁sbs	-3032
많은	-3033
▁기부	-3034
▁뜻을	-3035
▁복귀	-3036
서에	-3037
▁많아	-3038
일과	-3039
됐고	-3040
▁품질	-3041
▁오히려	-3042
▁동일	-3043
하라	-3044
▁흐름	-3045
▁조합	-3046
▁37	-3047
▁목표로	-3048
▁해서	-3049
▁한번	-3050
▁시장의	-3051
▁시장에서	-3052
▁명의	-3053
놨다	-3054
▁수수	-3055
▁이탈	-3056
▁헌법	-3057
▁실질	-3058
▁자격	-3059
평균	-3060
여기에	-3061
▁반발	-3062
데이	-3063
▁가능성을	-3064
받았다	-3065
▁구성된	-3066
▁신설	-3067
▁당국	-3068
▁수용	-3069
▁불가	-3070
자들을	-3071
모델	-3072
▁관련된	-3073
▁결제	-3074
키로	-3075
▁속에서	-3076
▁운용	-3077
▁더해	-3078
▁혈	-3079
▁활약	-3080
▁참석한	-3081
만으로	-3082
ar	-3083
▁채권	-3084
시켰다	-3085
▁인기를	-3086
예산	-3087
▁공직	-3088
널드	-3089
다음	-3090
▁분석했다	-3091
시티	-3092
▁계약을	-3093
▁사용할	-3094
▁농업	-3095
▁집계됐다	-3096
▁인하	-3097
▁시범	-3098
▁내가	-3099
▁이행	-3100
▁어렵다	-3101
▁봐	-3102
▁땅	-3103
27	-3104
▁아침	-3105
만원으로	-3106
▁행동	-3107
계가	-3108
▁아니냐	-3109
스티	-3110
▁실시간	-3111
▁39	-3112
건의	-3113
▁하다	-3114
▁섬	-3115
▁제외한	-3116
억달러	-3117
자들에게	-3118
연을	-3119
받아	-3120
▁단독	-3121
▁세월호	-3122
▁'20	-3123
세먼지	-3124
▁없다고	-3125
▁측면	-3126
▁않도록	-3127
▁가정	-3128
▁안타	-3129
▁고려해	-3130
▁수가	-3131
체인	-3132
ct	-3133
28	-3134
▁하며	-3135
공간	-3136
▁셀	-3137
▁일으	-3138
검찰은	-3139
▁균	-3140
소비	-3141
▁만난	-3142
팀은	-3143
▁전일	-3144
지구	-3145
▁젊은	-3146
▁끝에	-3147
▁빠른	-3148
▁기대된다	-3149
▁상승했다	-3150
▁분명	-3151
▁사실이	-3152
▁되면	-3153
▁계획을	-3154
▁방문해	-3155
생산	-3156
▁진행했다	-3157
생을	-3158
▁위기	-3159
나고	-3160
▁기능을	-3161
분에	-3162
▁45	-3163
▁뒷	-3164
여명이	-3165
▁특허	-3166
▁엘	-3167
▁돈을	-3168
▁기록한	-3169
▁행사를	-3170
▁노조	-3171
▁출석	-3172
▁풀이	-3173
29	-3174
▁이용할	-3175
▁셈이다	-3176
▁빛	-3177
▁마감했다	-3178
분의	-3179
▁설명이다	-3180
▁브라	-3181
▁호소	-3182
만달러	-3183
기고	-3184
국회	-3185
▁해석	-3186
▁흑	-3187
지사	-3188
목을	-3189
▁충분히	-3190
▁동의	-3191
장인	-3192
공동	-3193
?'	-3194
▁멀	-3195
적이다	-3196
전이	-3197
▁학습	-3198
▁되지	-3199
▁지원하는	-3200
▁아이템	-3201
일로	-3202
에너지	-3203
그리고	-3204
▁시장에	-3205
▁위해서	-3206
▁맞춤형	-3207
▁선보였다	-3208
▁3000	-3209
▁나와	-3210
만원의	-3211
▁탄핵	-3212
려는	-3213
▁전주	-3214
▁첨	-3215
▁쇼	-3216
가로	-3217
▁지역의	-3218
비는	-3219
피언	-3220
200	-3221
▁비난	-3222
머지	-3223
아냈다	-3224
▁뉴스	-3225
▁확장	-3226
2%	-3227
▁화재	-3228
▁다가	-3229
▁쪽	-3230
▁밖	-3231
▁사장은	-3232
▁개막	-3233
해도	-3234
▁하이	-3235
군의	-3236
시까지	-3237
글로벌	-3238
▁이틀	-3239
았던	-3240
지수	-3241
없는	-3242
▁절반	-3243
총리	-3244
▁형성	-3245
활동을	-3246
▁재개	-3247
▁도움을	-3248
▁고발	-3249
▁상위	-3250
▁사진을	-3251
▁이제	-3252
▁중국의	-3253
▁2010	-3254
▁참석했다	-3255
▁관람	-3256
▁연말	-3257
▁본다	-3258
▁인권	-3259
▁부인	-3260
▁30%	-3261
리어	-3262
▁겨울	-3263
▁임명	-3264
▁대기업	-3265
▁북미	-3266
그런데	-3267
▁어디	-3268
▁예측	-3269
26	-3270
▁초청	-3271
▁모아	-3272
스럽게	-3273
감염	-3274
3%	-3275
▁적이	-3276
▁이란	-3277
▁대기	-3278
▁자본	-3279
▁인력	-3280
▁과정을	-3281
▁초반	-3282
챔피언	-3283
▁기반으로	-3284
▁선보인다	-3285
분께	-3286
▁언제	-3287
선이	-3288
▁탐	-3289
류를	-3290
▁평가했다	-3291
4%	-3292
통상	-3293
▁거의	-3294
▁단순	-3295
▁명예	-3296
에만	-3297
▁졸업	-3298
▁군사	-3299
▁홀	-3300
▁시작한	-3301
▁작은	-3302
▁크다	-3303
▁네이버	-3304
▁의혹을	-3305
도와	-3306
물이	-3307
▁의해	-3308
▁꼭	-3309
▁감독이	-3310
고용	-3311
▁쉬	-3312
▁조사됐다	-3313
▁라인	-3314
년이	-3315
베이	-3316
▁느끼	-3317
▁보유한	-3318
▁소유	-3319
1%	-3320
▁재무	-3321
▁했지만	-3322
▁100%	-3323
.10	-3324
씨에게	-3325
▁배출	-3326
▁정책을	-3327
▁자유한국당	-3328
터리	-3329
▁시각	-3330
들로	-3331
▁수사를	-3332
▁소상공	-3333
▁있어서	-3334
▁그려	-3335
▁촉구했다	-3336
화점	-3337
▁하락한	-3338
▁베이	-3339
▁체계	-3340
▁다르	-3341
구역	-3342
▁작용	-3343
요일	-3344
▁차단	-3345
▁생태	-3346
▁협상	-3347
▁내고	-3348
▁기대한다	-3349
▁분위기를	-3350
-1	-3351
조사를	-3352
▁때는	-3353
권에	-3354
하고자	-3355
7%	-3356
한다면	-3357
▁경북	-3358
트업	-3359
▁하락했다	-3360
▁주고	-3361
▁없을	-3362
▁주로	-3363
행사	-3364
신청	-3365
▁사건을	-3366
▁감소했다	-3367
치료	-3368
바로	-3369
2000	-3370
▁강력한	-3371
▁호흡	-3372
▁상승한	-3373
▁이슈	-3374
▁상품을	-3375
세요	-3376
▁경고	-3377
▁시상	-3378
▁남아	-3379
받는	-3380
▁보이는	-3381
▁털	-3382
공정	-3383
▁제재	-3384
▁임상	-3385
▁관광객	-3386
▁받지	-3387
it	-3388
▁절차	-3389
▁조기	-3390
수석	-3391
8%	-3392
▁넥	-3393
▁소화	-3394
▁알아	-3395
▁미니	-3396
▁중요하다	-3397
▁수준으로	-3398
▁국회의원	-3399
▁목소리를	-3400
▁정비	-3401
▁높였다	-3402
▁효과가	-3403
▁혹	-3404
▁상호	-3405
.0%	-3406
▁아버	-3407
시장에서	-3408
▁검사를	-3409
제에	-3410
과는	-3411
▁자리에서	-3412
건축	-3413
▁있었던	-3414
▁기자회견을	-3415
▁앞에서	-3416
▁하는데	-3417
▁후보가	-3418
6%	-3419
▁답변	-3420
조원	-3421
사항	-3422
공단	-3423
▁국민의당	-3424
▁사이트	-3425
▁네트워크	-3426
▁누구나	-3427
▁파트너	-3428
감사	-3429
우리는	-3430
▁주력	-3431
제의	-3432
▁축소	-3433
무역	-3434
▁법무부	-3435
▁대폭	-3436
다면	-3437
고객	-3438
▁사항	-3439
▁결정했다	-3440
일부	-3441
버스	-3442
▁전망했다	-3443
▁휘	-3444
▁빚	-3445
만명	-3446
훼손	-3447
▁헬	-3448
됐던	-3449
▁동반	-3450
▁상황에	-3451
뮤니	-3452
▁압박	-3453
터테인먼트	-3454
지난달	-3455
▁병원	-3456
선의	-3457
▁걱정	-3458
시킬	-3459
회말	-3460
▁내렸다	-3461
▁kbo	-3462
▁분류	-3463
▁진행하고	-3464
속도로	-3465
메달	-3466
론을	-3467
치지	-3468
스포츠	-3469
▁가치를	-3470
폭력	-3471
투표	-3472
▁cj	-3473
▁완벽	-3474
관련	-3475
▁많았다	-3476
▁폴	-3477
▁욕	-3478
년에는	-3479
▁법안	-3480
중한	-3481
▁아쉬	-3482
연맹	-3483
심의	-3484
▁갖춘	-3485
▁주주	-3486
돼야	-3487
니어	-3488
인천	-3489
스플레이	-3490
▁흘	-3491
▁열린다	-3492
화와	-3493
▁권한	-3494
이번에	-3495
▁하면서	-3496
▁기울	-3497
▁봄	-3498
렀다	-3499
▁내용이	-3500
▁주가	-3501
▁북한의	-3502
겠습니다	-3503
▁대통령과	-3504
▁지원한다	-3505
의도	-3506
보면	-3507
▁진행됐다	-3508
▁융	-3509
법에	-3510
▁장애인	-3511
▁담긴	-3512
▁탑재	-3513
경을	-3514
▁입주	-3515
▁특별한	-3516
▁거리두	-3517
연구원	-3518
▁나타냈다	-3519
호를	-3520
▁이들	-3521
▁의원의	-3522
당한	-3523
▁차원에서	-3524
준비	-3525
▁것이란	-3526
▁유튜브	-3527
▁진행할	-3528
▁선사	-3529
▁못하는	-3530
▁개별	-3531
기기	-3532
계에	-3533
스에서	-3534
겠지만	-3535
점검	-3536
▁증정	-3537
되기	-3538
하려는	-3539
▁카페	-3540
▁실천	-3541
▁임직원	-3542
▁일어	-3543
▁구현	-3544
▁했던	-3545
심사	-3546
▁새정치	-3547
선에	-3548
센터에서	-3549
▁급증	-3550
▁대해선	-3551
▁음성	-3552
▁만들었다	-3553
자기	-3554
대와	-3555
▁시장을	-3556
▁인터뷰에서	-3557
정부가	-3558
▁제가	-3559
▁가동	-3560
여행	-3561
설팅	-3562
▁관계자	-3563
▁사랑을	-3564
▁들었다	-3565
기구	-3566
▁승리를	-3567
호텔	-3568
▁후반	-3569
▁비즈	-3570
▁아름	-3571
▁초기	-3572
▁경우가	-3573
▁수요가	-3574
화로	-3575
별로는	-3576
▁취득	-3577
▁냈다	-3578
영상	-3579
▁사라	-3580
▁흔들	-3581
여성	-3582
▁입국	-3583
▁없고	-3584
▁우리가	-3585
'.	-3586
받을	-3587
군이	-3588
▁정상회담	-3589
▁90	-3590
▁공공기관	-3591
그래서	-3592
하면서도	-3593
건이	-3594
대통령	-3595
▁카메라	-3596
심히	-3597
사일	-3598
▁이벤트를	-3599
니터	-3600
▁아래	-3601
▁향상	-3602
▁매입	-3603
▁사장	-3604
중공업	-3605
▁유도	-3606
▁남편	-3607
▁이끌어	-3608
-0	-3609
직을	-3610
▁전월	-3611
▁내용의	-3612
▁질병	-3613
만이	-3614
뒀다	-3615
생명	-3616
▁꽃	-3617
▁직무	-3618
▁블록	-3619
권의	-3620
▁국내외	-3621
▁검증	-3622
월드	-3623
▁흡	-3624
▁외에도	-3625
권이	-3626
화폐	-3627
회초	-3628
▁가는	-3629
▁수준의	-3630
▁되어	-3631
▁선두	-3632
▁본격적인	-3633
경쟁	-3634
▁확실	-3635
▁칼	-3636
▁선도	-3637
▁현황	-3638
▁찾는	-3639
▁공사	-3640
앞으로도	-3641
▁연방	-3642
서트	-3643
▁구간	-3644
▁궁금	-3645
▁임금	-3646
▁나선다	-3647
▁후원	-3648
방역	-3649
▁수치	-3650
▁구체적인	-3651
▁풀이된다	-3652
저는	-3653
▁유입	-3654
▁법인	-3655
수익	-3656
▁골프	-3657
▁도착	-3658
▁필수	-3659
▁쏟아	-3660
▁2021	-3661
▁밖에	-3662
결국	-3663
▁부사	-3664
사한	-3665
향을	-3666
아직	-3667
▁:	-3668
▁매수	-3669
▁내다	-3670
시한	-3671
▁사법	-3672
▁승인	-3673
▁허위	-3674
위원회가	-3675
▁든	-3676
▁기업이	-3677
▁양국	-3678
▁주인공	-3679
라면	-3680
▁속에	-3681
합의	-3682
▁드러냈다	-3683
▁삭	-3684
▁주최	-3685
▁부탁	-3686
▁코스닥	-3687
▁그래	-3688
축구	-3689
▁쉽지	-3690
an	-3691
▁청주	-3692
방을	-3693
개로	-3694
▁적극적인	-3695
▁반응을	-3696
▁변동	-3697
스마트	-3698
▁오랜	-3699
▁시스템을	-3700
해주	-3701
▁이러한	-3702
▁실무	-3703
▁방지	-3704
질을	-3705
▁참여한	-3706
▁질문	-3707
▁폭발	-3708
▁복합	-3709
▁보조	-3710
cm	-3711
▁반복	-3712
▁가량	-3713
▁경쟁력	-3714
.”	-3715
효과	-3716
▁연락	-3717
▁괴	-3718
찬가지	-3719
노조	-3720
배우	-3721
체계	-3722
▁도널드	-3723
▁ce	-3724
▁바뀌	-3725
억원이	-3726
▁49	-3727
절한	-3728
신이	-3729
등록	-3730
▁선박	-3731
▁건립	-3732
ot	-3733
▁죄	-3734
어도	-3735
식으로	-3736
▁왔	-3737
명한	-3738
단에	-3739
종의	-3740
▁운전	-3741
▁연휴	-3742
▁떨어진	-3743
▁따뜻	-3744
▁투자를	-3745
▁돌입	-3746
▁챔피언	-3747
춘천	-3748
31	-3749
3000	-3750
▁절차를	-3751
▁나눠	-3752
▁바라	-3753
처리	-3754
▁수주	-3755
▁선호	-3756
이미	-3757
▁거론	-3758
▁에어	-3759
ou	-3760
▁영향으로	-3761
at	-3762
si	-3763
▁'1	-3764
▁시장이	-3765
▁한미	-3766
라인	-3767
해외	-3768
어진	-3769
았고	-3770
▁마친	-3771
개선	-3772
사이트	-3773
▁수소	-3774
▁오르	-3775
▁브리핑	-3776
▁공약	-3777
지에서	-3778
▁사퇴	-3779
포를	-3780
▁공천	-3781
참여	-3782
우고	-3783
▁평창	-3784
▁것처럼	-3785
▁pc	-3786
▁횡	-3787
▁응원	-3788
계층	-3789
▁축구	-3790
까지는	-3791
▁인공지능	-3792
체험	-3793
라스	-3794
cc	-3795
▁48	-3796
사자	-3797
8000	-3798
▁현장에서	-3799
함으로써	-3800
▁심의	-3801
▁한국의	-3802
▁장면	-3803
담을	-3804
스타그램	-3805
▁(	-3806
▁뮤지	-3807
청에	-3808
창업	-3809
▁마찬가지	-3810
▁예약	-3811
▁글을	-3812
▁웃음을	-3813
▁거래를	-3814
▁현금	-3815
▁매매	-3816
▁결정을	-3817
▁전력	-3818
드가	-3819
▁오래	-3820
▁달하는	-3821
▁회장이	-3822
년대	-3823
신한	-3824
드로	-3825
세에	-3826
확실	-3827
▁트위	-3828
▁유엔	-3829
▁채택	-3830
▁획득	-3831
.<	-3832
▁줄었다	-3833
정상	-3834
▁넘겨	-3835
음에도	-3836
▁경험을	-3837
가스	-3838
석을	-3839
▁유출	-3840
▁머물	-3841
동의	-3842
억원에	-3843
6000	-3844
▁고양	-3845
▁상무	-3846
대구	-3847
▁43	-3848
▁매력	-3849
▁주차	-3850
▁얼마나	-3851
위원회를	-3852
▁리더	-3853
▁아이디어	-3854
▁정치적	-3855
▁기회	-3856
▁사로	-3857
▁나올	-3858
▁새로	-3859
▁보니	-3860
재는	-3861
▁단일	-3862
▁간편	-3863
kt	-3864
▁있지	-3865
▁센터	-3866
성은	-3867
90	-3868
▁활발	-3869
▁이유는	-3870
4000	-3871
▁영상을	-3872
▁진술	-3873
▁합리	-3874
보증	-3875
▁중간	-3876
▁열었다	-3877
▁65	-3878
신의	-3879
▁협약	-3880
▁타고	-3881
▁초과	-3882
▁스타트업	-3883
▁발매	-3884
▁지역에서	-3885
종을	-3886
▁설정	-3887
▁유니	-3888
▁결과가	-3889
▁진행한	-3890
▁재미	-3891
추진	-3892
▁150	-3893
▁법정	-3894
▁경기에서	-3895
▁읽	-3896
▁합동	-3897
명했다	-3898
▁내에	-3899
▁곳이	-3900
▁업무를	-3901
▁누리	-3902
전국	-3903
나가	-3904
▁제약	-3905
장기	-3906
▁그렇게	-3907
됐으며	-3908
보가	-3909
▁등판	-3910
전남	-3911
▁조작	-3912
▁나누	-3913
▁권고	-3914
▁여부	-3915
▁삼성전	-3916
▁경찰에	-3917
▁케	-3918
▁클라우드	-3919
▁작가	-3920
▁판단했다	-3921
▁돋	-3922
패를	-3923
건에	-3924
▁센	-3925
▁총괄	-3926
▁일상	-3927
▁들어가	-3928
정당	-3929
▁맞이	-3930
▁크리스	-3931
주식	-3932
▁198	-3933
▁당초	-3934
▁기타	-3935
▁제공할	-3936
▁입고	-3937
▁의지를	-3938
▁자치	-3939
유가	-3940
▁짧	-3941
▁만남	-3942
▁전기차	-3943
▁2009	-3944
▁미디어	-3945
지며	-3946
▁고소	-3947
▁위안	-3948
▁중심의	-3949
▁모니터	-3950
▁갤럭시	-3951
▁꼬	-3952
▁계기로	-3953
▁특검	-3954
▁지금까지	-3955
▁매력을	-3956
▁동원	-3957
▁빅데이터	-3958
▁겪고	-3959
기록	-3960
▁출입	-3961
▁강제	-3962
중소	-3963
히는	-3964
▁보완	-3965
▁사업은	-3966
▁않으면	-3967
▁슈퍼	-3968
수산	-3969
▁털어	-3970
시와	-3971
▁받아들	-3972
▁가구	-3973
▁44	-3974
연구소	-3975
▁대북	-3976
▁편성	-3977
▁분야에서	-3978
▁낮아	-3979
▁짓	-3980
▁객	-3981
▁성남	-3982
▁중에	-3983
▁현재까지	-3984
뷰티	-3985
▁여파	-3986
▁사업에	-3987
▁한반도	-3988
▁야당	-3989
전은	-3990
▁게시	-3991
므로	-3992
협약	-3993
선은	-3994
▁불가능	-3995
▁사로잡	-3996
▁봤다	-3997
재생	-3998
▁가졌다	-3999
▁지역에	-4000
▁모양	-4001
▁전개	-4002
기능	-4003
▁소감을	-4004
장비	-4005
▁적발	-4006
▁급등	-4007
▁만들기	-4008
령을	-4009
▁패키	-4010
파이	-4011
실제	-4012
드린다	-4013
▁상생	-4014
화는	-4015
인들이	-4016
▁바꾸	-4017
곳에	-4018
▁특징이다	-4019
▁나설	-4020
우디	-4021
체가	-4022
▁부담을	-4023
▁탓	-4024
▁드러났다	-4025
▁커뮤니	-4026
▁빨리	-4027
로드	-4028
이제	-4029
▁대표의	-4030
▁투수	-4031
▁이와	-4032
▁수준이다	-4033
전날	-4034
서가	-4035
9%	-4036
▁법적	-4037
▁포기	-4038
▁눈에	-4039
▁희생	-4040
▁소프트	-4041
▁내세	-4042
여야	-4043
▁하게	-4044
근로	-4045
▁인스타그램	-4046
▁타이틀	-4047
▁매일	-4048
▁쏠	-4049
간다	-4050
~4	-4051
당국은	-4052
▁부품	-4053
▁400	-4054
▁게재	-4055
▁합류	-4056
신고	-4057
▁좋겠다	-4058
▁비슷한	-4059
▁제공하고	-4060
일반	-4061
터를	-4062
▁노출	-4063
바다	-4064
전문가	-4065
7000	-4066
▁가상	-4067
댓글	-4068
▁이어질	-4069
ic	-4070
▁맡은	-4071
▁부장	-4072
이라면	-4073
▁상대적으로	-4074
▁국민의힘	-4075
he	-4076
▁생각이	-4077
▁서울중앙	-4078
▁점이	-4079
▁가득	-4080
위에서	-4081
▁꺼	-4082
▁2008	-4083
수요	-4084
▁배달	-4085
▁손을	-4086
▁밑	-4087
▁현대차	-4088
소로	-4089
▁리그	-4090
▁분위기	-4091
▁1%	-4092
차이즈	-4093
▁덜	-4094
▁경쟁력을	-4095
▁자주	-4096
▁샤	-4097
▁저녁	-4098
▁요금	-4099
소프트	-4100
재난	-4101
▁했다고	-4102
▁사람의	-4103
추고	-4104
▁조언	-4105
▁엄마	-4106
▁선출	-4107
▁미리	-4108
▁선제	-4109
포르	-4110
야구	-4111
▁내에서	-4112
▁46	-4113
▁도내	-4114
▁폐쇄	-4115
▁장을	-4116
▁변화를	-4117
▁감소한	-4118
국민의	-4119
▁격리	-4120
▁매장	-4121
이노	-4122
▁장비	-4123
▁인구	-4124
▁역량을	-4125
▁빠져	-4126
▁나오는	-4127
▁사는	-4128
▁검색	-4129
▁전쟁	-4130
▁인재	-4131
▁앞둔	-4132
처를	-4133
▁자료를	-4134
다시	-4135
주년	-4136
문이	-4137
▁55	-4138
▁점유	-4139
시장의	-4140
사람	-4141
팀이	-4142
위원장은	-4143
▁뿐만	-4144
▁합병	-4145
질환	-4146
▁피해자	-4147
업무	-4148
▁전세계	-4149
▁규모로	-4150
의가	-4151
▁가까운	-4152
트가	-4153
은행이	-4154
▁쓴	-4155
비아	-4156
▁시대	-4157
▁끈	-4158
랜차이즈	-4159
▁노인	-4160
시장은	-4161
월에는	-4162
▁열심히	-4163
ec	-4164
식은	-4165
▁폐지	-4166
▁있다면	-4167
▁입은	-4168
kg	-4169
▁런	-4170
회와	-4171
▁협업	-4172
조치	-4173
▁전파	-4174
실이	-4175
기온은	-4176
제약	-4177
▁줄어들	-4178
▁나머지	-4179
더불어	-4180
간담	-4181
수수색	-4182
시키고	-4183
▁생각을	-4184
프라인	-4185
▁참여하는	-4186
9000	-4187
이라도	-4188
▁내용은	-4189
▁알려진	-4190
▁치열	-4191
▁최적	-4192
법원	-4193
▁틀	-4194
▁변호사	-4195
▁단속	-4196
▁잡아	-4197
외국	-4198
▁재판에	-4199
▁사이에	-4200
▁성장을	-4201
pg	-4202
▁같아	-4203
▁지수는	-4204
▁모르	-4205
▁비가	-4206
▁47	-4207
▁y	-4208
▁깊은	-4209
분간	-4210
판을	-4211
권은	-4212
인사	-4213
▁결승	-4214
▁입법	-4215
▁일자	-4216
인도	-4217
▁신임	-4218
실제로	-4219
분쯤	-4220
▁징계	-4221
산을	-4222
▁고급	-4223
▁요구했다	-4224
▁후속	-4225
▁입증	-4226
었는데	-4227
▁뿌	-4228
▁저렴	-4229
부처	-4230
▁언급했다	-4231
타임	-4232
▁가격이	-4233
▁벌금	-4234
▁지속적인	-4235
이용	-4236
▁화장품	-4237
인터넷	-4238
.△	-4239
▁명확	-4240
▁성공했다	-4241
▁제거	-4242
▁학부모	-4243
▁지배	-4244
▁구글	-4245
▁그렇	-4246
▁벗어나	-4247
▁결합	-4248
▁본부	-4249
지면	-4250
▁클래	-4251
▁ip	-4252
▁참석해	-4253
▁운영하고	-4254
대행	-4255
▁회의를	-4256
▁nh	-4257
▁분리	-4258
드러	-4259
▁신제품	-4260
통을	-4261
망을	-4262
▁자원	-4263
▁장관이	-4264
엑스	-4265
▁신경	-4266
▁매출이	-4267
▁착수	-4268
▁의한	-4269
▁긴장	-4270
▁테러	-4271
▁실시한	-4272
▁보기	-4273
주년을	-4274
주간	-4275
굉장	-4276
▁개입	-4277
▁손해	-4278
▁어머니	-4279
▁성능	-4280
핑크	-4281
기업의	-4282
개인	-4283
니는	-4284
▁완전히	-4285
▁자회사	-4286
▁기회가	-4287
나다	-4288
▁대우	-4289
▁선정됐다	-4290
책임	-4291
제와	-4292
▁상향	-4293
함에	-4294
▁힘입	-4295
▁소환	-4296
▁여의도	-4297
책을	-4298
▁들여	-4299
▁지연	-4300
사용	-4301
▁개발한	-4302
기본	-4303
▁추석	-4304
즈를	-4305
▁그녀	-4306
▁느껴	-4307
▁솔로	-4308
▁표준	-4309
▁비서	-4310
▁키워	-4311
▁광역	-4312
센터는	-4313
▁담아	-4314
▁올린	-4315
▁참여해	-4316
마켓	-4317
▁지원할	-4318
주행	-4319
▁시기	-4320
▁안정적인	-4321
▁앞에	-4322
▁비중이	-4323
▁마련했다	-4324
세는	-4325
▁써	-4326
▁가까이	-4327
▁보유하고	-4328
상담	-4329
▁힘든	-4330
▁외에	-4331
▁체육	-4332
▁배당	-4333
▁결과에	-4334
▁제시했다	-4335
▁통보	-4336
▁대학생	-4337
▁발급	-4338
▁소폭	-4339
▁사용하는	-4340
▁보상	-4341
▁공시했다	-4342
자유	-4343
들께	-4344
▁물류	-4345
▁입장이다	-4346
▁기소된	-4347
어린	-4348
▁인용	-4349
티스트	-4350
▁평소	-4351
35	-4352
▁했고	-4353
▁문을	-4354
▁적은	-4355
▁추진하고	-4356
▁떠나	-4357
투어	-4358
▁즉시	-4359
▁동료	-4360
▁발생할	-4361
나무	-4362
소속	-4363
▁술	-4364
▁부상	-4365
모든	-4366
▁불확실	-4367
▁압수수색	-4368
▁요청했다	-4369
▁정확한	-4370
정은	-4371
▁우수한	-4372
▁미세먼지	-4373
▁이용한	-4374
1000	-4375
▁그림	-4376
▁메이저	-4377
▁태양	-4378
전기	-4379
▁이들의	-4380
▁강원도	-4381
▁힐	-4382
▁동참	-4383
▁부총	-4384
곳에서	-4385
▁솔루션	-4386
▁모색	-4387
▁수술	-4388
▁옷	-4389
▁협력을	-4390
▁메시지를	-4391
▁영역	-4392
문은	-4393
▁포스코	-4394
▁◇	-4395
▁이상을	-4396
▁벤	-4397
▁반등	-4398
질이	-4399
리트	-4400
▁한층	-4401
▁소속사	-4402
▁수준을	-4403
▁비즈니스	-4404
▁가을	-4405
▁걷	-4406
▁회계	-4407
전거	-4408
▁세부	-4409
혁명	-4410
▁넘게	-4411
▁새벽	-4412
▁개설	-4413
▁기자들과	-4414
▁작업을	-4415
▁참여할	-4416
▁향한	-4417
▁안보	-4418
이들	-4419
▁영입	-4420
▁교육을	-4421
▁댓글	-4422
▁메르	-4423
평화	-4424
▁악화	-4425
유럽	-4426
▁비밀	-4427
▁자신을	-4428
셔츠	-4429
▁돌려	-4430
▁활성화를	-4431
▁/	-4432
▁즉각	-4433
▁류	-4434
조직	-4435
기지	-4436
▁휴대	-4437
▁무대를	-4438
▁당일	-4439
▁검찰에	-4440
▁이어졌다	-4441
자료	-4442
▁샌	-4443
▁일환	-4444
▁출연해	-4445
공공	-4446
▁봉사	-4447
▁체포	-4448
부한	-4449
췄다	-4450
▁진행되는	-4451
▁국토교통	-4452
▁운행	-4453
▁주재	-4454
결을	-4455
▁목적	-4456
▁종로	-4457
▁시작된	-4458
즈는	-4459
심이	-4460
▁듣고	-4461
▁했는데	-4462
실에	-4463
▁밟	-4464
소송	-4465
프리카	-4466
▁eu	-4467
▁돋보	-4468
씨에	-4469
▁전투	-4470
▁그것	-4471
▁발생하는	-4472
▁힘입어	-4473
▁매체	-4474
▁청문	-4475
▁대책을	-4476
드리	-4477
▁때까지	-4478
주기	-4479
내며	-4480
▁지사는	-4481
정으로	-4482
▁월드컵	-4483
▁증시	-4484
▁기록하며	-4485
▁불가피	-4486
굉장히	-4487
▁앉	-4488
▁미만	-4489
해온	-4490
법상	-4491
▁발의	-4492
▁나오고	-4493
민주연합	-4494
▁자체가	-4495
▁실내	-4496
▁하나로	-4497
▁아내	-4498
년의	-4499
어서	-4500
려면	-4501
인에	-4502
▁적합	-4503
량의	-4504
구청	-4505
재산	-4506
진과	-4507
.200	-4508
▁문제는	-4509
▁말한다	-4510
▁절대	-4511
▁맡아	-4512
▁공무	-4513
사이	-4514
▁확충	-4515
▁회장의	-4516
▁남은	-4517
45	-4518
▁컸	-4519
es	-4520
안보	-4521
▁추진할	-4522
인권	-4523
주요	-4524
▁물러	-4525
▁내다봤다	-4526
자치단체	-4527
▁청약	-4528
▁검찰은	-4529
-2	-4530
업에	-4531
▁감독의	-4532
른다	-4533
▁받게	-4534
▁가능성도	-4535
▁자극	-4536
▁프로모	-4537
함이	-4538
그룹은	-4539
:30	-4540
▁부분이	-4541
▁느낄	-4542
차로	-4543
▁점도	-4544
▁이른바	-4545
100	-4546
됐지만	-4547
상에서	-4548
▁말이	-4549
가에	-4550
해진	-4551
▁반박	-4552
▁보급	-4553
동에	-4554
▁콘셉	-4555
정부의	-4556
레이드	-4557
▁축하	-4558
대변	-4559
서비스를	-4560
직한	-4561
모를	-4562
▁일정을	-4563
▁뮤직	-4564
▁협조	-4565
▁폭행	-4566
▁연습	-4567
▁리스크	-4568
네시아	-4569
주주	-4570
▁수급	-4571
▁들고	-4572
연히	-4573
센터를	-4574
스테	-4575
▁대법원	-4576
▁ceo	-4577
al	-4578
▁지휘	-4579
▁합격	-4580
▁화려	-4581
여개	-4582
대화	-4583
▁토대로	-4584
지게	-4585
▁교류	-4586
▁상당의	-4587
경기도	-4588
공연	-4589
..‘	-4590
인력	-4591
▁낼	-4592
▁가계	-4593
▁개인정보	-4594
은행의	-4595
▁높이	-4596
▁맨	-4597
▁인사를	-4598
그렇	-4599
▁콘텐츠를	-4600
▁공항	-4601
▁52	-4602
과거	-4603
▁노후	-4604
▁본격적으로	-4605
▁gs	-4606
▁블루	-4607
대형	-4608
▁순으로	-4609
부동산	-4610
▁실적을	-4611
▁배제	-4612
▁굳	-4613
조차	-4614
▁상징	-4615
▁발휘	-4616
▁의사를	-4617
명에게	-4618
▁합니다	-4619
▁현행	-4620
▁있는지	-4621
▁이르	-4622
케이션	-4623
▁지표	-4624
세트	-4625
▁경찰은	-4626
기금	-4627
▁혼자	-4628
중에	-4629
훨씬	-4630
상과	-4631
▁급락	-4632
자본	-4633
청문	-4634
유플러스	-4635
▁검찰이	-4636
철도	-4637
▁노력하겠다	-4638
였고	-4639
▁영어	-4640
▁금액	-4641
▁실행	-4642
소방	-4643
전체	-4644
행위	-4645
ai	-4646
▁성적	-4647
인들의	-4648
▁불리는	-4649
협의회	-4650
▁산하	-4651
▁공장	-4652
▁도와	-4653
▁이탈리아	-4654
▁화학	-4655
▁형태로	-4656
▁호남	-4657
▁개방	-4658
▁끌었다	-4659
▁후보자	-4660
보니	-4661
▁영업이익은	-4662
사들이	-4663
농협	-4664
▁부처	-4665
바른	-4666
~5	-4667
▁마련됐다	-4668
수와	-4669
▁명이	-4670
▁호주	-4671
▁훨씬	-4672
▁비대면	-4673
평을	-4674
배를	-4675
져야	-4676
▁강하게	-4677
▁심리	-4678
▁컨설팅	-4679
▁대해서	-4680
엔터테인먼트	-4681
면적	-4682
▁지역사회	-4683
▁못해	-4684
능력	-4685
▁공개된	-4686
공장	-4687
▁거래일	-4688
▁만들고	-4689
▁나는	-4690
▁지적이	-4691
▁활용할	-4692
▁공략	-4693
▁심각한	-4694
▁품목	-4695
▁수정	-4696
▁찬성	-4697
▁위로	-4698
진의	-4699
▁파견	-4700
이던	-4701
임대	-4702
▁침해	-4703
▁점차	-4704
▁·	-4705
▁비핵	-4706
▁가격은	-4707
▁로봇	-4708
재판부는	-4709
▁옆	-4710
▁멋	-4711
가포르	-4712
관의	-4713
설을	-4714
청와대	-4715
▁가슴	-4716
▁의뢰	-4717
수에	-4718
향후	-4719
▁처음이다	-4720
▁쌍	-4721
번호	-4722
▁이래	-4723
이어서	-4724
▁매출액	-4725
▁탄생	-4726
▁널	-4727
개정	-4728
▁후보를	-4729
스카	-4730
대응	-4731
▁동물	-4732
했기	-4733
▁항소	-4734
본부는	-4735
▁유동	-4736
청이	-4737
▁피의	-4738
▁강화를	-4739
▁에이	-4740
▁도쿄	-4741
▁기획재	-4742
위기	-4743
▁치료를	-4744
란드	-4745
디션	-4746
▁제고	-4747
99	-4748
▁이들은	-4749
▁총리	-4750
▁120	-4751
▁우리의	-4752
▁미술	-4753
▁벤처	-4754
▁의미를	-4755
▁저지	-4756
단과	-4757
월말	-4758
▁선정된	-4759
사례	-4760
▁등급	-4761
▁간의	-4762
▁제일	-4763
▁벨	-4764
▁입원	-4765
공사는	-4766
▁여러분	-4767
▁노하우	-4768
▁클럽	-4769
▁말고	-4770
▁훼손	-4771
▁막기	-4772
▁제조업	-4773
위원회의	-4774
▁거짓	-4775
▁취재	-4776
클럽	-4777
▁모여	-4778
en	-4779
..-	-4780
kb	-4781
▁구속영	-4782
심에서	-4783
▁차이가	-4784
▁관계를	-4785
▁의미가	-4786
▁올려	-4787
▁경선	-4788
▁기대를	-4789
트의	-4790
수출	-4791
▁행위	-4792
▁인간	-4793
이로써	-4794
군에	-4795
▁대리	-4796
▁정부와	-4797
력으로	-4798
▁띄	-4799
대문	-4800
▁배터리	-4801
▁의견이	-4802
▁수집	-4803
골을	-4804
▁끝난	-4805
당에서	-4806
▁장르	-4807
▁전망된다	-4808
유치	-4809
▁nc	-4810
▁선보인	-4811
▁선배	-4812
▁테마	-4813
▁목적으로	-4814
37	-4815
힌다	-4816
▁무기	-4817
미디어	-4818
▁40%	-4819
▁작년	-4820
정과	-4821
▁고령	-4822
▁규모는	-4823
▁석유	-4824
수원	-4825
▁불거	-4826
▁사유	-4827
건은	-4828
▁민생	-4829
님이	-4830
▁인지	-4831
▁예산을	-4832
▁야구	-4833
▁0.0	-4834
▁사례가	-4835
▁통상	-4836
▁사람을	-4837
▁대만	-4838
정규	-4839
졌고	-4840
▁북한이	-4841
▁뽐	-4842
▁멈	-4843
▁이들이	-4844
사법	-4845
감한	-4846
청년	-4847
▁유력	-4848
지기	-4849
▁다하겠다	-4850
만한	-4851
청소년	-4852
▁선진	-4853
▁분야의	-4854
▁수비	-4855
▁달한다	-4856
상태	-4857
시코	-4858
업종	-4859
가장	-4860
사진	-4861
▁말해	-4862
밴드	-4863
규제	-4864
▁쓸	-4865
재가	-4866
▁코리아	-4867
▁직전	-4868
오프	-4869
▁상승세를	-4870
36	-4871
시장에	-4872
▁추경	-4873
홀에서	-4874
et	-4875
천원	-4876
▁연예	-4877
▁사기	-4878
중인	-4879
▁지방선거	-4880
튜디오	-4881
학년	-4882
아야	-4883
매매	-4884
▁연령	-4885
▁섭	-4886
▁아티스트	-4887
▁마이크	-4888
▁대표적인	-4889
▁문제에	-4890
▁투명	-4891
▁첨단	-4892
▁이유를	-4893
▁조달	-4894
용품	-4895
▁59	-4896
▁사무총	-4897
매출	-4898
▁바다	-4899
이기도	-4900
인증	-4901
▁모았다	-4902
▁충격	-4903
▁한국당	-4904
▁조례	-4905
▁이번에	-4906
미나	-4907
▁기준을	-4908
▁추구	-4909
▁부담이	-4910
▁마이	-4911
예방	-4912
▁직업	-4913
▁다수	-4914
음악	-4915
보자	-4916
▁지상	-4917
시로	-4918
▁굉장히	-4919
▁뭐	-4920
공급	-4921
봉사	-4922
▁작품을	-4923
▁허가	-4924
▁혹은	-4925
▁진행하는	-4926
..◇	-4927
▁동해	-4928
▁역을	-4929
▁70%	-4930
▁무대	-4931
달라고	-4932
▁실제로	-4933
곳을	-4934
▁무료로	-4935
계의	-4936
▁전담	-4937
관에	-4938
▁테스트	-4939
▁높이고	-4940
▁거리두기	-4941
국토	-4942
고가	-4943
▁줄어든	-4944
▁피해가	-4945
▁계좌	-4946
▁모니터링	-4947
▁소개했다	-4948
측은	-4949
▁우리는	-4950
여명의	-4951
▁정례	-4952
처분	-4953
▁아니냐는	-4954
▁입을	-4955
▁봤	-4956
▁면접	-4957
▁과학기술	-4958
▁프랜차이즈	-4959
▁비행	-4960
▁놀라	-4961
▁역량	-4962
▁범행	-4963
▁떨어졌다	-4964
▁혼란	-4965
어가	-4966
란히	-4967
▁제주도	-4968
▁행사는	-4969
▁기재	-4970
법은	-4971
▁자아냈다	-4972
▁웨	-4973
▁동부	-4974
▁삶을	-4975
전환	-4976
관과	-4977
▁대통령을	-4978
전한	-4979
▁원활	-4980
▁차기	-4981
▁단기	-4982
▁경제적	-4983
▁위축	-4984
주얼	-4985
▁규모가	-4986
▁쟁	-4987
▁편안	-4988
▁특성	-4989
▁56	-4990
▁캠페인	-4991
유통	-4992
개가	-4993
▁하나의	-4994
▁수수료	-4995
▁레드	-4996
te	-4997
▁본회의	-4998
순실	-4999
두산	-5000
법이	-5001
감은	-5002
▁이어지고	-5003
리핀	-5004
▁백악	-5005
▁나타나	-5006
시대	-5007
▁강릉	-5008
▁대처	-5009
방안	-5010
▁최저임금	-5011
토론	-5012
▁연구개발	-5013
▁잊	-5014
▁가로	-5015
▁충족	-5016
▁주가가	-5017
▁일제	-5018
트와	-5019
됐다는	-5020
주일	-5021
▁미국과	-5022
▁데이터를	-5023
물질	-5024
성의	-5025
▁아주	-5026
이었던	-5027
▁추진한다	-5028
국은	-5029
울산	-5030
▁'3	-5031
시안	-5032
▁유기	-5033
▁경우에는	-5034
▁어려워	-5035
is	-5036
84	-5037
▁단지	-5038
▁길을	-5039
▁정식	-5040
▁보낸	-5041
퓨터	-5042
▁앤	-5043
▁깔	-5044
▁중구	-5045
▁모으	-5046
▁논의를	-5047
주에	-5048
▁5%	-5049
화문	-5050
.11	-5051
▁커뮤니티	-5052
▁라이브	-5053
포럼	-5054
담당	-5055
▁뮤지컬	-5056
▁어울	-5057
▁일시	-5058
▁소상공인	-5059
▁유저	-5060
소의	-5061
▁안전한	-5062
▁적용해	-5063
▁둘러싼	-5064
에셋	-5065
력은	-5066
▁원유	-5067
▁대화를	-5068
리면서	-5069
▁수익을	-5070
▁아들	-5071
▁버스	-5072
마크	-5073
▁비례	-5074
▁의장은	-5075
▁참고	-5076
▁맡았다	-5077
▁뛰어난	-5078
세점	-5079
▁정체	-5080
▁소프트웨어	-5081
종목	-5082
계올림픽	-5083
▁기대하고	-5084
▁54	-5085
서의	-5086
▁실시한다	-5087
결제	-5088
박스	-5089
▁건의	-5090
식과	-5091
▁분쟁	-5092
이러한	-5093
▁개선을	-5094
▁분노	-5095
▁스크	-5096
▁급격	-5097
제작	-5098
방향	-5099
▁이뤄질	-5100
▁확대해	-5101
▁kia	-5102
fc	-5103
▁측이	-5104
▁브라질	-5105
각을	-5106
▁좋지	-5107
▁습	-5108
▁서울대	-5109
▁춘천	-5110
▁콘서트	-5111
시청	-5112
▁발전을	-5113
ta	-5114
▁과도	-5115
▁부족한	-5116
▁신청을	-5117
▁뜨거운	-5118
▁공동으로	-5119
▁42	-5120
작용	-5121
마저	-5122
▁진정	-5123
▁화이트	-5124
▁보건복지	-5125
▁상용	-5126
채널	-5127
▁tvn	-5128
▁이어갔다	-5129
▁직장	-5130
▁문제로	-5131
▁노사	-5132
일의	-5133
유예	-5134
▁발언을	-5135
면에	-5136
▁통계	-5137
▁핀	-5138
▁개헌	-5139
▁이중	-5140
▁소요	-5141
▁입찰	-5142
멕시코	-5143
해주는	-5144
▁경찰이	-5145
▁때마다	-5146
적으로는	-5147
▁싱글	-5148
▁임원	-5149
▁깜	-5150
▁제정	-5151
▁움직임	-5152
전의	-5153
▁서초	-5154
▁#	-5155
▁그쳤다	-5156
▁인생	-5157
▁2%	-5158
▁편리	-5159
▁준수	-5160
▁보증	-5161
tbc	-5162
장에게	-5163
▁자문	-5164
▁일본의	-5165
▁그가	-5166
▁있어야	-5167
▁용인	-5168
▁모임	-5169
▁생존	-5170
▁개발을	-5171
▁대표와	-5172
분석	-5173
▁거뒀다	-5174
▁새정치민주연합	-5175
▁멜	-5176
▁말까지	-5177
▁해제	-5178
▁끌어올	-5179
▁내외	-5180
▁본인	-5181
▁컬렉	-5182
협약을	-5183
한테	-5184
▁메이크	-5185
▁미래를	-5186
▁전략을	-5187
▁시선을	-5188
했습니다	-5189
2'	-5190
리카	-5191
▁보인	-5192
▁펜	-5193
▁매출은	-5194
▁벽	-5195
▁75	-5196
끄는	-5197
국이	-5198
조건	-5199
▁따뜻한	-5200
시장이	-5201
▁실험	-5202
세종	-5203
만원에	-5204
▁정리	-5205
소와	-5206
▁결의	-5207
▁발사	-5208
탄소년	-5209
복합	-5210
되자	-5211
▁주의	-5212
자들	-5213
▁지원하고	-5214
▁앞장	-5215
공무원	-5216
▁목소리가	-5217
회계	-5218
됨에	-5219
▁방법을	-5220
집을	-5221
레이션	-5222
▁철저히	-5223
기반	-5224
브랜드	-5225
전쟁	-5226
▁모두가	-5227
▁기록을	-5228
▁맹	-5229
충북	-5230
▁확대를	-5231
▁예상했다	-5232
체육관광	-5233
▁선별	-5234
▁마치고	-5235
▁늘고	-5236
시리즈	-5237
▁충돌	-5238
뉴스	-5239
▁0.2	-5240
만약	-5241
치며	-5242
▁잡았다	-5243
▁떠올	-5244
감과	-5245
pc	-5246
▁진행될	-5247
신용	-5248
▁남부	-5249
▁곤	-5250
▁폐기	-5251
버그	-5252
▁끌고	-5253
이었	-5254
▁소녀	-5255
지주	-5256
콘텐츠	-5257
▁이뤄진	-5258
▁꺾	-5259
▁자사	-5260
▁맞은	-5261
▁긍정적인	-5262
▁잠재	-5263
학습	-5264
▁제품은	-5265
▁신입	-5266
보수	-5267
▁신분	-5268
식에서	-5269
▁시가	-5270
▁제휴	-5271
▁펀	-5272
▁있으면	-5273
▁참여했다	-5274
▁산림	-5275
▁감정	-5276
▁한정	-5277
교육청은	-5278
▁여론조사	-5279
▁건조	-5280
▁공판	-5281
▁아마	-5282
▁선보일	-5283
39	-5284
가치	-5285
▁구분	-5286
▁적시	-5287
▁강화하고	-5288
▁부당	-5289
연한	-5290
▁전원	-5291
▁41	-5292
▁바른미래	-5293
▁금리인	-5294
공헌	-5295
▁57	-5296
민의	-5297
▁통제	-5298
▁이뤄졌다	-5299
농업	-5300
▁만날	-5301
스티벌	-5302
▁다운	-5303
▁대거	-5304
▁창의	-5305
미술	-5306
▁충전	-5307
▁한해	-5308
▁소식을	-5309
트에	-5310
▁무너	-5311
▁추진하는	-5312
▁좁	-5313
▁유로	-5314
▁알려져	-5315
▁썼	-5316
▁디스플레이	-5317
▁짜	-5318
300	-5319
인당	-5320
▁아웃	-5321
▁치러	-5322
▁시점	-5323
.12	-5324
▁수여	-5325
▁현안	-5326
▁퇴직	-5327
▁묶	-5328
심은	-5329
mc	-5330
▁나눔	-5331
▁앞세	-5332
▁대표이	-5333
내기	-5334
▁진료	-5335
차량	-5336
아는	-5337
하이닉	-5338
▁부분을	-5339
▁마음이	-5340
지표	-5341
▁차지하는	-5342
▁잡고	-5343
▁유지했다	-5344
▁쌀	-5345
발을	-5346
▁수능	-5347
▁멘	-5348
나이	-5349
등학생	-5350
▁변호사는	-5351
당초	-5352
렉시	-5353
위와	-5354
▁넷	-5355
▁여당	-5356
시설을	-5357
▁항상	-5358
▁위기를	-5359
▁정착	-5360
▁미치는	-5361
▁매도	-5362
▁무죄	-5363
경찰청	-5364
▁태풍	-5365
▁보관	-5366
축제	-5367
백화점	-5368
▁지출	-5369
▁남녀	-5370
▁굴	-5371
분양	-5372
금지	-5373
브리	-5374
os	-5375
친다	-5376
▁안팎	-5377
▁의혹이	-5378
ps	-5379
▁캠페	-5380
▁공기	-5381
지자	-5382
▁탑승	-5383
▁2007	-5384
▁사용해	-5385
서로	-5386
▁is	-5387
▁가맹점	-5388
▁최신	-5389
▁비교해	-5390
복을	-5391
▁패턴	-5392
▁암호	-5393
싱턴	-5394
▁인도네시아	-5395
▁나왔	-5396
▁단축	-5397
▁겨냥	-5398
▁공화	-5399
기까지	-5400
▁pd	-5401
▁탁	-5402
대우	-5403
▁관세	-5404
▁유리	-5405
▁매니	-5406
변호	-5407
▁교사	-5408
머스	-5409
▁환경을	-5410
▁mc	-5411
▁유발	-5412
▁방문한	-5413
▁캐나다	-5414
▁까	-5415
▁준공	-5416
▁소송을	-5417
▁높게	-5418
▁못할	-5419
발표	-5420
38	-5421
▁해당하는	-5422
사업에	-5423
▁공개한	-5424
업계에	-5425
실장	-5426
▁넘치는	-5427
▁모습이다	-5428
▁며	-5429
수처	-5430
들어	-5431
부장	-5432
▁커지고	-5433
폰을	-5434
▁600	-5435
▁과제	-5436
▁기아	-5437
▁아르	-5438
▁x	-5439
▁이사회	-5440
▁격려	-5441
권과	-5442
온이	-5443
▁찾은	-5444
▁안심	-5445
▁그간	-5446
▁이웃	-5447
▁김모	-5448
▁만한	-5449
▁창원	-5450
의회	-5451
▁흥행	-5452
국을	-5453
▁펼쳤다	-5454
▁음원	-5455
▁명절	-5456
▁올해는	-5457
마지막	-5458
▁64	-5459
고도	-5460
허가	-5461
~6	-5462
스팅	-5463
▁차세대	-5464
▁적립	-5465
▁속도를	-5466
의약품	-5467
▁싱가포르	-5468
선언	-5469
학을	-5470
▁올랐	-5471
계획을	-5472
▁알게	-5473
▁고백	-5474
▁우승을	-5475
▁법원	-5476
▁서류	-5477
음이	-5478
▁'4	-5479
따라서	-5480
▁개최한다	-5481
스키	-5482
여러	-5483
▁옮겨	-5484
▁컴백	-5485
ol	-5486
▁농협	-5487
급여	-5488
외교	-5489
이면	-5490
▁동남	-5491
▁환영	-5492
▁영양	-5493
▁우려를	-5494
▁풀어	-5495
아동	-5496
▁필요하다는	-5497
피안타	-5498
▁묻는	-5499
차전	-5500
▁전부터	-5501
▁장학	-5502
▁확인했다	-5503
▁체크	-5504
77	-5505
▁연기를	-5506
기념	-5507
▁전세	-5508
.15	-5509
▁부실	-5510
퍼런	-5511
물은	-5512
▁늘어나	-5513
▁보냈다	-5514
카데	-5515
▁제목	-5516
▁요구하는	-5517
▁질환	-5518
▁전날보다	-5519
▁지침	-5520
통상자원	-5521
▁80%	-5522
평양	-5523
경남	-5524
▁바꿔	-5525
▁예정인	-5526
▁공을	-5527
▁맡고	-5528
▁캠프	-5529
자료를	-5530
▁일환으로	-5531
홈런	-5532
▁처분	-5533
위원회에	-5534
어는	-5535
통화	-5536
▁58	-5537
▁선생	-5538
▁위탁	-5539
▁일단	-5540
34	-5541
▁마치	-5542
카카오	-5543
▁제도를	-5544
캠프	-5545
접종	-5546
▁삶의	-5547
▁준다	-5548
▁절감	-5549
▁축제	-5550
▁높았다	-5551
▁상환	-5552
부로	-5553
▁앞으로도	-5554
▁비용을	-5555
▁외환	-5556
▁론	-5557
▁개념	-5558
di	-5559
▁고객이	-5560
구나	-5561
▁자가격	-5562
제일	-5563
관계를	-5564
봐야	-5565
▁뒤를	-5566
▁어린이집	-5567
▁철강	-5568
스탄	-5569
▁모습으로	-5570
물의	-5571
팀을	-5572
▁추첨	-5573
박물	-5574
▁응급	-5575
추행	-5576
기순	-5577
심으로	-5578
▁국민이	-5579
▁지지를	-5580
구와	-5581
채권	-5582
▁자금을	-5583
▁금메달	-5584
▁쾌	-5585
운전	-5586
▁씨는	-5587
편의	-5588
확인	-5589
형이	-5590
▁기존의	-5591
▁사업이	-5592
▁똑	-5593
▁쏘	-5594
더니	-5595
올해는	-5596
▁기조	-5597
▁부적	-5598
고는	-5599
▁담겨	-5600
▁접속	-5601
해질	-5602
▁아이돌	-5603
▁제출한	-5604
▁것입니다	-5605
노총	-5606
..◆	-5607
▁타이어	-5608
▁분기	-5609
▁성격	-5610
▁재활	-5611
▁대표를	-5612
▁운영을	-5613
새로운	-5614
▁금호	-5615
▁매치	-5616
▁블록체인	-5617
▁사건이	-5618
▁공연을	-5619
순환	-5620
▁지역을	-5621
▁실종	-5622
장애인	-5623
▁사업의	-5624
▁부채	-5625
▁묘	-5626
사건	-5627
경기에서	-5628
▁의장	-5629
개월간	-5630
▁시정	-5631
▁스테	-5632
호가	-5633
▁스피	-5634
▁대한항공	-5635
▁방향으로	-5636
광역	-5637
▁일일	-5638
드의	-5639
이라면서	-5640
내년	-5641
하라고	-5642
▁개정안	-5643
골프	-5644
▁통일	-5645
리바	-5646
▁렌	-5647
실은	-5648
▁위에	-5649
▁스위	-5650
년과	-5651
.18	-5652
▁변화가	-5653
자도	-5654
▁베스트	-5655
.30	-5656
▁칭	-5657
op	-5658
자책	-5659
▁사이버	-5660
에이	-5661
▁때도	-5662
▁여파로	-5663
트코	-5664
~20	-5665
▁고정	-5666
-3	-5667
▁함께하는	-5668
▁정무	-5669
▁원장은	-5670
▁밥	-5671
▁건강한	-5672
실적	-5673
현장	-5674
▁조속	-5675
▁수업	-5676
▁넥센	-5677
▁선보이는	-5678
▁존중	-5679
▁진상	-5680
▁유권	-5681
▁지수	-5682
▁이모	-5683
프레	-5684
계약을	-5685
▁압도	-5686
▁방해	-5687
▁근본	-5688
▁저희	-5689
▁철도	-5690
서와	-5691
사태	-5692
라엘	-5693
정규직	-5694
▁유지하고	-5695
▁택시	-5696
▁포함된	-5697
처벌	-5698
구로	-5699
▁초등학교	-5700
▁당내	-5701
아파트	-5702
▁뚜	-5703
▁높이는	-5704
▁아름다운	-5705
호선	-5706
▁대표하는	-5707
단으로	-5708
▁말한	-5709
▁개발에	-5710
촛불	-5711
방안을	-5712
▁교환	-5713
▁로맨	-5714
▁떠오	-5715
▁66	-5716
즈가	-5717
▁다이	-5718
셨다	-5719
▁분석이다	-5720
주와	-5721
▁충청	-5722
었다고	-5723
▁분들이	-5724
▁기대감을	-5725
단한	-5726
ts	-5727
▁쇼핑몰	-5728
째를	-5729
력에	-5730
▁천안	-5731
우리가	-5732
▁무게	-5733
들과의	-5734
▁게임을	-5735
▁잠실	-5736
환자	-5737
▁헤어	-5738
스트라	-5739
전과	-5740
저축	-5741
▁전년대비	-5742
▁꼽았다	-5743
▁방식을	-5744
▁살해	-5745
▁묵	-5746
▁제안했다	-5747
▁보여주는	-5748
▁지목	-5749
▁기후	-5750
▁상관	-5751
▁전망이	-5752
▁보일	-5753
▁홈페이지를	-5754
시장을	-5755
▁경기에	-5756
▁계기가	-5757
▁구성됐다	-5758
비디오	-5759
.“	-5760
▁모은	-5761
▁수십	-5762
▁4000	-5763
▁배송	-5764
▁국내에서	-5765
금액	-5766
▁협의를	-5767
▁jtbc	-5768
▁회담	-5769
세포	-5770
치로	-5771
석이	-5772
질의	-5773
처음	-5774
▁유의	-5775
자재	-5776
대변인은	-5777
▁증가하고	-5778
▁주행	-5779
▁실적이	-5780
▁트위터	-5781
▁미사일	-5782
트랙	-5783
▁가속	-5784
오고	-5785
공개된	-5786
우스	-5787
▁시작해	-5788
▁더했다	-5789
▁피고	-5790
▁지하철	-5791
▁관내	-5792
부터는	-5793
▁세트	-5794
▁아이폰	-5795
▁얻고	-5796
as	-5797
이처럼	-5798
▁환자가	-5799
▁진짜	-5800
▁전년동	-5801
▁파이	-5802
사업은	-5803
▁중고	-5804
▁세대	-5805
▁연합	-5806
주차	-5807
▁맞게	-5808
치의	-5809
▁휩	-5810
▁안에서	-5811
▁으로	-5812
▁주목된다	-5813
그룹의	-5814
상승	-5815
어난	-5816
▁계열사	-5817
▁고객에게	-5818
▁시리아	-5819
▁후보자는	-5820
▁인사청문	-5821
로그	-5822
폭이	-5823
▁84	-5824
카페	-5825
▁감염병	-5826
타로	-5827
▁고객의	-5828
카데미	-5829
▁이외	-5830
▁한진	-5831
▁생각해	-5832
▁보통	-5833
부품	-5834
ls	-5835
▁정의당	-5836
▁세계적인	-5837
▁신곡	-5838
▁기상	-5839
▁별도의	-5840
▁이번이	-5841
▁유행	-5842
▁당첨	-5843
▁요양	-5844
▁cc	-5845
▁각오	-5846
▁기업들이	-5847
▁바이든	-5848
▁준비를	-5849
▁전까지	-5850
▁조절	-5851
▁농촌	-5852
그럼	-5853
▁있으나	-5854
▁이하의	-5855
스케어	-5856
증권은	-5857
▁높여	-5858
▁사드	-5859
▁q	-5860
▁‘201	-5861
▁미국이	-5862
든지	-5863
스턴	-5864
▁실업	-5865
▁민원	-5866
▁선고했다	-5867
▁현장을	-5868
▁오피스	-5869
▁훌	-5870
▁경계	-5871
▁스페	-5872
물론	-5873
▁선수들이	-5874
일자리	-5875
▁수렴	-5876
▁무선	-5877
▁사전에	-5878
▁알렸다	-5879
▁2~3	-5880
▁하자	-5881
▁미칠	-5882
▁곳은	-5883
▁2022	-5884
▁수많은	-5885
▁열렸다	-5886
이밖에	-5887
55	-5888
화의	-5889
▁60%	-5890
물로	-5891
리게	-5892
▁0.5	-5893
▁원격	-5894
▁특유의	-5895
▁자리에	-5896
▁측정	-5897
▁호응	-5898
▁차별화된	-5899
나갈	-5900
▁사회공헌	-5901
쉽게	-5902
▁노선	-5903
한미	-5904
▁마련해	-5905
oc	-5906
▁기각	-5907
군을	-5908
점과	-5909
▁부분에	-5910
▁했다는	-5911
▁주어	-5912
▁안전을	-5913
▁경험이	-5914
▁의원을	-5915
▁옛	-5916
▁시사	-5917
▁만기	-5918
▁체결했다	-5919
강원	-5920
역에서	-5921
삼진	-5922
▁목표를	-5923
▁시급	-5924
여자	-5925
▁자전거	-5926
▁소셜	-5927
▁입학	-5928
화한	-5929
▁들어갔다	-5930
원이다	-5931
▁전무	-5932
협상	-5933
이익은	-5934
▁보여주	-5935
수준	-5936
▁)	-5937
▁곧바로	-5938
▁운영한다	-5939
▁앞선	-5940
▁순매수	-5941
▁이어가고	-5942
▁무대에	-5943
▁무려	-5944
같이	-5945
▁전장	-5946
▁용산	-5947
기서	-5948
▁1~2	-5949
▁집회	-5950
▁이루어	-5951
로스	-5952
▁공시	-5953
48	-5954
ce	-5955
▁극대화	-5956
물산	-5957
▁몰아	-5958
문의	-5959
▁유해	-5960
▁능력을	-5961
▁한일	-5962
▁생명	-5963
최고	-5964
이의	-5965
▁추억	-5966
▁68	-5967
▁담겼다	-5968
▁중순	-5969
커피	-5970
지인	-5971
▁대비해	-5972
▁반려	-5973
▁라디오	-5974
문제	-5975
▁예정된	-5976
토록	-5977
▁뷰티	-5978
▁듀	-5979
▁기업에	-5980
▁250	-5981
▁분석한	-5982
▁'2	-5983
놓고	-5984
▁힘이	-5985
▁음주	-5986
▁생각하는	-5987
▁현장에	-5988
전시	-5989
력의	-5990
디지털	-5991
포먼	-5992
▁의원과	-5993
▁심사를	-5994
▁1500	-5995
기소	-5996
화하고	-5997
▁강남구	-5998
▁사용한	-5999
▁융합	-6000
피탈	-6001
진에	-6002
치게	-6003
너지를	-6004
▁cn	-6005
▁전수	-6006
▁토지	-6007
타점	-6008
▁기자간담	-6009
▁다녀	-6010
의견	-6011
▁담았다	-6012
셔널	-6013
▁받아들이	-6014
▁환율	-6015
있게	-6016
▁매출액은	-6017
출을	-6018
▁끝나	-6019
부담	-6020
회장	-6021
행복	-6022
▁위기에	-6023
▁빠진	-6024
▁보이지	-6025
▁해상	-6026
▁숲	-6027
.14	-6028
타워	-6029
요한	-6030
▁대로	-6031
▁타격	-6032
▁늘어날	-6033
▁신세계	-6034
▁척	-6035
리다	-6036
타운	-6037
▁당장	-6038
모바일	-6039
제조	-6040
▁이혼	-6041
▁상태에서	-6042
▁급여	-6043
▁수치다	-6044
▁학생들이	-6045
무엇	-6046
▁차관	-6047
영국	-6048
▁구단	-6049
타이어	-6050
▁댄	-6051
▁따로	-6052
공모	-6053
푸드	-6054
▁이어지는	-6055
65	-6056
인에게	-6057
▁분명히	-6058
▁필리핀	-6059
▁터키	-6060
이외	-6061
▁일은	-6062
▁톱	-6063
▁일대	-6064
▁상당히	-6065
▁광화문	-6066
▁별도로	-6067
▁후보의	-6068
▁3%	-6069
브라	-6070
▁소형	-6071
.25	-6072
▁프레	-6073
▁해운	-6074
▁지방자치단체	-6075
보통	-6076
▁신선	-6077
었을	-6078
▁잇따라	-6079
▁나아가	-6080
▁평생	-6081
남부	-6082
▁무관	-6083
▁부분은	-6084
▁매주	-6085
부채	-6086
해운	-6087
▁협약을	-6088
▁51	-6089
▁시내	-6090
보장	-6091
아웃	-6092
말로	-6093
직자	-6094
▁르	-6095
▁흉	-6096
▁할머니	-6097
기아	-6098
▁태국	-6099
▁순천	-6100
금으로	-6101
▁사이에서	-6102
이상	-6103
하려고	-6104
.16	-6105
▁듯한	-6106
메이	-6107
호는	-6108
▁엠	-6109
줘야	-6110
▁일방	-6111
▁대외	-6112
▁생긴	-6113
▁유가	-6114
▁최다	-6115
ap	-6116
▁기계	-6117
석은	-6118
▁실태	-6119
가량	-6120
▁신체	-6121
동이	-6122
▁국민연금	-6123
▁후보로	-6124
▁기록하고	-6125
▁필요하다고	-6126
▁협상을	-6127
위안	-6128
re	-6129
포구	-6130
mw	-6131
재정	-6132
▁53	-6133
▁도심	-6134
▁전달했다	-6135
▁참여를	-6136
ig	-6137
함과	-6138
ip	-6139
▁오프라인	-6140
.13	-6141
▁마스크를	-6142
▁별도	-6143
▁다수의	-6144
과장	-6145
▁들어간	-6146
▁설문	-6147
▁긴밀	-6148
▁개최했다	-6149
▁주간	-6150
▁기업을	-6151
비와	-6152
▁면역	-6153
동물	-6154
▁고등학교	-6155
▁대체로	-6156
▁무상	-6157
▁국방부	-6158
마이	-6159
▁공개됐다	-6160
▁경기가	-6161
▁발효	-6162
▁설득	-6163
▁워크	-6164
▁있었지만	-6165
▁섹	-6166
▁생각했다	-6167
시하고	-6168
▁정황	-6169
▁하향	-6170
로의	-6171
보안	-6172
▁잠정	-6173
▁멕시코	-6174
어린이	-6175
▁67	-6176
자산운용	-6177
거래일	-6178
▁느낌을	-6179
소재	-6180
▁훈	-6181
▁충분한	-6182
실점으로	-6183
▁기술이	-6184
▁ict	-6185
▁내달	-6186
중소기업	-6187
▁차트	-6188
▁다짐	-6189
함께	-6190
▁밸	-6191
배상	-6192
크라	-6193
▁투어	-6194
▁점은	-6195
▁추진해	-6196
▁소식	-6197
즈의	-6198
▁신인	-6199
검사를	-6200
교육을	-6201
▁위원장	-6202
▁약속했다	-6203
▁라이프	-6204
▁진출을	-6205
▁다채	-6206
자문	-6207
았지만	-6208
▁메이저리그	-6209
▁지식	-6210
새누리	-6211
지다	-6212
▁높이기	-6213
▁평균자책	-6214
▁파워	-6215
슈퍼	-6216
▁것인지	-6217
▁내수	-6218
▁내놨다	-6219
..▶	-6220
▁병행	-6221
▁'5	-6222
패로	-6223
▁화려한	-6224
증이	-6225
근무	-6226
르지	-6227
▁제기됐다	-6228
▁마크	-6229
▁복잡	-6230
협회는	-6231
연의	-6232
▁균형	-6233
49	-6234
▁런던	-6235
실로	-6236
am	-6237
▁않을까	-6238
..━.	-6239
▁함유	-6240
▁질의	-6241
▁화보	-6242
료가	-6243
문학	-6244
▁갑자기	-6245
▁먼	-6246
▁비중은	-6247
▁집단감염	-6248
렬한	-6249
▁갖춰	-6250
▁자율주행	-6251
▁공익	-6252
처는	-6253
▁회의에서	-6254
▁이끄는	-6255
괜찮	-6256
▁교수가	-6257
체계를	-6258
▁사례를	-6259
▁동일한	-6260
▁방송에서	-6261
바마	-6262
▁분야에	-6263
전북	-6264
▁화성	-6265
▁가해	-6266
▁논의가	-6267
▁않게	-6268
▁꼽힌다	-6269
▁숙박	-6270
▁지명	-6271
▁전당	-6272
▁낭	-6273
▁론칭	-6274
▁조회	-6275
▁금융감독	-6276
였지만	-6277
들로부터	-6278
리포	-6279
▁행복한	-6280
▁집행유예	-6281
▁1.5	-6282
소시	-6283
▁한국은	-6284
▁자택	-6285
정지	-6286
▁내내	-6287
▁개최한다고	-6288
리도	-6289
▁증상이	-6290
▁스튜디오	-6291
▁납품	-6292
▁저장	-6293
전으로	-6294
▁김포	-6295
▁납부	-6296
보드	-6297
▁숫	-6298
▁중부	-6299
▁퍼포먼	-6300
된다는	-6301
▁엄청	-6302
층의	-6303
정보통신	-6304
▁가이드	-6305
▁방법으로	-6306
▁태양광	-6307
▁출산	-6308
▁사고가	-6309
▁반영해	-6310
사항을	-6311
중이다	-6312
▁집에	-6313
▁방송을	-6314
▁풍부한	-6315
▁지구	-6316
▁사내	-6317
▁계산	-6318
가입	-6319
위험	-6320
▁기업들의	-6321
좋은	-6322
이블	-6323
피아	-6324
▁달려	-6325
화하는	-6326
▁재배	-6327
료로	-6328
▁볼넷	-6329
▁국회에	-6330
▁확대할	-6331
▁유형	-6332
▁대표팀	-6333
··	-6334
▁철회	-6335
▁근로자	-6336
▁지역은	-6337
식의	-6338
▁컴퓨터	-6339
▁내는	-6340
▁키움	-6341
▁재차	-6342
▁컬렉션	-6343
로가	-6344
▁대상이	-6345
레인	-6346
▁깜짝	-6347
▁바닥	-6348
명에서	-6349
▁포럼	-6350
▁저소득	-6351
락을	-6352
▁상태로	-6353
▁성명을	-6354
▁방향을	-6355
88	-6356
▁확대하고	-6357
▁다르다	-6358
▁점점	-6359
▁적절	-6360
▁검찰총	-6361
▁얻어	-6362
▁체결했다고	-6363
▁중국이	-6364
.17	-6365
▁제품으로	-6366
▁성공적으로	-6367
▁원을	-6368
블랙	-6369
렸고	-6370
기자	-6371
연대	-6372
▁고통	-6373
▁겪는	-6374
▁관리를	-6375
폭행	-6376
▁ib	-6377
기술을	-6378
비로	-6379
▁실시하고	-6380
향이	-6381
47	-6382
▁점포	-6383
▁올리	-6384
▁지적이다	-6385
▁맛을	-6386
전형	-6387
라이브	-6388
▁감축	-6389
▁명령	-6390
▁주지	-6391
텍사	-6392
▁출시했다	-6393
탄을	-6394
만여	-6395
아트	-6396
tf	-6397
▁은퇴	-6398
사회적	-6399
▁부작용	-6400
▁기획재정부	-6401
오후	-6402
▁포착	-6403
▁무산	-6404
▁문자	-6405
▁담고	-6406
산업의	-6407
▁진행한다고	-6408
▁지속가능	-6409
▁일어나	-6410
▁사건에	-6411
▁털어놨다	-6412
▁기념해	-6413
ng	-6414
▁누가	-6415
▁액션	-6416
수입	-6417
재해	-6418
▁회사의	-6419
▁고객을	-6420
▁사우디	-6421
▁팀이	-6422
▁지역경제	-6423
▁상업	-6424
▁얻을	-6425
▁내야	-6426
칙을	-6427
▁상한	-6428
벤처기업	-6429
▁주장을	-6430
▁멀티	-6431
▁이용자	-6432
▁마주	-6433
▁대의	-6434
sg	-6435
▁측면에서	-6436
▁문의	-6437
해달라	-6438
▁전공	-6439
▁꿈을	-6440
람회	-6441
와는	-6442
▁출시한	-6443
▁높아지고	-6444
▁휴대전	-6445
▁추모	-6446
▁어려울	-6447
마스	-6448
유를	-6449
조에	-6450
▁실질적인	-6451
▁엑	-6452
▁가능해	-6453
▁면제	-6454
▁전부	-6455
▁판매한다	-6456
▁제품이다	-6457
▁수험	-6458
▁종류	-6459
fp	-6460
▁자제	-6461
▁신축	-6462
▁한달	-6463
▁차원의	-6464
이게	-6465
아침	-6466
▁중견	-6467
▁아프리카	-6468
▁그를	-6469
▁운항	-6470
▁셰	-6471
▁종교	-6472
~8	-6473
내용	-6474
말을	-6475
▁출근	-6476
▁걸그룹	-6477
산화	-6478
소한	-6479
▁승객	-6480
▁즐기는	-6481
위원회에서	-6482
▁강세를	-6483
▁총장	-6484
▁독특	-6485
신은	-6486
▁대결	-6487
업이	-6488
▁데이	-6489
▁지난주	-6490
▁활동에	-6491
▁투기	-6492
▁당기순	-6493
▁단행	-6494
▁그러나	-6495
▁얻은	-6496
▁신흥	-6497
▁명품	-6498
설명	-6499
▁비율	-6500
치에	-6501
▁나아	-6502
▁자세한	-6503
▁부회장은	-6504
▁도민	-6505
▁판매를	-6506
▁보좌	-6507
▁99	-6508
▁불구속	-6509
▁국채	-6510
▁부각	-6511
▁증언	-6512
~201	-6513
경북	-6514
성도	-6515
▁항목	-6516
▁점수를	-6517
기관의	-6518
집행	-6519
▁없도록	-6520
▁분위기가	-6521
축산	-6522
▁가중	-6523
▁차량을	-6524
▁영광	-6525
▁꼼	-6526
▁관여	-6527
▁작곡	-6528
▁성인	-6529
▁유망	-6530
▁주가는	-6531
▁제품의	-6532
▁오염	-6533
▁기쁘	-6534
▁가격에	-6535
▁가시	-6536
▁정부에	-6537
작을	-6538
당과	-6539
▁85	-6540
된다고	-6541
▁문화예술	-6542
▁끝까지	-6543
▁선을	-6544
▁2006	-6545
▁포함됐다	-6546
▁내리	-6547
미널	-6548
▁제기했다	-6549
▁집을	-6550
도에서	-6551
▁의혹에	-6552
메이션	-6553
▁교육부	-6554
▁부장판	-6555
▁수상했다	-6556
진으로	-6557
금과	-6558
▁90%	-6559
▁달아	-6560
▁잠시	-6561
▁팬들의	-6562
희망	-6563
▁불어	-6564
링을	-6565
▁않았지만	-6566
▁동시	-6567
스럽다	-6568
삼성전자는	-6569
▁일각	-6570
▁빗	-6571
▁조국	-6572
▁살인	-6573
어떤	-6574
차별	-6575
▁합의를	-6576
▁형태의	-6577
실험	-6578
▁적정	-6579
▁구청	-6580
어스	-6581
▁천연	-6582
이렇게	-6583
▁부총리는	-6584
심한	-6585
▁채무	-6586
▁높일	-6587
▁연애	-6588
▁기여할	-6589
악의	-6590
잡고	-6591
▁스페인	-6592
방지	-6593
▁엇	-6594
▁조건	-6595
뉴얼	-6596
▁횡령	-6597
▁없지만	-6598
▁상당한	-6599
교사	-6600
▁국가대표	-6601
▁시원	-6602
▁실시했다	-6603
▁설비	-6604
▁개통	-6605
▁성적을	-6606
▁당사	-6607
▁신뢰를	-6608
▁역전	-6609
보기	-6610
▁통화에서	-6611
▁흐름을	-6612
▁cctv	-6613
▁일자리를	-6614
진료	-6615
▁수사에	-6616
▁유사	-6617
점의	-6618
너무	-6619
모임	-6620
▁배포	-6621
▁검찰의	-6622
▁구성해	-6623
▁반박했다	-6624
▁그리	-6625
▁원인	-6626
정보를	-6627
67	-6628
시간을	-6629
▁기사	-6630
▁어깨	-6631
▁나섰	-6632
▁검토하고	-6633
세의	-6634
▁워싱턴	-6635
▁69	-6636
▁대응을	-6637
▁아닌가	-6638
▁야외	-6639
▁자영업	-6640
하루	-6641
▁담보	-6642
위원은	-6643
▁룩	-6644
▁본격화	-6645
베이션	-6646
노트	-6647
낸다	-6648
▁산업통상자원	-6649
▁쓰고	-6650
▁기반의	-6651
▁비율이	-6652
▁무슨	-6653
▁기업은	-6654
▁표시	-6655
▁진행해	-6656
▁종사	-6657
경기에	-6658
▁물었다	-6659
▁적지	-6660
▁맑	-6661
▁시위	-6662
▁집에서	-6663
름이	-6664
▁사건의	-6665
▁시청률	-6666
반도체	-6667
▁배정	-6668
▁의약품	-6669
▁중점	-6670
▁투입해	-6671
본부장은	-6672
단계로	-6673
▁업무협약을	-6674
▁한국을	-6675
▁대사	-6676
▁자연스럽게	-6677
▁래	-6678
▁재건축	-6679
위원장이	-6680
▁국민들의	-6681
▁역임	-6682
▁찾았다	-6683
▁안산	-6684
▁총장은	-6685
33	-6686
▁얻었다	-6687
▁su	-6688
▁늘려	-6689
▁쓰는	-6690
▁시작됐다	-6691
성한	-6692
총액	-6693
ve	-6694
.▲	-6695
타자	-6696
▁가능하며	-6697
▁생활을	-6698
평등	-6699
▁이들을	-6700
▁애니	-6701
년만에	-6702
▁스카	-6703
안정	-6704
▁중도	-6705
국립	-6706
▁소외	-6707
▁나가겠다	-6708
▁미국에서	-6709
▁비교적	-6710
▁규모를	-6711
▁정도의	-6712
▁준비하고	-6713
하자는	-6714
다양	-6715
법으로	-6716
절차	-6717
▁시대를	-6718
▁고속도로	-6719
▁해주	-6720
▁평택	-6721
랭킹	-6722
▁주식을	-6723
▁이스	-6724
▁승진	-6725
요금	-6726
▁목포	-6727
친구	-6728
▁컸다	-6729
▁있을지	-6730
▁재해	-6731
▁양산	-6732
▁제외하고	-6733
순위	-6734
감에	-6735
러리	-6736
▁맞추	-6737
▁침체	-6738
연이	-6739
회로	-6740
68	-6741
▁교통사고	-6742
국방	-6743
데이트	-6744
▁철저한	-6745
▁장관의	-6746
▁휴대폰	-6747
▁동생	-6748
동부	-6749
집었다	-6750
▁수록	-6751
론이	-6752
▁낳	-6753
취업	-6754
자다	-6755
타수	-6756
난다	-6757
▁이익을	-6758
하려면	-6759
매체	-6760
--	-6761
▁서부	-6762
▁스크린	-6763
▁비공개	-6764
▁소규모	-6765
▁팽	-6766
홀딩	-6767
받침	-6768
▁제시한	-6769
▁최초의	-6770
▁사회복지	-6771
▁있음을	-6772
▁영향이	-6773
▁뇌물	-6774
▁방어	-6775
▁이끌었다	-6776
▁방탄소년	-6777
▁이상으로	-6778
▁팝	-6779
선에서	-6780
▁유족	-6781
69	-6782
시고	-6783
왔던	-6784
채용	-6785
▁정밀	-6786
숨을	-6787
▁영동	-6788
▁있을까	-6789
▁여수	-6790
▁가전	-6791
매를	-6792
.[	-6793
▁정책에	-6794
▁연봉	-6795
▁강화해	-6796
만간	-6797
▁초대	-6798
디아	-6799
▁아니고	-6800
▁이어가	-6801
중심	-6802
▁종로구	-6803
▁0.3	-6804
▁달했다	-6805
마를	-6806
당에	-6807
▁서울시장	-6808
▁결정할	-6809
▁창작	-6810
▁경상	-6811
▁계속해서	-6812
가격은	-6813
▁촉진	-6814
세월호	-6815
▁연내	-6816
▁여객	-6817
▁추적	-6818
▁강행	-6819
75	-6820
▁거주하는	-6821
하우스	-6822
▁유포	-6823
▁오브	-6824
▁공간을	-6825
▁순매도	-6826
뮤직	-6827
▁조심	-6828
아버	-6829
일리	-6830
스피	-6831
안의	-6832
과정에서	-6833
▁최우선	-6834
금융투자	-6835
▁구매할	-6836
교회	-6837
남북	-6838
▁중동	-6839
▁보육	-6840
▁메인	-6841
정비	-6842
▁수혜	-6843
▁주장이	-6844
정신	-6845
▁그려졌다	-6846
▁팀의	-6847
▁확인하고	-6848
▁트렌드	-6849
▁가능성은	-6850
▁예상되는	-6851
▁내놓은	-6852
▁재발	-6853
▁곳에	-6854
셔서	-6855
▁대표이사	-6856
▁아니라고	-6857
▁교과	-6858
이브	-6859
▁내비	-6860
▁통해서	-6861
▁막을	-6862
led	-6863
금리를	-6864
▁왼	-6865
▁부회장	-6866
▁페이스북에	-6867
정상회담	-6868
재로	-6869
▁치킨	-6870
▁생각하고	-6871
교류	-6872
▁남겼다	-6873
미국의	-6874
▁시즌을	-6875
▁과정에	-6876
▁운송	-6877
▁소리	-6878
▁수색	-6879
▁환율은	-6880
경찰서는	-6881
▁측에	-6882
▁접목	-6883
대사	-6884
곳의	-6885
것이	-6886
▁아우	-6887
▁여부에	-6888
▁특혜	-6889
양을	-6890
디자인	-6891
▁모델을	-6892
레드	-6893
▁패널	-6894
▁도약	-6895
역에	-6896
면으로	-6897
모리	-6898
▁동영상	-6899
▁연관	-6900
▁짧은	-6901
▁몽	-6902
▁맞춘	-6903
▁진보	-6904
사업의	-6905
천군	-6906
▁대상은	-6907
▁다니	-6908
▁된다는	-6909
▁성폭력	-6910
서에서	-6911
▁없었던	-6912
태프	-6913
▁만나볼	-6914
▁홈런을	-6915
과학기술	-6916
▁개의	-6917
한국은	-6918
▁유일한	-6919
▁저는	-6920
▁특화	-6921
▁전일대비	-6922
▁물리	-6923
▁수영	-6924
▁지분을	-6925
▁느낀	-6926
캐피탈	-6927
었으며	-6928
▁공격을	-6929
gb	-6930
▁매출을	-6931
예를	-6932
▁나이	-6933
▁잘못된	-6934
▁취약계층	-6935
한화	-6936
▁당의	-6937
광고	-6938
▁공포	-6939
▁핸	-6940
▁sm	-6941
▁팀을	-6942
나의	-6943
▁가공	-6944
▁협박	-6945
nc	-6946
▁호소했다	-6947
진단	-6948
▁상영	-6949
▁정규직	-6950
실히	-6951
수한	-6952
▁텐	-6953
▁공통	-6954
▁행위를	-6955
▁브렉시	-6956
경은	-6957
▁선정해	-6958
▁인테	-6959
▁스케	-6960
▁the	-6961
▁포장	-6962
!'	-6963
▁증정한다	-6964
시쯤	-6965
▁주기	-6966
▁고성	-6967
서울중앙	-6968
▁부천	-6969
▁돌아가	-6970
▁맞서	-6971
▁문화체육관광	-6972
민주당은	-6973
고속도로	-6974
▁장착	-6975
▁고도	-6976
▁기록해	-6977
물에	-6978
▁가능할	-6979
79	-6980
▁트레이	-6981
사들의	-6982
▁암호화폐	-6983
법과	-6984
▁발표된	-6985
▁경우도	-6986
무엇보다	-6987
연은	-6988
▁터뜨	-6989
na	-6990
계는	-6991
▁의존	-6992
▁당분간	-6993
▁송파	-6994
러시아	-6995
▁케이블	-6996
▁'2018	-6997
▁저렴한	-6998
▁시는	-6999
▁부지	-7000
▁700	-7001
▁영업이익이	-7002
볼넷	-7003
달아	-7004
▁먹고	-7005
▁연동	-7006
▁서울중앙지검	-7007
▁비중을	-7008
코스닥	-7009
▁포항	-7010
▁자가격리	-7011
▁삭제	-7012
▁연설	-7013
▁이르는	-7014
▁받아야	-7015
우리나라	-7016
▁육아	-7017
▁시민들의	-7018
▁귀국	-7019
▁칸	-7020
▁갖추고	-7021
▁준비했다	-7022
르신	-7023
▁쫓	-7024
▁교섭	-7025
▁자발	-7026
▁둔화	-7027
▁크림	-7028
▁물가	-7029
▁추락	-7030
▁연금	-7031
지금까지	-7032
▁부합	-7033
폭을	-7034
지역의	-7035
탈삼진	-7036
▁출국	-7037
▁진행되고	-7038
▁국정원	-7039
▁연다	-7040
78	-7041
유산	-7042
▁조사한	-7043
신규	-7044
▁체감	-7045
▁뒷받침	-7046
▁마약	-7047
졌다는	-7048
트라	-7049
▁과태	-7050
▁가격을	-7051
▁좋아하는	-7052
▁호흡을	-7053
▁평가다	-7054
▁디자이너	-7055
▁25%	-7056
플랫폼	-7057
부에서	-7058
▁고교	-7059
▁유아	-7060
빌리티	-7061
▁선수가	-7062
▁겹	-7063
▁이자	-7064
▁무사	-7065
▁심판	-7066
▁촛불	-7067
▁강의	-7068
▁데다	-7069
ing	-7070
▁섭취	-7071
▁합리적인	-7072
▁주목을	-7073
▁패키지	-7074
▁서민	-7075
대책본부	-7076
▁심화	-7077
▁지원해	-7078
▁이동통신	-7079
만명을	-7080
▁견인	-7081
변화	-7082
서울시	-7083
▁하늘	-7084
▁밝혔	-7085
44	-7086
고기	-7087
설계	-7088
▁직장인	-7089
59	-7090
▁발표할	-7091
시스템을	-7092
▁재판부는	-7093
스틱	-7094
▁위생	-7095
역사	-7096
▁깊이	-7097
▁감찰	-7098
▁프로모션	-7099
양의	-7100
▁치열한	-7101
▁영화를	-7102
▁역사를	-7103
▁수목	-7104
▁것이라	-7105
금속	-7106
▁경력	-7107
▁방위	-7108
료는	-7109
담보	-7110
회에서는	-7111
주도	-7112
▁배려	-7113
▁위원장이	-7114
dc	-7115
▁항의	-7116
시간이	-7117
고한	-7118
제공	-7119
▁소식에	-7120
트리온	-7121
▁상상	-7122
고등학교	-7123
▁앞세워	-7124
로도	-7125
아리	-7126
if	-7127
▁다채로운	-7128
▁기반을	-7129
▁전반에	-7130
▁파악됐다	-7131
르기	-7132
▁공수처	-7133
▁확보를	-7134
▁기관은	-7135
▁제기한	-7136
▁판매하는	-7137
▁백신을	-7138
▁사태가	-7139
▁119	-7140
▁농가	-7141
▁살고	-7142
▁더블	-7143
▁선착	-7144
▁일관	-7145
▁취급	-7146
...'	-7147
층을	-7148
결정	-7149
▁폭력	-7150
▁국민들이	-7151
▁조치가	-7152
▁내지	-7153
그룹이	-7154
졌던	-7155
역이	-7156
▁능력	-7157
개소	-7158
▁찾기	-7159
▁땅볼	-7160
드림	-7161
▁확산을	-7162
▁실시한다고	-7163
▁백화점	-7164
▁트로	-7165
▁관해	-7166
타이	-7167
▁초래	-7168
루에서	-7169
▁씨가	-7170
우러	-7171
▁딱	-7172
▁리더십	-7173
▁느꼈	-7174
▁입점	-7175
▁있다며	-7176
▁가스	-7177
추가	-7178
홈쇼핑	-7179
.24	-7180
에어	-7181
▁바른미래당	-7182
▁한국과	-7183
스닥	-7184
키는	-7185
▁규모다	-7186
▁측의	-7187
▁맞았다	-7188
▁당한	-7189
▁이었다	-7190
▁사모	-7191
▁시기에	-7192
▁연극	-7193
되도록	-7194
언더	-7195
▁지닌	-7196
▁포트	-7197
▁칠	-7198
정책을	-7199
로우	-7200
▁개성	-7201
▁비상대책	-7202
▁대부분의	-7203
렸던	-7204
발생	-7205
▁의료기관	-7206
▁유일하게	-7207
응답	-7208
자력	-7209
▁클래식	-7210
▁캘	-7211
▁벌였다	-7212
▁리얼	-7213
▁최순실	-7214
네트워크	-7215
▁이메	-7216
졌지만	-7217
유는	-7218
방해	-7219
cj	-7220
▁일부를	-7221
국에	-7222
.21	-7223
▁이스라엘	-7224
▁달성했다	-7225
dp	-7226
▁기대감이	-7227
▁엇갈	-7228
▁캐릭터를	-7229
장한	-7230
▁포스트	-7231
▁감안하면	-7232
▁페스티벌	-7233
▁스페셜	-7234
프라이	-7235
▁요리	-7236
▁판결을	-7237
회관	-7238
백을	-7239
▁서버	-7240
층에	-7241
▁발생해	-7242
▁사업이다	-7243
▁돌아온	-7244
▁미래에셋	-7245
동구	-7246
▁시나	-7247
용차	-7248
▁마찬가지로	-7249
▁깨끗	-7250
▁아시안	-7251
법무	-7252
▁배럴	-7253
▁지시	-7254
▁투자자	-7255
선물	-7256
블록	-7257
▁이송	-7258
▁이뤄지지	-7259
~10	-7260
▁세상을	-7261
▁권리	-7262
▁2005	-7263
했었다	-7264
od	-7265
비의	-7266
▁공부	-7267
▁가볍	-7268
▁논란을	-7269
▁착공	-7270
▁모르는	-7271
▁잡은	-7272
▁출시된	-7273
리얼	-7274
▁않아도	-7275
▁전화를	-7276
▁시행령	-7277
▁공인	-7278
▁티켓	-7279
할지	-7280
▁결과는	-7281
▁것이고	-7282
▁뚜렷	-7283
▁간부	-7284
▁법제	-7285
▁물량	-7286
▁한국에	-7287
▁가치가	-7288
▁살펴보면	-7289
▁비율은	-7290
애플	-7291
라이프	-7292
통계	-7293
▁사람들의	-7294
▁63	-7295
▁대안	-7296
▁만났다	-7297
▁협력해	-7298
.*	-7299
▁벌이고	-7300
▁800	-7301
▁몸을	-7302
▁혁신을	-7303
▁나타내고	-7304
▁부부	-7305
적한	-7306
▁앙	-7307
▁붕	-7308
구체	-7309
▁총리가	-7310
64	-7311
베스트	-7312
었습니다	-7313
▁있으니	-7314
사들은	-7315
▁역학	-7316
금의	-7317
▁첫날	-7318
리조	-7319
숙한	-7320
▁집권	-7321
▁180	-7322
▁증가할	-7323
▁유관	-7324
▁전문가들은	-7325
만원이	-7326
에서만	-7327
▁공정거래	-7328
▁매월	-7329
▁박스	-7330
▁감시	-7331
▁끈다	-7332
▁금감	-7333
om	-7334
▁마이너	-7335
.◆	-7336
▁비례대표	-7337
▁뮤직비디오	-7338
▁자유롭게	-7339
유로	-7340
실과	-7341
▁어우러	-7342
▁재직	-7343
▁신중	-7344
방이	-7345
편을	-7346
▁유죄	-7347
만원이다	-7348
▁스트레	-7349
▁아빠	-7350
▁어떠	-7351
▁내정	-7352
▁단말	-7353
▁논의했다	-7354
▁간호	-7355
▁자아	-7356
▁업그	-7357
▁지인	-7358
▁평균자책점	-7359
▁않다는	-7360
▁관람객	-7361
▁출동	-7362
▁비트코	-7363
▁수차례	-7364
▁옵	-7365
장도	-7366
▁핫	-7367
선발	-7368
오픈	-7369
▁괜찮	-7370
▁아끼	-7371
▁시공	-7372
~7	-7373
국정	-7374
라크	-7375
화해	-7376
▁늘어났다	-7377
▁예비후보	-7378
▁학생들의	-7379
기계	-7380
▁북부	-7381
▁길이	-7382
▁당했다	-7383
▁추정된다	-7384
▁자가	-7385
▁fa	-7386
▁수강	-7387
▁6000	-7388
▁증명	-7389
시키기	-7390
실점	-7391
닷컴	-7392
연패	-7393
이프	-7394
▁독자	-7395
▁엄격	-7396
▁등교	-7397
▁다이어	-7398
▁애플리	-7399
▁산불	-7400
▁숨진	-7401
▁전체의	-7402
▁않는다는	-7403
▁클린	-7404
▁대통령에게	-7405
년째	-7406
플릭	-7407
▁구상	-7408
이야	-7409
▁지금은	-7410
라의	-7411
에스	-7412
▁히어로	-7413
프랑	-7414
장치	-7415
▁확보한	-7416
▁편입	-7417
▁들이	-7418
▁부드러	-7419
▁점에	-7420
명령	-7421
▁훈련을	-7422
▁적응	-7423
▁도모	-7424
▁저축	-7425
한의	-7426
▁자살	-7427
▁영장	-7428
▁대상을	-7429
▁전후	-7430
▁메르스	-7431
▁인적	-7432
▁고조	-7433
▁세미나	-7434
▁탓에	-7435
짜리	-7436
▁이야기가	-7437
▁물어	-7438
스트로	-7439
▁경고했다	-7440
▁경우는	-7441
▁기관이	-7442
문화재	-7443
억원이다	-7444
모두	-7445
전력	-7446
▁출판	-7447
수도권	-7448
추지	-7449
▁되면서	-7450
▁점이다	-7451
▁가질	-7452
기상청은	-7453
▁세련	-7454
▁떨어져	-7455
▁초점을	-7456
작권	-7457
▁누리꾼	-7458
▁있었고	-7459
.'.	-7460
▁입건	-7461
▁창립	-7462
▁민주주의	-7463
청구	-7464
지니어	-7465
▁규제를	-7466
▁휴가	-7467
▁흘러	-7468
조선해양	-7469
▁독특한	-7470
범위	-7471
놀이	-7472
값이	-7473
▁먹는	-7474
▁나오지	-7475
▁안타까	-7476
▁인상을	-7477
▁본사	-7478
워드	-7479
▁눈을	-7480
.23	-7481
▁베이징	-7482
▁짐	-7483
매수	-7484
방위	-7485
▁앱을	-7486
▁파티	-7487
▁세금	-7488
▁기간을	-7489
▁열릴	-7490
le	-7491
▁구속영장을	-7492
▁기자회견에서	-7493
▁15%	-7494
▁편집	-7495
▁경찰청	-7496
▁지원에	-7497
▁안타를	-7498
▁유효	-7499
▁붙잡	-7500
그럼에도	-7501
체의	-7502
▁해수	-7503
▁읍	-7504
케미	-7505
▁행정부	-7506
▁순차	-7507
▁마음으로	-7508
▁줬다	-7509
▁커플	-7510
▁홈페이지에서	-7511
▁때부터	-7512
66	-7513
건설은	-7514
▁유가족	-7515
▁현역	-7516
기업이	-7517
하더라도	-7518
한을	-7519
▁적절한	-7520
▁즐거	-7521
▁얼굴을	-7522
▁화제를	-7523
▁잉	-7524
마케팅	-7525
▁발간	-7526
지원센터	-7527
▁환자는	-7528
▁법조	-7529
▁우주	-7530
▁나눴	-7531
▁서해	-7532
▁새해	-7533
▁타석	-7534
궐선거	-7535
▁이사장은	-7536
▁강화할	-7537
분부터	-7538
▁거다	-7539
시께	-7540
▁경신	-7541
▁싶었다	-7542
▁메이크업	-7543
▁제출했다	-7544
▁외교부	-7545
기부	-7546
▁딜	-7547
냐는	-7548
~1	-7549
▁의회	-7550
▁플랫폼을	-7551
▁드론	-7552
▁군산	-7553
▁속도	-7554
▁제공해	-7555
구에서	-7556
일까	-7557
▁걸어	-7558
▁정보통신	-7559
원순	-7560
▁인용해	-7561
▁곳에서	-7562
으로도	-7563
▁출연했다	-7564
▁완벽한	-7565
조한	-7566
▁유명한	-7567
▁수백	-7568
▁질병관리	-7569
▁합의했다	-7570
▁떨어지는	-7571
▁아베	-7572
▁의원들은	-7573
▁전략적	-7574
▁중대	-7575
▁외무	-7576
▁덕분에	-7577
▁멘토	-7578
셀러	-7579
▁튀	-7580
당국이	-7581
▁접어	-7582
▁많고	-7583
▁세탁	-7584
▁손해배상	-7585
▁이전에	-7586
지어	-7587
▁나무	-7588
▁가야	-7589
▁플래	-7590
▁매달	-7591
▁싫	-7592
▁실효	-7593
▁모델로	-7594
▁닫	-7595
▁행사에	-7596
▁요즘	-7597
▁지원이	-7598
오염	-7599
▁세웠다	-7600
▁분석이	-7601
문제는	-7602
▁그에	-7603
▁구체적으로	-7604
반을	-7605
제네	-7606
오전	-7607
보조	-7608
그린	-7609
모집	-7610
도서관	-7611
슬람	-7612
테일	-7613
▁판단을	-7614
군과	-7615
에게도	-7616
미는	-7617
▁순위	-7618
회복	-7619
목으로	-7620
▁동맹	-7621
▁적자	-7622
▁변화에	-7623
.27	-7624
티드	-7625
▁얘기를	-7626
▁화면	-7627
▁두려	-7628
▁선정했다	-7629
강남	-7630
▁증시가	-7631
▁남해	-7632
▁돋보이는	-7633
▁편의점	-7634
▁소독	-7635
라스틱	-7636
▁79	-7637
▁영등	-7638
처가	-7639
▁찰	-7640
▁수학	-7641
학년도	-7642
▁성추행	-7643
▁갈등을	-7644
▁찾을	-7645
▁범행을	-7646
.22	-7647
▁성장할	-7648
')	-7649
연구원은	-7650
▁제천	-7651
▁고용노동	-7652
▁다음날	-7653
▁신속한	-7654
청사에서	-7655
▁탈퇴	-7656
▁관련해서는	-7657
▁직권	-7658
▁통산	-7659
투를	-7660
▁성공한	-7661
▁시민단체	-7662
심판	-7663
시에서	-7664
방에	-7665
▁눈물을	-7666
공사가	-7667
자격	-7668
▁도중	-7669
▁골드	-7670
▁업데이트	-7671
▁수험생	-7672
▁줄여	-7673
한은	-7674
▁0.1	-7675
사회의	-7676
▁중증	-7677
▁국산	-7678
용한	-7679
▁인기가	-7680
▁국민을	-7681
▁신년	-7682
널리스트	-7683
▁대답	-7684
▁후배	-7685
▁프로듀	-7686
트넘	-7687
▁78	-7688
▁로드	-7689
▁수준에	-7690
▁립	-7691
운드를	-7692
▁않았던	-7693
▁있으	-7694
▁소집	-7695
▁문화를	-7696
▁선착순	-7697
▁간담회	-7698
표준	-7699
▁연준	-7700
▁손님	-7701
▁72	-7702
▁포털	-7703
▁밀어	-7704
▁지속될	-7705
검토	-7706
▁외식	-7707
전용	-7708
▁끊임	-7709
통신에	-7710
▁경쟁을	-7711
▁전년동기	-7712
▁사건은	-7713
▁유상	-7714
▁감안해	-7715
영은	-7716
▁토로	-7717
▁지주	-7718
절을	-7719
▁판매가	-7720
▁사용자	-7721
아라	-7722
▁싶어	-7723
폴리오	-7724
▁이제는	-7725
▁아무런	-7726
▁의원들이	-7727
▁중장기	-7728
하라는	-7729
▁치매	-7730
▁시중	-7731
▁화물	-7732
▁발생하지	-7733
코스피	-7734
▁74	-7735
▁강화하는	-7736
치킨	-7737
이달	-7738
소비자	-7739
▁하더라도	-7740
견을	-7741
창조	-7742
되었다	-7743
▁신한은행	-7744
▁신속하게	-7745
▁조사에	-7746
미가	-7747
지원금	-7748
안과	-7749
▁식사	-7750
하다가	-7751
▁세워	-7752
58	-7753
인재	-7754
.28	-7755
▁사업으로	-7756
▁아프	-7757
▁권력	-7758
▁말에	-7759
나항공	-7760
▁여기에	-7761
▁77	-7762
▁채널을	-7763
달러를	-7764
▁전해	-7765
▁재킷	-7766
▁발령	-7767
▁증인	-7768
▁투쟁	-7769
▁선포	-7770
▁국가의	-7771
▁일하는	-7772
▁스웨	-7773
트롤	-7774
▁피의자	-7775
▁업계에	-7776
▁공고	-7777
▁도출	-7778
▁탄탄	-7779
▁넣어	-7780
▁건강보험	-7781
들이다	-7782
▁조항	-7783
▁분석해	-7784
텍사스	-7785
▁월화	-7786
▁게재했다	-7787
▁무엇보다	-7788
카드는	-7789
가정	-7790
겁게	-7791
▁제공된다	-7792
간에	-7793
▁닭	-7794
▁몫	-7795
▁비정규직	-7796
▁백악관	-7797
▁썼다	-7798
네이버	-7799
▁위주로	-7800
▁믿고	-7801
▁그냥	-7802
나마	-7803
곳이	-7804
▁금융투자	-7805
스쿨	-7806
▁손실	-7807
▁선보이며	-7808
▁감면	-7809
클래	-7810
▁거친	-7811
▁득점	-7812
▁머니	-7813
▁전라	-7814
국장	-7815
이중	-7816
▁윈	-7817
▁중국에서	-7818
계좌	-7819
▁일주일	-7820
▁홀로	-7821
세와	-7822
▁남겨	-7823
전문가들은	-7824
▁원전	-7825
ti	-7826
타민	-7827
구장에서	-7828
▁시작한다	-7829
▁방사	-7830
▁노하우를	-7831
▁들어서	-7832
.26	-7833
▁간담회를	-7834
▁돕는	-7835
▁여성의	-7836
▁마련된	-7837
께서	-7838
▁작동	-7839
▁불과하다	-7840
▁선택할	-7841
-4	-7842
▁빙	-7843
▁확인한	-7844
▁억제	-7845
▁남성이	-7846
언더파	-7847
~30	-7848
▁행정안전	-7849
▁농산물	-7850
이노베이션	-7851
▁전직	-7852
▁말하는	-7853
ds	-7854
▁택배	-7855
▁칭찬	-7856
지대	-7857
▁군수	-7858
구매	-7859
ml	-7860
▁위험이	-7861
액의	-7862
미터	-7863
▁쓰레	-7864
▁프린	-7865
▁누군	-7866
▁소비자들의	-7867
포스트	-7868
브리핑	-7869
형사	-7870
▁130	-7871
▁어렵다는	-7872
계열	-7873
▁패배	-7874
차전에서	-7875
▁없애	-7876
목적	-7877
▁나란히	-7878
디스플레이	-7879
▁구축을	-7880
▁승인을	-7881
측이	-7882
▁가고	-7883
▁운영할	-7884
▁재판을	-7885
▁추후	-7886
▁음료	-7887
▁무소속	-7888
▁논란에	-7889
정말	-7890
▁마련한	-7891
▁눈이	-7892
▁유지할	-7893
▁진로	-7894
⁄3	-7895
▁아는	-7896
▁보이며	-7897
얀마	-7898
▁앉아	-7899
▁펼치고	-7900
조원을	-7901
▁보여준	-7902
▁깔끔	-7903
▁치료제	-7904
퍼런스	-7905
디스	-7906
스타일	-7907
▁신청할	-7908
링크	-7909
▁맞고	-7910
작은	-7911
▁매장을	-7912
▁주문했다	-7913
▁확정했다	-7914
조달	-7915
▁운영에	-7916
실한	-7917
▁폭염	-7918
대표는	-7919
어촌	-7920
▁2030	-7921
▁상하이	-7922
만원에서	-7923
▁당원	-7924
지역에	-7925
교과	-7926
▁인스타그램에	-7927
▁농림	-7928
▁과도한	-7929
만명이	-7930
▁62	-7931
▁위법	-7932
▁시너지	-7933
▁앞장서	-7934
▁그러면서	-7935
투자증권은	-7936
▁촬영을	-7937
나눔	-7938
▁제품에	-7939
▁구제	-7940
▁설치된	-7941
▁개척	-7942
▁여성이	-7943
▁재생	-7944
조치를	-7945
▁모으고	-7946
▁내릴	-7947
지하	-7948
화장	-7949
가와	-7950
▁기업과	-7951
▁이유다	-7952
▁증시는	-7953
▁vr	-7954
▁국무총	-7955
▁관계가	-7956
▁출연한	-7957
▁경매	-7958
▁위해선	-7959
▁방침을	-7960
▁왜곡	-7961
현실	-7962
일단	-7963
퍼스	-7964
▁살려	-7965
▁찾아가	-7966
▁뉴딜	-7967
▁도발	-7968
▁감각	-7969
▁해결을	-7970
▁맞지	-7971
▁돌봄	-7972
▁상시	-7973
▁실망	-7974
▁화상	-7975
▁도입을	-7976
▁필요성을	-7977
32	-7978
팀의	-7979
▁봐야	-7980
▁이어갈	-7981
▁결정에	-7982
▁발주	-7983
▁경제가	-7984
▁분산	-7985
..1	-7986
▁원정	-7987
▁반영한	-7988
da	-7989
▁자료에	-7990
▁참여한다	-7991
쾌한	-7992
▁대면	-7993
▁버디	-7994
▁동양	-7995
▁에스	-7996
▁이마트	-7997
▁다만	-7998
▁폭로	-7999
▁계절	-8000
▁목격	-8001
▁국무총리	-8002
▁어려움이	-8003
▁부정적인	-8004
위원장을	-8005
하니	-8006
▁기업으로	-8007
▁범위	-8008
합병	-8009
▁완전	-8010
▁되도록	-8011
크라이나	-8012
생활을	-8013
라디오	-8014
▁출마를	-8015
▁110	-8016
▁아버지	-8017
▁철거	-8018
모비스	-8019
▁led	-8020
팅을	-8021
▁냉장	-8022
다양한	-8023
▁하나인	-8024
▁희망을	-8025
림을	-8026
님의	-8027
▁2.5	-8028
▁본인의	-8029
▁객관	-8030
▁의원도	-8031
▁경쟁이	-8032
▁여행을	-8033
▁사업자	-8034
현행	-8035
▁조만간	-8036
▁시민들이	-8037
영화제	-8038
▁선언했다	-8039
생태	-8040
차의	-8041
수기	-8042
스토랑	-8043
한데	-8044
▁콜라	-8045
▁코너	-8046
▁크루	-8047
목이	-8048
▁소식이	-8049
식에는	-8050
▁받았다고	-8051
농단	-8052
▁연계해	-8053
▁응시	-8054
래곤	-8055
▁윌	-8056
스토어	-8057
▁요구를	-8058
▁스티	-8059
▁않았고	-8060
▁논의할	-8061
▁삼성전자가	-8062
인프라	-8063
▁가르	-8064
▁오바마	-8065
▁스탠	-8066
수급	-8067
▁탈락	-8068
▁문화재	-8069
▁수리	-8070
▁인증을	-8071
.29	-8072
미디	-8073
▁임기	-8074
▁분할	-8075
▁명칭	-8076
▁ap	-8077
주시는	-8078
▁빠졌다	-8079
▁대량	-8080
▁막아	-8081
▁거래되고	-8082
총회	-8083
▁때보다	-8084
▁톤	-8085
▁결코	-8086
▁사흘	-8087
▁헌법재판	-8088
학기	-8089
▁해명했다	-8090
▁소중한	-8091
▁도서	-8092
지급	-8093
▁연주	-8094
▁꼬집었다	-8095
▁장식	-8096
57	-8097
▁탄소	-8098
▁파괴	-8099
노인	-8100
마자	-8101
▁커버	-8102
▁자리매	-8103
▁한강	-8104
▁개정안을	-8105
북부	-8106
▁말레	-8107
▁있겠	-8108
전자가	-8109
ew	-8110
▁재미를	-8111
▁하던	-8112
이같은	-8113
▁핑크	-8114
▁보여줬다	-8115
택시	-8116
▁플러스	-8117
▁신호	-8118
▁배경으로	-8119
업체인	-8120
▁무릎	-8121
▁극단	-8122
▁조사에서	-8123
▁갔다	-8124
▁춤	-8125
▁취지로	-8126
▁부상을	-8127
▁마음에	-8128
과정을	-8129
▁아나	-8130
▁반응이	-8131
▁신약	-8132
기사	-8133
▁랩	-8134
라면서	-8135
공제	-8136
인구	-8137
기간은	-8138
▁구조조정	-8139
류가	-8140
▁주장하는	-8141
▁죄송	-8142
▁패스트	-8143
▁긍정적	-8144
그간	-8145
자연	-8146
▁생태계	-8147
▁'2017	-8148
▁그때	-8149
▁서비스는	-8150
▁받기	-8151
▁보존	-8152
였으며	-8153
▁강연	-8154
▁양호	-8155
천지	-8156
▁투자가	-8157
연합회	-8158
균형	-8159
▁비핵화	-8160
센티브	-8161
▁상태를	-8162
▁다루	-8163
▁호응을	-8164
군사	-8165
▁61	-8166
시마	-8167
▁레벨	-8168
▁사후	-8169
▁진심으로	-8170
축구연맹	-8171
▁삼성물산	-8172
▁유연	-8173
▁알리는	-8174
들었다	-8175
품질	-8176
▁최고기온은	-8177
▁관할	-8178
플루	-8179
▁la	-8180
▁질문을	-8181
▁시대에	-8182
▁유치원	-8183
▁끝내	-8184
기간을	-8185
▁요소	-8186
▁있나	-8187
달라는	-8188
▁파리	-8189
▁지역구	-8190
▁관심과	-8191
효율	-8192
히고	-8193
터테인먼	-8194
▁인테리어	-8195
▁것인가	-8196
▁사람들은	-8197
▁'2019	-8198
▁8000	-8199
▁방식이다	-8200
▁벌어진	-8201
민간	-8202
법률	-8203
▁활약을	-8204
▁몬	-8205
활성	-8206
▁실시할	-8207
매우	-8208
▁나서는	-8209
▁틈	-8210
▁‘20	-8211
▁되기	-8212
현은	-8213
▁장례	-8214
▁청탁	-8215
우드	-8216
지금은	-8217
스바	-8218
우주	-8219
이니	-8220
에서다	-8221
▁수준인	-8222
박한	-8223
초등학교	-8224
▁사항은	-8225
남도	-8226
▁방지를	-8227
동조합	-8228
▁유사한	-8229
▁출시를	-8230
▁88	-8231
작업	-8232
▁만이다	-8233
경이	-8234
▁처분을	-8235
▁회동	-8236
라가	-8237
받지	-8238
만원대	-8239
▁강렬한	-8240
▁fta	-8241
98	-8242
▁현상이	-8243
나와	-8244
▁타임	-8245
▁예보	-8246
뤘다	-8247
▁감성	-8248
▁일이다	-8249
▁거두	-8250
▁쪽으로	-8251
▁묻자	-8252
만대	-8253
▁한국인	-8254
▁사고를	-8255
리즘	-8256
▁방치	-8257
▁아트	-8258
▁전인	-8259
▁학술	-8260
▁업그레이드	-8261
▁성분	-8262
바람	-8263
▁2004	-8264
방문	-8265
▁마련할	-8266
▁최저기온은	-8267
▁성향	-8268
하지는	-8269
▁발송	-8270
퍼니	-8271
▁되길	-8272
gs	-8273
관으로	-8274
실장은	-8275
▁직원이	-8276
▁아니었다	-8277
▁나를	-8278
▁케어	-8279
▁시나리오	-8280
티즌	-8281
▁음악을	-8282
융합	-8283
▁이후에도	-8284
▁사안	-8285
▁타율	-8286
▁금리를	-8287
▁어려움	-8288
늦게	-8289
▁붕괴	-8290
▁어르신	-8291
▁아닐	-8292
한국당은	-8293
반기에	-8294
▁감정을	-8295
피를	-8296
▁덮	-8297
▁미중	-8298
삼성전자	-8299
공화	-8300
데스	-8301
을까	-8302
감으로	-8303
▁아메	-8304
▁일제히	-8305
▁대립	-8306
플라	-8307
▁프로젝트를	-8308
일러	-8309
유입	-8310
▁사람들	-8311
▁중학교	-8312
▁접종을	-8313
▁민족	-8314
▁본인이	-8315
출산	-8316
▁타이틀곡	-8317
하기는	-8318
▁사고로	-8319
74	-8320
리포니아	-8321
▁잇따	-8322
▁주민들의	-8323
▁수습	-8324
대회를	-8325
▁아니지만	-8326
▁전형	-8327
▁조성을	-8328
대학원	-8329
되기도	-8330
▁아예	-8331
▁갖는다	-8332
플랜	-8333
본부장	-8334
▁사립	-8335
▁결론을	-8336
▁상황은	-8337
▁반성	-8338
수당	-8339
▁그리스	-8340
▁대행	-8341
▁성사	-8342
▁해임	-8343
ha	-8344
▁무인	-8345
르크	-8346
▁배상	-8347
▁위촉	-8348
▁발견됐다	-8349
▁뭉	-8350
▁보여줄	-8351
▁않지만	-8352
▁노력이	-8353
▁요구한	-8354
결혼	-8355
렉스	-8356
센트	-8357
▁섞	-8358
▁그만	-8359
▁시청자들의	-8360
월과	-8361
▁받아들여	-8362
▁세무	-8363
▁중에서	-8364
cn	-8365
학원	-8366
▁적용한	-8367
미세먼지	-8368
▁차관은	-8369
▁폭으로	-8370
▁의도	-8371
▁이뤄진다	-8372
오피스	-8373
▁실시간으로	-8374
케미칼	-8375
▁대통령에	-8376
소시엄	-8377
▁무더	-8378
행위를	-8379
▁거절	-8380
▁산업혁명	-8381
▁재능	-8382
▁도시재생	-8383
▁갈등이	-8384
▁차이	-8385
▁가게	-8386
▁당국은	-8387
했다가	-8388
패션	-8389
600	-8390
▁가입자	-8391
그렇게	-8392
▁슬로	-8393
▁방안도	-8394
▁면담	-8395
▁아카데미	-8396
▁어떠한	-8397
▁지원하기	-8398
▁야권	-8399
▁않겠다	-8400
▁현직	-8401
▁갤	-8402
▁마이크로	-8403
서치	-8404
▁독점	-8405
▁법안을	-8406
▁증가하는	-8407
와이	-8408
▁결심	-8409
▁브리핑을	-8410
▁모범	-8411
▁청춘	-8412
미사일	-8413
업계는	-8414
▁불참	-8415
임에도	-8416
▁중국과	-8417
▁웹툰	-8418
▁김해	-8419
▁응모	-8420
▁포함돼	-8421
▁브랜드를	-8422
점이다	-8423
▁난민	-8424
▁제품이	-8425
▁변신	-8426
▁않기	-8427
참가	-8428
통제	-8429
▁뒤집	-8430
▁국정감	-8431
비서	-8432
▁대출을	-8433
▁수익성	-8434
▁의식	-8435
루션을	-8436
작으로	-8437
경찰에	-8438
▁확보했다	-8439
김씨는	-8440
▁지사	-8441
▁박차를	-8442
우기	-8443
▁노래를	-8444
▁된다고	-8445
립니다	-8446
▁재고	-8447
센터에	-8448
▁원내대표가	-8449
▁토크	-8450
·18	-8451
닥터	-8452
▁맺고	-8453
▁의류	-8454
▁승리했다	-8455
▁쥐	-8456
▁찍은	-8457
화재	-8458
▁사태로	-8459
리안	-8460
▁때려	-8461
▁시달	-8462
▁관리에	-8463
▁국내에	-8464
▁청소	-8465
▁음식을	-8466
저가	-8467
▁때가	-8468
기관이	-8469
▁흑자	-8470
개사	-8471
▁예고했다	-8472
전망	-8473
▁'2020	-8474
▁돼야	-8475
▁연루	-8476
수지	-8477
▁우대	-8478
관리를	-8479
▁속에서도	-8480
▁기업인	-8481
장관은	-8482
▁내년도	-8483
▁본부장은	-8484
▁추출	-8485
db	-8486
▁공화당	-8487
저희	-8488
▁또다시	-8489
▁계획이	-8490
▁법원에	-8491
▁전액	-8492
.2015	-8493
▁시설을	-8494
리츠	-8495
추천	-8496
▁검출	-8497
음식	-8498
▁서비스가	-8499
▁달콤	-8500
▁이라크	-8501
과제	-8502
▁국회가	-8503
▁꼼꼼	-8504
된다면	-8505
웠던	-8506
때문에	-8507
세기	-8508
▁추격	-8509
▁수사가	-8510
▁개그	-8511
음에	-8512
▁발표를	-8513
▁산업의	-8514
색을	-8515
▁대응할	-8516
▁유료	-8517
▁준비하는	-8518
끄러	-8519
▁행사가	-8520
은행과	-8521
▁롤	-8522
▁플로	-8523
▁시민의	-8524
▁궁금증을	-8525
▁머리를	-8526
층이	-8527
▁평가가	-8528
▁예외	-8529
▁소설	-8530
▁곁	-8531
▁캐스팅	-8532
▁현대자동차	-8533
네요	-8534
▁당부	-8535
▁운전자	-8536
보에	-8537
라이언	-8538
전지	-8539
▁기간에	-8540
▁입장에서	-8541
▁발전에	-8542
▁자동으로	-8543
▁수확	-8544
▁노력하고	-8545
▁병원으로	-8546
▁쓰러	-8547
▁진정한	-8548
심과	-8549
▁받으며	-8550
▁낮추	-8551
▁보복	-8552
▁줄이고	-8553
▁회사가	-8554
▁7000	-8555
대상은	-8556
▁개시	-8557
▁수령	-8558
▁가능성에	-8559
▁주제	-8560
▁완공	-8561
▁목숨을	-8562
터는	-8563
▁톡	-8564
▁안정적으로	-8565
▁트윈	-8566
▁훔	-8567
▁얘기다	-8568
억원에서	-8569
▁iot	-8570
▁환자의	-8571
▁특례	-8572
▁물을	-8573
길이	-8574
▁부착	-8575
ac	-8576
황을	-8577
▁suv	-8578
id	-8579
▁위안부	-8580
▁파악하고	-8581
▁친박	-8582
▁상회	-8583
▁운동을	-8584
▁부문에서	-8585
▁성폭행	-8586
▁고마	-8587
▁중반	-8588
▁갔	-8589
챌린	-8590
운동을	-8591
▁적합한	-8592
▁테이블	-8593
▁강요	-8594
▁미래통합	-8595
▁든다	-8596
선과	-8597
▁쉬운	-8598
▁개발해	-8599
▁결정한	-8600
▁자진	-8601
냈고	-8602
공천	-8603
리버	-8604
▁노트	-8605
▁기소됐다	-8606
▁넘어섰다	-8607
여름	-8608
▁기원	-8609
▁용역	-8610
산이	-8611
▁임신	-8612
▁흡수	-8613
▁박사	-8614
정기	-8615
▁근거로	-8616
▁매장에서	-8617
▁아니라는	-8618
▁원천	-8619
▁애널리스트	-8620
▁직면	-8621
▁인터뷰를	-8622
▁차를	-8623
▁연대	-8624
▁다해	-8625
▁미흡	-8626
▁펴	-8627
소통	-8628
▁고창	-8629
▁기분	-8630
▁검거	-8631
▁한국에서	-8632
▁예정이며	-8633
사무소	-8634
물과	-8635
▁95	-8636
▁연구를	-8637
el	-8638
두에	-8639
여서	-8640
▁고기	-8641
▁곳으로	-8642
▁삼성전자는	-8643
▁사장이	-8644
▁애니메이션	-8645
▁생기	-8646
▁양도	-8647
청과	-8648
▁단순히	-8649
▁혐의도	-8650
▁신고를	-8651
보상	-8652
▁못했던	-8653
▁표창	-8654
끼리	-8655
▁경비	-8656
피고	-8657
▁'2016	-8658
▁발달	-8659
▁당황	-8660
▁부서	-8661
▁가서	-8662
▁아이를	-8663
▁신용카드	-8664
▁[	-8665
▁꼽히는	-8666
차에	-8667
학적	-8668
▁모양새	-8669
▁추산	-8670
▁자금이	-8671
▁디자인을	-8672
▁물품	-8673
▁안된다	-8674
▁복원	-8675
▁안양	-8676
▁뒤에	-8677
▁골든	-8678
▁포인트를	-8679
▁퓨	-8680
▁가벼	-8681
▁보여주고	-8682
▁사태를	-8683
▁소매	-8684
이외에도	-8685
▁스트리	-8686
그때	-8687
잖아	-8688
▁진영	-8689
▁사랑하는	-8690
▁과연	-8691
▁타자	-8692
들에게는	-8693
▁않았다고	-8694
▁몸에	-8695
▁비용이	-8696
▁확대에	-8697
▁롱	-8698
▁단위	-8699
▁이내에	-8700
더스	-8701
텔레콤은	-8702
▁뛰어넘	-8703
▁되돌	-8704
..2	-8705
▁서구	-8706
▁말씀을	-8707
~9	-8708
▁년	-8709
▁평양	-8710
▁보고서를	-8711
니지	-8712
석의	-8713
▁동결	-8714
감도	-8715
▁tf	-8716
▁부드러운	-8717
▁등장했다	-8718
▁재단	-8719
신문	-8720
선으로	-8721
▁가족이	-8722
대체	-8723
▁기능이	-8724
▁부대	-8725
▁ar	-8726
▁명백	-8727
▁전국이	-8728
▁핀테크	-8729
지노	-8730
▁고객들이	-8731
▁보지	-8732
분기에	-8733
▁번째로	-8734
▁이겨	-8735
랫동안	-8736
▁자세	-8737
치기	-8738
▁포트폴리오	-8739
▁중국에	-8740
▁큐	-8741
▁인명	-8742
▁lh	-8743
▁예방을	-8744
▁조언했다	-8745
다이	-8746
▁연료	-8747
특검	-8748
디움	-8749
▁팩	-8750
거리를	-8751
단독	-8752
▁나서고	-8753
금감	-8754
▁막판	-8755
석유	-8756
▁가요	-8757
▁인건	-8758
진흥원	-8759
▁근육	-8760
▁눈빛	-8761
▁별다른	-8762
▁남양	-8763
▁권역	-8764
▁면세점	-8765
▁입소	-8766
▁인센티브	-8767
백신	-8768
시켰	-8769
해지고	-8770
더블	-8771
회사의	-8772
연승을	-8773
플레	-8774
▁방한	-8775
▁기간이	-8776
▁꾸준한	-8777
과도	-8778
▁스프	-8779
번에	-8780
▁나가는	-8781
▁지난해보다	-8782
즈와	-8783
▁다할	-8784
▁기록했다고	-8785
▁범위를	-8786
확진	-8787
리자	-8788
▁가짜	-8789
▁바른정당	-8790
치와	-8791
▁아마존	-8792
유아	-8793
조작	-8794
▁크지	-8795
▁수를	-8796
▁해킹	-8797
▁연수	-8798
▁않았다는	-8799
▁중국인	-8800
▁공소	-8801
▁비리	-8802
가락	-8803
▁참사	-8804
▁산정	-8805
▁이례	-8806
▁지급한다	-8807
im	-8808
▁고수	-8809
▁종사자	-8810
협정	-8811
▁감지	-8812
▁것이며	-8813
▁유예	-8814
공유	-8815
▁상정	-8816
54	-8817
▁기대가	-8818
▁행동을	-8819
▁매진	-8820
▁뽐냈다	-8821
▁발생하고	-8822
▁고객들의	-8823
▁세계에서	-8824
명도	-8825
▁대회에서	-8826
자로서	-8827
투수	-8828
▁모르겠다	-8829
87	-8830
도어	-8831
▁앞당	-8832
▁항공기	-8833
▁신작	-8834
▁프로세	-8835
▁티셔츠	-8836
▁안전하게	-8837
▁상속	-8838
권에서	-8839
52	-8840
▁노력할	-8841
화할	-8842
대신	-8843
▁정확히	-8844
룸버그	-8845
▁지낸	-8846
모씨	-8847
▁여유	-8848
▁휩싸	-8849
제철	-8850
▁언급한	-8851
▁오를	-8852
원들이	-8853
▁자이	-8854
▁개장	-8855
▁권한을	-8856
국으로	-8857
년보다	-8858
축산식품	-8859
▁오피스텔	-8860
▁추진을	-8861
▁캠페인을	-8862
▁곳이다	-8863
▁포토	-8864
▁최악의	-8865
▁강도	-8866
크로	-8867
▁아울러	-8868
서울시는	-8869
▁성공적인	-8870
▁히트	-8871
재료	-8872
▁향상을	-8873
▁개선에	-8874
▁기준금리	-8875
바지	-8876
▁관객을	-8877
to	-8878
▁대다	-8879
일각	-8880
▁오름	-8881
▁수면	-8882
과장은	-8883
▁미국에	-8884
▁밀집	-8885
됩니다	-8886
▁회사는	-8887
▁출자	-8888
▁도달	-8889
▁면적	-8890
▁순차적으로	-8891
▁고향	-8892
▁좋았다	-8893
▁스토리	-8894
▁포스터	-8895
▁감사하다	-8896
hd	-8897
▁지불	-8898
▁설치해	-8899
▁지급하는	-8900
뉴욕	-8901
▁발탁	-8902
▁개인의	-8903
▁있겠다	-8904
▁시간에	-8905
미니	-8906
수업	-8907
▁당대표	-8908
▁시의	-8909
국장은	-8910
슨은	-8911
대교	-8912
시픽	-8913
▁경로	-8914
▁지진	-8915
▁차질	-8916
뉴시스	-8917
▁특성을	-8918
▁지능	-8919
▁청취	-8920
▁빌려	-8921
미국은	-8922
63	-8923
▁서면	-8924
▁몰려	-8925
마스크	-8926
토리	-8927
▁기온이	-8928
▁월화드라마	-8929
▁권한대행	-8930
▁급격히	-8931
▁느끼는	-8932
분쟁	-8933
쪽으로	-8934
▁세계적으로	-8935
▁스태프	-8936
▁인력을	-8937
태평양	-8938
법원은	-8939
▁말하며	-8940
▁규정을	-8941
▁선택을	-8942
▁식으로	-8943
사업으로	-8944
▁입사	-8945
▁들려	-8946
▁어디서	-8947
기관과	-8948
▁보강	-8949
▁엔진	-8950
▁다르게	-8951
▁경제의	-8952
코드	-8953
▁중에는	-8954
▁관측이	-8955
▁체계를	-8956
▁요구하고	-8957
▁감독과	-8958
▁기초자산	-8959
▁발견된	-8960
▁고민을	-8961
지원을	-8962
신도시	-8963
만으로도	-8964
▁주관하는	-8965
▁이르면	-8966
▁쳐	-8967
▁아이디어를	-8968
▁다섯	-8969
▁사건과	-8970
상위	-8971
르트	-8972
▁89	-8973
▁안전관리	-8974
▁입력	-8975
▁보며	-8976
강화	-8977
▁총선에서	-8978
솔루션	-8979
▁in	-8980
▁가격으로	-8981
월한	-8982
▁확보하고	-8983
▁여기	-8984
▁제안을	-8985
▁정책이	-8986
▁사외	-8987
▁이슬람	-8988
▁사망자	-8989
▁바람이	-8990
▁반대하는	-8991
익을	-8992
나도	-8993
▁언급하며	-8994
▁않겠	-8995
▁경찰의	-8996
통신은	-8997
▁캡	-8998
▁있느냐	-8999
설비	-9000
▁해양수산	-9001
▁해결할	-9002
▁연방준비	-9003
▁2002	-9004
국인	-9005
▁명시	-9006
▁발열	-9007
▁준비한	-9008
득점	-9009
▁위해서다	-9010
▁직원들이	-9011
행동	-9012
▁돌파했다	-9013
총괄	-9014
▁지역주민	-9015
법의	-9016
프는	-9017
▁쌓아	-9018
중계	-9019
물류	-9020
신종	-9021
▁업체가	-9022
사업자	-9023
대리	-9024
▁회수	-9025
▁제목의	-9026
정도	-9027
북도	-9028
▁종합적으로	-9029
하길	-9030
▁구형	-9031
▁각별	-9032
▁희망하는	-9033
▁계획이라고	-9034
▁시그	-9035
▁장악	-9036
▁감사의	-9037
▁규정하고	-9038
청의	-9039
▁기존에	-9040
▁뜬	-9041
국에서	-9042
▁갈아	-9043
첨단	-9044
▁타당	-9045
사업이	-9046
지수가	-9047
▁프로그램이다	-9048
▁미뤄	-9049
청에서	-9050
▁차지한	-9051
▁티저	-9052
행이	-9053
▁되찾	-9054
▁출하	-9055
▁상관없이	-9056
홍콩	-9057
▁밀려	-9058
▁밴드	-9059
.2014	-9060
▁공정한	-9061
▁그만큼	-9062
▁엄청난	-9063
▁시기를	-9064
이트를	-9065
▁최고위원은	-9066
▁규탄	-9067
▁조건을	-9068
▁지지율	-9069
▁벌어지는	-9070
지상	-9071
▁배럴당	-9072
▁말로	-9073
▁4%	-9074
▁연일	-9075
▁중립	-9076
▁와인	-9077
▁떼	-9078
▁도움	-9079
▁최고경영	-9080
▁됐다고	-9081
페이스	-9082
▁사람들을	-9083
nh	-9084
그의	-9085
▁웰	-9086
박물관	-9087
마블	-9088
비율	-9089
요양	-9090
.2016	-9091
▁같아요	-9092
▁떠난	-9093
경기를	-9094
나들	-9095
▁의미한다	-9096
치인	-9097
▁구성돼	-9098
▁적용된다	-9099
▁세제	-9100
▁합작	-9101
블루	-9102
이동	-9103
현대차	-9104
▁타격을	-9105
▁앓	-9106
▁밀접	-9107
▁입장이	-9108
▁시점에	-9109
소리	-9110
년으로	-9111
▁종영	-9112
▁분석을	-9113
▁확인된	-9114
▁분석된다	-9115
▁부양	-9116
▁서울중앙지법	-9117
▁승부	-9118
▁확실히	-9119
▁진단했다	-9120
▁불펜	-9121
주지	-9122
▁내일	-9123
▁자신감을	-9124
▁녹색	-9125
▁인접	-9126
너스	-9127
▁줄일	-9128
▁장소	-9129
▁했으나	-9130
▁남다른	-9131
▁약세를	-9132
▁기금	-9133
▁솔루션을	-9134
월드컵	-9135
▁식당	-9136
▁늘어나는	-9137
▁책정	-9138
▁드러나	-9139
▁국회를	-9140
eb	-9141
▁충격을	-9142
▁76	-9143
▁1200	-9144
▁부패	-9145
▁민정	-9146
▁없게	-9147
이익을	-9148
▁됐고	-9149
▁msi	-9150
▁설립된	-9151
름을	-9152
요즘	-9153
▁광양	-9154
▁바라는	-9155
▁중이며	-9156
▁훌륭	-9157
개교	-9158
비전	-9159
▁출장	-9160
▁트랙	-9161
bp	-9162
ho	-9163
관계가	-9164
▁공원	-9165
▁비전	-9166
자고	-9167
▁늘어나고	-9168
▁성장세를	-9169
▁셀트리온	-9170
담보대출	-9171
▁방영	-9172
위원회와	-9173
▁신청한	-9174
▁점유율	-9175
▁고속	-9176
부부	-9177
▁서울에서	-9178
▁수술을	-9179
▁조속히	-9180
▁머리	-9181
▁합쳐	-9182
▁영하	-9183
일인	-9184
▁올바른	-9185
해수	-9186
▁나타난	-9187
▁'2015	-9188
평소	-9189
▁비교하면	-9190
▁벌인	-9191
▁현대중공업	-9192
▁확보할	-9193
겨울	-9194
서부	-9195
충남	-9196
두로	-9197
▁만들어진	-9198
미스트	-9199
▁진행되며	-9200
▁선수들의	-9201
체에	-9202
만원까지	-9203
개편	-9204
▁공유하고	-9205
협회가	-9206
▁최고치를	-9207
▁확대하는	-9208
▁한계가	-9209
▁후에	-9210
▁마련하고	-9211
▁펼칠	-9212
인치	-9213
▁아니면	-9214
▁담당하는	-9215
▁증가로	-9216
▁장난	-9217
어버	-9218
▁커졌다	-9219
▁간편하게	-9220
▁고객들에게	-9221
제도를	-9222
▁돕기	-9223
▁미세먼	-9224
▁캠핑	-9225
▁다우	-9226
▁인턴	-9227
연했다	-9228
▁모의	-9229
목표	-9230
▁거둔	-9231
▁기기	-9232
▁스킨	-9233
▁피부를	-9234
▁패러	-9235
▁후보자의	-9236
▁저하	-9237
▁사각	-9238
격적인	-9239
▁제기된	-9240
벤션	-9241
▁부정적	-9242
자들과	-9243
오롱	-9244
▁회장을	-9245
▁캘리포니아	-9246
외국인	-9247
자금을	-9248
회의실에서	-9249
▁선택한	-9250
기관에	-9251
다음은	-9252
▁갖는	-9253
▁야간	-9254
▁회장과	-9255
하겠습니다	-9256
▁부사장은	-9257
▁나은	-9258
▁챙겨	-9259
▁채워	-9260
보며	-9261
▁수천	-9262
▁유상증	-9263
▁받았고	-9264
▁방송되는	-9265
▁찾고	-9266
▁고려하면	-9267
일랜드	-9268
▁답변을	-9269
▁추구하는	-9270
▁보면서	-9271
▁타입	-9272
94	-9273
▁대대	-9274
▁글과	-9275
키스탄	-9276
▁브렉시트	-9277
번째로	-9278
▁갚	-9279
▁전년보다	-9280
▁값	-9281
브리드	-9282
▁불편을	-9283
스리그	-9284
▁유럽연합	-9285
▁높아졌다	-9286
부족	-9287
▁청렴	-9288
▁전분기	-9289
리콘	-9290
▁출신의	-9291
▁결론	-9292
▁정책위의	-9293
세안	-9294
▁동영	-9295
▁순환	-9296
▁나눴다	-9297
했는지	-9298
▁안다	-9299
▁즐기	-9300
▁활발한	-9301
만은	-9302
단히	-9303
덜란드	-9304
▁강수	-9305
행사를	-9306
▁사망한	-9307
고속	-9308
국과	-9309
▁안방	-9310
▁표했다	-9311
▁하락세를	-9312
예정	-9313
▁유니폼	-9314
▁엉	-9315
됐을	-9316
루를	-9317
해요	-9318
▁국세	-9319
▁정한	-9320
성으로	-9321
▁카카오톡	-9322
곡을	-9323
비리	-9324
▁인민	-9325
▁부근	-9326
▁광주시	-9327
부대	-9328
3'	-9329
스바겐	-9330
▁삼성전자의	-9331
▁군민	-9332
▁건강을	-9333
▁140	-9334
▁여부는	-9335
▁갖췄다	-9336
측의	-9337
▁누릴	-9338
▁육군	-9339
▁세포	-9340
▁체납	-9341
공학	-9342
리면	-9343
▁핸드	-9344
▁협조를	-9345
▁이글	-9346
되거나	-9347
▁맞대	-9348
▁사항을	-9349
▁의원에	-9350
발의	-9351
▁테크	-9352
▁꿈꾸	-9353
▁셔츠	-9354
▁지향	-9355
살을	-9356
▁2003	-9357
▁총재는	-9358
▁옹	-9359
▁법령	-9360
▁럭	-9361
▁71	-9362
스레	-9363
▁기쁘다	-9364
▁예능프로그램	-9365
중간	-9366
72	-9367
▁커질	-9368
러블	-9369
▁모습은	-9370
▁만나는	-9371
센터가	-9372
필요한	-9373
▁제공하기	-9374
기업을	-9375
▁팬츠	-9376
▁문제와	-9377
▁추가적인	-9378
▁지적도	-9379
▁아산	-9380
▁해결하기	-9381
▁0.4	-9382
▁확진자의	-9383
▁내륙	-9384
▁뼈	-9385
혜택	-9386
▁원고	-9387
▁있었는데	-9388
▁유전자	-9389
년여	-9390
▁상품은	-9391
▁보여준다	-9392
▁경제부	-9393
았는데	-9394
▁방식의	-9395
▁네티즌	-9396
아니	-9397
▁것보다	-9398
▁꾸며	-9399
가며	-9400
▁비난했다	-9401
▁불출	-9402
▁소통을	-9403
양이	-9404
시하는	-9405
테이너	-9406
▁갈수록	-9407
▁릴	-9408
▁못한다	-9409
▁프리미어	-9410
▁홈페이지에	-9411
▁서명	-9412
▁오토	-9413
▁보험료	-9414
▁etf	-9415
▁생길	-9416
▁선전	-9417
조의	-9418
▁적용할	-9419
▁안겼다	-9420
▁한국이	-9421
▁원활한	-9422
▁시작할	-9423
▁악성	-9424
▁예금	-9425
▁예매	-9426
▁바람직	-9427
어느	-9428
▁종전	-9429
▁주장하고	-9430
▁차지하고	-9431
▁다룬	-9432
▁잦	-9433
▁불공정	-9434
▁탄력	-9435
▁직원들의	-9436
상환	-9437
▁한류	-9438
▁혐의에	-9439
▁공적	-9440
▁올해부터	-9441
▁우크라이나	-9442
▁동계올림픽	-9443
위인	-9444
재단은	-9445
▁않나	-9446
기업에	-9447
▁짚	-9448
▁메가	-9449
▁관찰	-9450
▁제안한	-9451
밀리	-9452
..3	-9453
▁중국을	-9454
배당	-9455
89	-9456
▁있었다고	-9457
▁보건복지부	-9458
▁주민들이	-9459
▁추첨을	-9460
▁넓은	-9461
▁엔터테인먼트	-9462
▁사물	-9463
▁올리고	-9464
▁판사는	-9465
전반	-9466
받는다	-9467
▁뭔	-9468
▁넘어서	-9469
▁최적의	-9470
동계올림픽	-9471
풍을	-9472
76	-9473
▁한글	-9474
시다	-9475
▁있어요	-9476
르며	-9477
용으로	-9478
▁곽	-9479
''	-9480
▁오르는	-9481
▁다각	-9482
▁달러를	-9483
믹스	-9484
이때	-9485
▁정해	-9486
▁상승을	-9487
▁실장은	-9488
▁학원	-9489
▁출시했다고	-9490
▁공매	-9491
▁원래	-9492
▁대회를	-9493
치면서	-9494
▁제로	-9495
▁다문화	-9496
아무	-9497
▁확보해	-9498
▁예방접종	-9499
▁상가	-9500
▁샘	-9501
▁속도가	-9502
전통	-9503
▁문학	-9504
▁독려	-9505
▁수익률	-9506
ms	-9507
▁수준이	-9508
▁정도가	-9509
그녀	-9510
노동조합	-9511
월의	-9512
▁치솟	-9513
▁방안이	-9514
▁대중교통	-9515
상황을	-9516
73	-9517
▁일에	-9518
금액은	-9519
인들은	-9520
▁소장	-9521
▁고개를	-9522
▁수상한	-9523
▁과세	-9524
▁실용	-9525
▁측근	-9526
▁이룬	-9527
▁줄이는	-9528
급식	-9529
▁추세	-9530
플래	-9531
▁수목드라마	-9532
▁갖추	-9533
게다가	-9534
▁인근에	-9535
▁빼앗	-9536
▁정지	-9537
결과를	-9538
▁운영된다	-9539
탱크	-9540
gv	-9541
지침	-9542
▁용의	-9543
▁보내는	-9544
▁상담을	-9545
▁이른다	-9546
▁확립	-9547
▁되었다	-9548
▁과정이	-9549
▁명을	-9550
▁전국의	-9551
▁이름으로	-9552
53	-9553
려야	-9554
▁긍정적으로	-9555
▁면밀	-9556
쿼터	-9557
▁충주	-9558
권도	-9559
▁골목	-9560
조로	-9561
▁승부를	-9562
▁미안	-9563
▁이천	-9564
▁요구에	-9565
▁바뀐	-9566
▁좋을	-9567
▁병역	-9568
▁약속을	-9569
상품을	-9570
우며	-9571
▁입장에서는	-9572
▁사례는	-9573
yp	-9574
▁드림	-9575
▁중복	-9576
업계의	-9577
▁고려할	-9578
▁기술과	-9579
▁적었다	-9580
모레	-9581
▁예상보다	-9582
▁73	-9583
▁저지른	-9584
▁임직	-9585
▁기간은	-9586
기간이	-9587
▁메디	-9588
▁서울의	-9589
▁가깝	-9590
▁미국은	-9591
▁후보에	-9592
▁출신인	-9593
56	-9594
▁국비	-9595
산은	-9596
지역에서	-9597
됐으나	-9598
▁분당	-9599
▁셋	-9600
ib	-9601
로서의	-9602
▁한때	-9603
▁장관과	-9604
차례에	-9605
우가	-9606
▁제재를	-9607
▁넷플릭	-9608
▁횟	-9609
▁손에	-9610
공시	-9611
▁개선이	-9612
작가	-9613
▁거래가	-9614
▁시세	-9615
▁2.0	-9616
더욱	-9617
중국은	-9618
▁종이	-9619
그가	-9620
▁선행	-9621
▁허가를	-9622
▁먹을	-9623
▁제어	-9624
▁높고	-9625
▁기대했다	-9626
▁3~4	-9627
▁올리는	-9628
증상	-9629
▁하나다	-9630
▁0.1%	-9631
▁담배	-9632
▁공직선거	-9633
렸지만	-9634
▁작가의	-9635
▁통화정책	-9636
▁국감	-9637
46	-9638
면에서	-9639
▁스틸	-9640
▁기온은	-9641
▁윤리	-9642
.2017	-9643
▁크고	-9644
10:00	-9645
▁흥미	-9646
▁안전사고	-9647
▁별로	-9648
▁프라이	-9649
▁협업을	-9650
▁콩	-9651
▁운영해	-9652
▁원주	-9653
▁증권사	-9654
회관에서	-9655
항공은	-9656
환경을	-9657
▁국적	-9658
▁벗어	-9659
▁널리	-9660
▁구축해	-9661
원인	-9662
▁제작한	-9663
듯이	-9664
레나	-9665
퍼시픽	-9666
▁사령	-9667
곳은	-9668
▁그랜드	-9669
▁새정치연합	-9670
희롱	-9671
▁캔	-9672
심사를	-9673
엄마	-9674
▁애플리케이션	-9675
국회의	-9676
▁작성한	-9677
▁현재의	-9678
루수	-9679
▁러브	-9680
최종	-9681
시행	-9682
▁레스토랑	-9683
사령	-9684
포스코	-9685
▁미얀마	-9686
▁워크숍	-9687
▁다행	-9688
▁방문객	-9689
▁갑작	-9690
▁거점	-9691
▁득표	-9692
▁떡	-9693
▁중국은	-9694
▁손쉽게	-9695
▁금메달을	-9696
마리	-9697
무기	-9698
▁환경부	-9699
▁보행	-9700
▁순이었다	-9701
터테인먼트는	-9702
호의	-9703
메뉴	-9704
▁행태	-9705
▁성범죄	-9706
토지	-9707
▁유리한	-9708
▁이뤄지는	-9709
▁기준이	-9710
▁상을	-9711
▁블로그	-9712
▁보내고	-9713
마일	-9714
▁네이	-9715
▁연상	-9716
▁돌아왔다	-9717
▁고려한	-9718
▁결정이	-9719
강릉	-9720
망이	-9721
▁무조건	-9722
▁감상	-9723
▁짙	-9724
▁솔직	-9725
달러에	-9726
▁마라	-9727
▁장면이	-9728
▁대응하기	-9729
이전	-9730
▁남긴	-9731
주자	-9732
▁완벽하게	-9733
▁유흥	-9734
▁돈이	-9735
▁술을	-9736
할인	-9737
만명의	-9738
▁교육감	-9739
고에	-9740
▁뒤로	-9741
니가	-9742
▁bmw	-9743
▁마련을	-9744
장학	-9745
▁전반적인	-9746
비에	-9747
▁댄스	-9748
▁동네	-9749
다리	-9750
▁원인을	-9751
▁내년부터	-9752
님과	-9753
▁동향	-9754
▁체제	-9755
달러로	-9756
▁우려했다	-9757
위생	-9758
이스트	-9759
▁벌써	-9760
문이다	-9761
▁뚫	-9762
▁cnn	-9763
▁행사에는	-9764
▁골자로	-9765
층에서	-9766
까지도	-9767
▁임차	-9768
▁정도다	-9769
▁조합원	-9770
▁경우에도	-9771
▁느낌이	-9772
▁oled	-9773
▁전환을	-9774
신과	-9775
▁생겨	-9776
▁비판을	-9777
ro	-9778
주의를	-9779
▁반환	-9780
▁대여	-9781
▁아파	-9782
▁전통시장	-9783
절차를	-9784
▁무장	-9785
97	-9786
방의	-9787
▁조금씩	-9788
그래도	-9789
▁성명	-9790
▁많지	-9791
▁98	-9792
▁대피	-9793
▁폼	-9794
▁사람들에게	-9795
▁탈출	-9796
▁수거	-9797
▁경제를	-9798
▁전망을	-9799
보고서	-9800
동맹	-9801
▁선호하는	-9802
▁손실을	-9803
▁임상시험	-9804
▁의원들의	-9805
정통	-9806
▁이뤄지고	-9807
모씨는	-9808
▁들은	-9809
▁국경	-9810
▁세운	-9811
메시	-9812
닝을	-9813
▁맡는다	-9814
▁입었다	-9815
▁사업장	-9816
▁코미디	-9817
il	-9818
하느냐	-9819
타르	-9820
화될	-9821
▁증상	-9822
콘서트	-9823
병을	-9824
▁컨소시엄	-9825
▁들어선	-9826
▁사로잡았다	-9827
▁위원장의	-9828
▁선보이고	-9829
▁선거구	-9830
편이	-9831
▁닮	-9832
▁신혼	-9833
▁감사를	-9834
▁구성된다	-9835
▁애로	-9836
▁가능하도록	-9837
▁강조한	-9838
▁맥주	-9839
▁국토교통부	-9840
대책을	-9841
남용	-9842
▁출연한다	-9843
재의	-9844
▁둘째	-9845
스와의	-9846
글랜드	-9847
▁책을	-9848
해지는	-9849
▁비타민	-9850
▁금액을	-9851
▁항소심	-9852
▁아나운	-9853
사기	-9854
▁이적	-9855
▁안정을	-9856
▁나타날	-9857
뮤지	-9858
드래곤	-9859
▁화제가	-9860
▁와서	-9861
▁작품이다	-9862
▁이로	-9863
▁지정된	-9864
▁그랬	-9865
신탁	-9866
비드	-9867
메르	-9868
▁나스닥	-9869
..201	-9870
등을	-9871
▁거래일보다	-9872
▁행보를	-9873
▁페이스북을	-9874
▁해체	-9875
gm	-9876
▁연인	-9877
▁모인	-9878
▁아직도	-9879
▁뽑아	-9880
▁조명	-9881
탄소	-9882
▁동작	-9883
▁탈당	-9884
▁우아	-9885
타는	-9886
▁제도다	-9887
맞춤	-9888
▁아끼지	-9889
위반	-9890
’.	-9891
카운	-9892
▁의혹과	-9893
남은	-9894
▁보호를	-9895
▁프로모션을	-9896
▁교회	-9897
▁확인해	-9898
▁의미다	-9899
▁전국에서	-9900
▁책임이	-9901
▁민선	-9902
▁공조	-9903
▁현황을	-9904
▁민정수석	-9905
ea	-9906
변경	-9907
▁추정되는	-9908
플레이션	-9909
▁청원	-9910
▁sw	-9911
▁확대될	-9912
▁국가안보	-9913
▁국민에게	-9914
▁동행	-9915
만원씩	-9916
하기에	-9917
▁땀	-9918
역으로	-9919
▁갖게	-9920
▁해군	-9921
▁사람에게	-9922
▁증인으로	-9923
▁부의	-9924
수소	-9925
▁충북도	-9926
▁개발하고	-9927
.2018	-9928
합을	-9929
▁진지	-9930
▁산출	-9931
▁회사를	-9932
내지	-9933
▁간접	-9934
센터와	-9935
▁몰입	-9936
▁부활	-9937
▁후보와	-9938
▁지배구조	-9939
▁들어갈	-9940
▁말할	-9941
▁아쉬움을	-9942
로직	-9943
▁시작하는	-9944
▁과제를	-9945
▁선보여	-9946
▁합의가	-9947
하되	-9948
풍이	-9949
▁쇄	-9950
▁방법이	-9951
▁지역으로	-9952
▁편리하게	-9953
야당	-9954
생명은	-9955
▁억울	-9956
▁미치지	-9957
▁보조금	-9958
▁실시해	-9959
▁엑스	-9960
선수권	-9961
▁장관을	-9962
유니	-9963
▁연세대	-9964
▁이사장	-9965
드와	-9966
형으로	-9967
이벤	-9968
▁알파	-9969
▁고스	-9970
▁업무협약	-9971
▁끊임없이	-9972
▁생생	-9973
▁의정부	-9974
▁플라스틱	-9975
▁뉴욕증	-9976
▁생산하는	-9977
▁옷을	-9978
▁알리고	-9979
▁카드를	-9980
비상	-9981
▁캐주얼	-9982
▁아이들이	-9983
▁폭넓	-9984
▁가족과	-9985
▁보컬	-9986
현재까지	-9987
▁원칙을	-9988
▁박원순	-9989
▁안성	-9990
▁줄이기	-9991
도서	-9992
▁송치	-9993
되지만	-9994
전화	-9995
▁오랫동안	-9996
분할	-9997
▁발표한다	-9998
아마	-9999
홍보	-10000
▁이번에는	-10001
대부분	-10002
▁고통을	-10003
▁북한에	-10004
야말로	-10005
▁각자	-10006
채를	-10007
▁말이다	-10008
▁선거에	-10009
▁논평을	-10010
▁특강	-10011
▁요인	-10012
보유	-10013
▁고의	-10014
▁파업	-10015
▁의지가	-10016
▁대국민	-10017
독일	-10018
▁펼쳐진다	-10019
▁토로했다	-10020
아의	-10021
▁분위기다	-10022
았다는	-10023
▁세련된	-10024
처에	-10025
▁플레	-10026
징금	-10027
▁무리	-10028
▁한반	-10029
단속	-10030
상대	-10031
▁다양하게	-10032
▁나의	-10033
▁뒤늦게	-10034
▁역할이	-10035
▁프로야구	-10036
71	-10037
▁체결한	-10038
▁공동주택	-10039
▁마켓	-10040
▁머니투	-10041
청주	-10042
특위	-10043
▁상태가	-10044
▁신속히	-10045
▁걸린	-10046
▁돌입했다	-10047
종으로	-10048
▁지원사업	-10049
▁활용하는	-10050
▁참여하고	-10051
▁후에는	-10052
▁브리핑에서	-10053
회의에	-10054
▁경제성장	-10055
친화	-10056
운이	-10057
▁단백	-10058
카드를	-10059
놓은	-10060
▁표결	-10061
▁어울리는	-10062
▁당연히	-10063
압의	-10064
▁트리	-10065
류에	-10066
수술	-10067
빌딩	-10068
학대	-10069
▁’	-10070
▁클린턴	-10071
예상	-10072
▁전격	-10073
▁지점	-10074
▁아시아나항공	-10075
▁보도에	-10076
퇴근	-10077
▁내리는	-10078
게는	-10079
▁산학	-10080
고와	-10081
▁중계	-10082
▁바르	-10083
▁방안에	-10084
▁구조를	-10085
▁복구	-10086
▁물결	-10087
▁팬들에게	-10088
구성	-10089
▁확진됐다	-10090
▁스포	-10091
저널	-10092
▁재벌	-10093
▁마스터	-10094
▁청주시	-10095
▁실시하는	-10096
▁일괄	-10097
▁예정돼	-10098
전주	-10099
▁현장의	-10100
▁반전	-10101
ay	-10102
십자	-10103
▁광명	-10104
▁2500	-10105
▁김씨는	-10106
▁편의를	-10107
수행	-10108
▁잊지	-10109
▁안타깝	-10110
▁절차에	-10111
▁자리매김	-10112
▁퀴	-10113
▁원료	-10114
▁프로그램은	-10115
▁증액	-10116
▁예산이	-10117
▁한다면	-10118
▁햇	-10119
▁gdp	-10120
일에도	-10121
▁판단해	-10122
▁났다	-10123
▁기관의	-10124
세서	-10125
▁일으킨	-10126
▁분이	-10127
51	-10128
43	-10129
▁힙	-10130
▁경과	-10131
▁수요를	-10132
▁엿	-10133
▁분담	-10134
지속	-10135
▁진실을	-10136
▁출신으로	-10137
본을	-10138
질병	-10139
연설	-10140
▁했을	-10141
인식	-10142
▁제압	-10143
▁시간은	-10144
것도	-10145
▁지역별	-10146
▁대형마트	-10147
▁사모펀드	-10148
▁힐링	-10149
의약품안전	-10150
▁소비자가	-10151
▁두드러	-10152
▁제이	-10153
조는	-10154
▁공중	-10155
▁세븐	-10156
▁낚	-10157
었으나	-10158
▁정부를	-10159
로봇	-10160
막을	-10161
▁접촉자	-10162
▁법사	-10163
▁불확실성이	-10164
▁잃은	-10165
▁토트넘	-10166
▁청산	-10167
▁미사	-10168
스트리트	-10169
▁구축하고	-10170
▁자랑하는	-10171
단순	-10172
▁가득한	-10173
▁노동자	-10174
▁오해	-10175
▁st	-10176
교섭	-10177
▁서서	-10178
지니어링	-10179
▁넘겨진	-10180
▁보다는	-10181
라운드에서	-10182
▁집회를	-10183
▁소재로	-10184
▁중이라고	-10185
발언	-10186
체제	-10187
▁걸친	-10188
▁정신을	-10189
▁편안한	-10190
준은	-10191
나라는	-10192
제네카	-10193
▁브랜드의	-10194
▁사이의	-10195
▁연평균	-10196
▁나간	-10197
여명을	-10198
▁마시	-10199
▁높아진	-10200
사전	-10201
공을	-10202
▁특성상	-10203
▁법원이	-10204
▁플라	-10205
▁연이어	-10206
95	-10207
▁불만을	-10208
▁타이거	-10209
▁미친	-10210
감시	-10211
▁신고했다	-10212
▁사무실	-10213
전담	-10214
기한	-10215
].	-10216
▁근절	-10217
▁선물을	-10218
특정	-10219
▁자국	-10220
▁분열	-10221
▁업계의	-10222
▁대부분이	-10223
▁기쁨	-10224
▁열애	-10225
▁다짐했다	-10226
▁관계없이	-10227
견이	-10228
▁제치고	-10229
▁점검하고	-10230
▁자체를	-10231
▁양자	-10232
비대	-10233
스트라제네카	-10234
프로젝	-10235
▁중대한	-10236
▁장기간	-10237
장관이	-10238
▁밝은	-10239
▁구체적	-10240
▁닿	-10241
호에	-10242
▁대상에	-10243
동과	-10244
고의	-10245
▁땐	-10246
▁실패했다	-10247
▁상처를	-10248
▁효과적으로	-10249
▁160	-10250
▁대학교	-10251
▁질문에는	-10252
았으며	-10253
▁개관	-10254
확산	-10255
▁선거를	-10256
청사	-10257
▁색다른	-10258
▁호투	-10259
공무	-10260
▁특집	-10261
61	-10262
▁브랜드로	-10263
억여	-10264
유지	-10265
▁메뉴를	-10266
▁드레	-10267
▁휴대전화	-10268
사망	-10269
▁스웨덴	-10270
▁아픔	-10271
▁뿌리	-10272
co	-10273
하이닉스	-10274
62	-10275
생이	-10276
라인을	-10277
▁im	-10278
▁챔피언십	-10279
회에는	-10280
▁개소	-10281
▁맺은	-10282
▁마운드	-10283
팀장은	-10284
▁6·	-10285
여명	-10286
▁집중적으로	-10287
▁일어난	-10288
만족	-10289
▁부딪	-10290
▁장중	-10291
▁컨트롤	-10292
▁&	-10293
▁헬스케어	-10294
▁한국거래	-10295
디에	-10296
▁지키고	-10297
▁기록할	-10298
번의	-10299
시의회	-10300
기초	-10301
▁파트너십	-10302
면접	-10303
자에게는	-10304
▁지키는	-10305
▁우려도	-10306
면의	-10307
▁각오를	-10308
▁소재를	-10309
▁마리	-10310
상한	-10311
▁들어가는	-10312
문화예술	-10313
위다	-10314
▁발병	-10315
▁서초구	-10316
▁발표하고	-10317
▁보궐선거	-10318
▁여야가	-10319
롭고	-10320
▁실력을	-10321
▁델	-10322
▁기다리고	-10323
▁조리	-10324
통일	-10325
▁활동이	-10326
▁아시안게임	-10327
당국의	-10328
동해	-10329
▁도입해	-10330
▁태도를	-10331
▁연말까지	-10332
의사	-10333
▁스타일을	-10334
것은	-10335
▁처리를	-10336
▁험	-10337
▁관리하는	-10338
▁사용하고	-10339
▁후보자가	-10340
▁부회장이	-10341
▁기술력을	-10342
▁주당	-10343
▁재활용	-10344
대회에서	-10345
09	-10346
▁방법은	-10347
유공	-10348
파워	-10349
▁중요성을	-10350
▁밴	-10351
pp	-10352
▁금속	-10353
▁요인으로	-10354
▁선언한	-10355
▁웃음	-10356
▁정보가	-10357
▁염두에	-10358
▁성장이	-10359
▁아이스	-10360
▁맞물	-10361
비서관	-10362
연수	-10363
어떻게	-10364
▁경기는	-10365
활동에	-10366
▁소비자들이	-10367
▁lte	-10368
▁인정했다	-10369
▁문체	-10370
박람회	-10371
▁불을	-10372
▁체류	-10373
▁보은	-10374
▁강화에	-10375
▁예산안	-10376
▁이하로	-10377
▁전속	-10378
▁모두를	-10379
시설이	-10380
▁해당한다	-10381
▁모자	-10382
▁명목으로	-10383
▁동북	-10384
▁도서관	-10385
▁능력이	-10386
업체의	-10387
▁확정된	-10388
▁혈액	-10389
▁붉	-10390
▁원장	-10391
▁발산	-10392
▁명확히	-10393
▁봉쇄	-10394
▁막대한	-10395
▁다중	-10396
퀘어	-10397
·2	-10398
▁타이어뱅크	-10399
▁달라고	-10400
▁나타나고	-10401
▁할인된	-10402
▁확신	-10403
▁직접적인	-10404
우수	-10405
▁내용에	-10406
▁꺼내	-10407
연습	-10408
▁내용으로	-10409
들인	-10410
체는	-10411
▁성공을	-10412
▁주목받고	-10413
▁경제에	-10414
▁교수의	-10415
▁구로	-10416
▁연계한	-10417
▁종목은	-10418
▁한마	-10419
▁비주얼	-10420
▁먹거리	-10421
▁개최되는	-10422
▁귀여	-10423
▁컷	-10424
투명	-10425
▁투자하는	-10426
▁받았던	-10427
▁신도시	-10428
▁유지하는	-10429
크림	-10430
나를	-10431
▁포괄	-10432
▁삼아	-10433
▁0.5%	-10434
체육관에서	-10435
자리에	-10436
미한	-10437
▁부인했다	-10438
▁추세다	-10439
어져	-10440
▁중이던	-10441
차관	-10442
▁국가가	-10443
▁모듈	-10444
▁중기	-10445
▁불이	-10446
▁강력히	-10447
▁병원에	-10448
▁신형	-10449
병원에서	-10450
▁사용을	-10451
▁올해도	-10452
▁없기	-10453
▁작업에	-10454
▁이목을	-10455
작품	-10456
▁준비가	-10457
로에	-10458
분과	-10459
였다는	-10460
▁미니앨범	-10461
수수료	-10462
▁하여	-10463
▁결정했다고	-10464
▁겁	-10465
에서부터	-10466
▁않으	-10467
▁불거진	-10468
▁신문	-10469
▁투표를	-10470
필드	-10471
▁지시했다	-10472
▁공급하는	-10473
▁좌우	-10474
창출	-10475
▁완성했다	-10476
pga	-10477
▁관점에서	-10478
▁표현했다	-10479
비즈	-10480
▁외면	-10481
▁단위로	-10482
▁스타일링	-10483
베트남	-10484
▁적용된	-10485
▁찌	-10486
▁답답	-10487
▁조사가	-10488
▁선정한	-10489
▁오르며	-10490
▁하거나	-10491
독립	-10492
개에	-10493
▁날을	-10494
▁반영된	-10495
▁테슬	-10496
▁사회의	-10497
신세계	-10498
▁87	-10499
▁합의한	-10500
▁육박	-10501
▁기증	-10502
▁혜택이	-10503
답게	-10504
존스	-10505
▁비율을	-10506
블릿	-10507
▁쿠폰	-10508
▁이처럼	-10509
▁차이를	-10510
회장은	-10511
능력을	-10512
▁랜	-10513
85	-10514
정원	-10515
▁턱	-10516
돼지	-10517
제재	-10518
형의	-10519
▁민주당은	-10520
▁모른다	-10521
▁0.2%	-10522
▁배터	-10523
면허	-10524
42	-10525
▁챌린	-10526
▁인식을	-10527
공단은	-10528
▁내보	-10529
▁프로그램으로	-10530
해왔	-10531
▁무죄를	-10532
▁필요할	-10533
▁핵실험	-10534
▁민주당이	-10535
▁결과다	-10536
▁에이스	-10537
▁현상	-10538
▁체계적인	-10539
하시	-10540
▁시크	-10541
▁재개발	-10542
▁감염이	-10543
▁않다고	-10544
구글	-10545
치다	-10546
거든	-10547
▁협상이	-10548
점유	-10549
화했다	-10550
▁것인	-10551
▁선수는	-10552
▁낙찰	-10553
▁인원	-10554
▁피부에	-10555
계와	-10556
심리	-10557
▁곳곳에서	-10558
▁그렇지	-10559
▁권리를	-10560
▁시상식	-10561
해줄	-10562
테랑	-10563
어제	-10564
▁의견도	-10565
▁파기	-10566
▁병원에서	-10567
▁주류	-10568
희는	-10569
▁출생	-10570
▁팀은	-10571
▁맛과	-10572
▁동원해	-10573
▁지키기	-10574
법안	-10575
▁동남아	-10576
▁미국을	-10577
▁곳을	-10578
▁분야를	-10579
▁야당의	-10580
▁자이언	-10581
▁제네	-10582
▁웨이	-10583
▁든든	-10584
▁실적은	-10585
▁이틀간	-10586
▁중점을	-10587
회원	-10588
▁금액은	-10589
▁보도자료를	-10590
▁주민등록	-10591
▁무효	-10592
▁뛰어나	-10593
급을	-10594
도의회	-10595
▁한시	-10596
▁안전성	-10597
▁비춰	-10598
연도	-10599
▁공사를	-10600
▁구성했다	-10601
▁만료	-10602
▁설립한	-10603
코노	-10604
▁부진한	-10605
취를	-10606
공식	-10607
▁유동성	-10608
▁이날부터	-10609
나머지	-10610
▁휴식	-10611
▁층	-10612
▁주장에	-10613
▁만났	-10614
▁손잡고	-10615
▁이민	-10616
▁만남을	-10617
최근에는	-10618
경정	-10619
총회를	-10620
형은	-10621
▁장면을	-10622
▁미스터	-10623
▁마무리했다	-10624
▁중개	-10625
이면서	-10626
▁투자해	-10627
▁사업비	-10628
▁영향력을	-10629
▁임의	-10630
배에	-10631
입찰	-10632
▁동아	-10633
▁치명	-10634
더불어민주당	-10635
▁실정	-10636
공직자	-10637
오히려	-10638
밸리	-10639
강의	-10640
마지막으로	-10641
▁휠	-10642
스틴	-10643
▁허리	-10644
▁없던	-10645
▁색깔	-10646
▁식사를	-10647
▁영업을	-10648
▁들어온	-10649
▁총리의	-10650
▁나쁘	-10651
ver	-10652
▁효율적인	-10653
서구	-10654
▁메달	-10655
▁슈팅	-10656
▁크리스마스	-10657
뱅킹	-10658
시장과	-10659
▁생겼다	-10660
▁장병	-10661
▁7%	-10662
▁취지의	-10663
▁as	-10664
신문은	-10665
기관인	-10666
▁영웅	-10667
안타를	-10668
▁동구	-10669
▁전체를	-10670
자녀	-10671
▁재현	-10672
▁보고서	-10673
▁적어	-10674
▁찾지	-10675
▁데려	-10676
티지	-10677
▁걸고	-10678
터미널	-10679
▁선고받았다	-10680
모델링	-10681
설이	-10682
▁멜로	-10683
님을	-10684
▁프로그램에	-10685
컴퍼니	-10686
지역을	-10687
▁극장	-10688
▁과감	-10689
내셔널	-10690
▁언어	-10691
▁날짜	-10692
▁구직	-10693
▁날씨	-10694
▁놀이	-10695
▁우호	-10696
▁신선한	-10697
▁웃었다	-10698
▁환경에	-10699
▁조사하고	-10700
▁물질	-10701
▁여겨	-10702
광역시	-10703
질랜드	-10704
텍스	-10705
▁여부가	-10706
▁정원	-10707
▁정치를	-10708
▁뻔	-10709
▁초등학생	-10710
▁등장한	-10711
▁처벌을	-10712
었기	-10713
개와	-10714
▁지수가	-10715
일보	-10716
▁중소기업의	-10717
▁스파	-10718
▁후에도	-10719
면세점	-10720
▁82	-10721
기에는	-10722
▁크로	-10723
▁이유에	-10724
▁독서	-10725
▁세금을	-10726
▁집합	-10727
▁컬러의	-10728
▁방문하는	-10729
▁펼친다	-10730
▁않는다고	-10731
범한	-10732
종이	-10733
▁부통령	-10734
운을	-10735
▁편이다	-10736
▁일정이	-10737
▁증가해	-10738
투자는	-10739
▁검토할	-10740
시설에	-10741
콜릿	-10742
벅스	-10743
▁대장	-10744
▁발라	-10745
산업단지	-10746
한도	-10747
41	-10748
▁법을	-10749
스포	-10750
체로	-10751
▁이름이	-10752
▁도박	-10753
▁정책의	-10754
▁시술	-10755
▁내용이다	-10756
▁감독을	-10757
▁고객은	-10758
▁지나치게	-10759
기정통	-10760
▁83	-10761
▁요청을	-10762
▁부총리	-10763
▁우울	-10764
내륙	-10765
▁확실한	-10766
▁판정	-10767
▁외모	-10768
▁소지	-10769
▁fc	-10770
러브	-10771
▁표명	-10772
해준다	-10773
▁도는	-10774
컨설팅	-10775
▁집중할	-10776
▁보낼	-10777
▁lng	-10778
▁수출이	-10779
반응	-10780
비밀	-10781
▁장려	-10782
▁여름철	-10783
한국의	-10784
▁이후에	-10785
▁근무하는	-10786
▁언론에	-10787
▁의무를	-10788
▁개최하고	-10789
▁요청한	-10790
▁에코	-10791
▁선발로	-10792
▁교원	-10793
교육부는	-10794
▁팽팽	-10795
▁출연을	-10796
▁겨냥한	-10797
조사에	-10798
▁벌어졌다	-10799
▁이끌고	-10800
북한이	-10801
▁쉽고	-10802
후보는	-10803
▁여가	-10804
단위	-10805
유출	-10806
▁최근에는	-10807
▁유재	-10808
커머스	-10809
▁획기	-10810
회사는	-10811
▁숨졌다	-10812
보도	-10813
▁형사합의	-10814
▁정통	-10815
▁침몰	-10816
▁할리	-10817
▁춘	-10818
코리아는	-10819
▁최선의	-10820
문에서	-10821
최저	-10822
지사는	-10823
평가를	-10824
▁신분으로	-10825
▁성매매	-10826
▁광복	-10827
▁유세	-10828
멘텀	-10829
sc	-10830
▁시티	-10831
▁개정을	-10832
▁제공한	-10833
▁면모를	-10834
▁81	-10835
유치원	-10836
▁넘겼다	-10837
▁뿐이다	-10838
▁대을	-10839
▁도입한	-10840
▁2025	-10841
판에	-10842
▁고스란히	-10843
▁번도	-10844
▁신장	-10845
▁기여한	-10846
신저	-10847
문화를	-10848
연승	-10849
냄새	-10850
▁밝혀졌다	-10851
▁지난해부터	-10852
연령	-10853
▁아쉽	-10854
진핑	-10855
▁탄탄한	-10856
▁전국에	-10857
역량	-10858
그러자	-10859
▁웅	-10860
▁절차가	-10861
▁개최했다고	-10862
▁차량이	-10863
▁여건	-10864
▁엘리	-10865
▁강화하기	-10866
▁신천지	-10867
▁활성화에	-10868
▁관중	-10869
▁높아질	-10870
▁되며	-10871
▁성희롱	-10872
▁아직까지	-10873
▁신재생	-10874
▁위안화	-10875
▁플레이오프	-10876
▁대가로	-10877
▁고유	-10878
▁비판이	-10879
▁공개할	-10880
▁소비자의	-10881
▁드린다	-10882
▁증가에	-10883
▁전남도	-10884
▁발을	-10885
▁네덜란드	-10886
▁말라	-10887
▁상고	-10888
예비	-10889
▁생애	-10890
▁일본에서	-10891
▁밖에도	-10892
▁나쁜	-10893
▁소리를	-10894
손실	-10895
▁건너	-10896
▁판매량	-10897
관리에	-10898
▁기준에	-10899
돈을	-10900
▁어렵게	-10901
▁필요성이	-10902
프랑스	-10903
음료	-10904
▁86	-10905
▁일산	-10906
▁초청해	-10907
▁자신에게	-10908
?.	-10909
▁할지	-10910
▁높다는	-10911
▁골을	-10912
▁공백	-10913
▁못하게	-10914
▁상무는	-10915
습기	-10916
모레퍼시픽	-10917
▁동대문	-10918
회사가	-10919
▁즐겨	-10920
▁총력을	-10921
▁자신들의	-10922
▁곳곳에	-10923
▁들어오	-10924
▁정작	-10925
정부와	-10926
▁출간	-10927
▁스위스	-10928
농구	-10929
▁이은	-10930
예요	-10931
▁이끈	-10932
▁회사에	-10933
▁입시	-10934
▁선거에서	-10935
▁오르고	-10936
▁현대모비스	-10937
▁문제의	-10938
▁장비를	-10939
▁원인이	-10940
▁mou	-10941
▁저질	-10942
▁하에	-10943
되던	-10944
▁애정을	-10945
▁농림축산식품	-10946
▁떠났다	-10947
호텔에서	-10948
현장에서	-10949
▁기술개발	-10950
▁본회의를	-10951
임이	-10952
▁면세	-10953
인인	-10954
예약	-10955
▁경주	-10956
쳤고	-10957
▁지켰다	-10958
▁사건으로	-10959
▁여지가	-10960
경험	-10961
연료	-10962
▁아이템을	-10963
▁부산시	-10964
▁조별	-10965
▁황금	-10966
▁밖으로	-10967
▁하겠다는	-10968
주거	-10969
▁적용했다	-10970
▁에어컨	-10971
▁일명	-10972
▁즐거운	-10973
▁쿠팡	-10974
▁킹	-10975
배달	-10976
▁손상	-10977
▁빠져나	-10978
▁일치	-10979
익수	-10980
겨진	-10981
하였다	-10982
로서는	-10983
▁가족의	-10984
▁일찍	-10985
교수	-10986
업은	-10987
▁us	-10988
▁냈	-10989
▁인프라를	-10990
피소	-10991
▁확진자와	-10992
▁국민적	-10993
▁역사적	-10994
▁총장이	-10995
▁알리	-10996
▁올릴	-10997
▁정례브리핑	-10998
pl	-10999
▁마이너스	-11000
▁우리나라의	-11001
년은	-11002
▁과일	-11003
지휘	-11004
▁혐의가	-11005
▁투자의견	-11006
원장	-11007
▁확산으로	-11008
권익	-11009
▁성장률	-11010
▁성능을	-11011
작업을	-11012
규칙	-11013
도급	-11014
구간	-11015
▁해안	-11016
▁영국의	-11017
드럽	-11018
로로	-11019
시킨다	-11020
▁드는	-11021
▁무력	-11022
▁퀄	-11023
종은	-11024
하세요	-11025
시에는	-11026
▁로이터	-11027
▁유산	-11028
▁동의를	-11029
▁자리잡	-11030
▁옳	-11031
루타를	-11032
자세한	-11033
▁모양새다	-11034
억원대	-11035
명씩	-11036
▁기술로	-11037
▁파주	-11038
▁세계적	-11039
민은	-11040
▁부상으로	-11041
▁시일	-11042
▁리조	-11043
▁가볍게	-11044
▁위험을	-11045
▁제기되고	-11046
▁씨의	-11047
▁연락을	-11048
저히	-11049
▁이들에게	-11050
▁인물이다	-11051
▁집값	-11052
▁위성	-11053
▁콘서	-11054
진보	-11055
..4	-11056
▁펼친	-11057
▁웃돌	-11058
86	-11059
▁더한	-11060
▁디저	-11061
▁감염된	-11062
팀장	-11063
▁신용등급	-11064
▁잇는	-11065
▁공개된다	-11066
▁els	-11067
▁삼성바이오	-11068
▁해지	-11069
수영	-11070
▁사태에	-11071
▁정읍	-11072
▁와이	-11073
어질	-11074
▁저를	-11075
▁주장이다	-11076
▁카운	-11077
라이트	-11078
▁견제	-11079
역과	-11080
는가	-11081
▁가파	-11082
▁확인하는	-11083
스탠	-11084
▁진상규	-11085
중국의	-11086
▁공군	-11087
단기	-11088
헬스케어	-11089
▁메모리	-11090
내일	-11091
버트	-11092
▁증대	-11093
▁함께한	-11094
해보	-11095
eu	-11096
▁하드	-11097
▁가려	-11098
▁중에서도	-11099
▁고시	-11100
▁승리로	-11101
▁기저	-11102
▁던졌다	-11103
▁만든다	-11104
▁중에서는	-11105
▁조율	-11106
▁업체는	-11107
▁부탁드린다	-11108
▁형식으로	-11109
▁프로그램이	-11110
▁제조업체	-11111
▁공장을	-11112
식당	-11113
▁휴식을	-11114
▁않겠다는	-11115
mg	-11116
▁이용객	-11117
여론	-11118
후반	-11119
▁중소벤처기업	-11120
▁걸려	-11121
▁당국이	-11122
▁이벤트도	-11123
프리미	-11124
카르	-11125
▁트위터를	-11126
▁시대의	-11127
▁일고	-11128
▁반대로	-11129
▁검은	-11130
▁가결	-11131
▁쓰레기	-11132
▁강화했다	-11133
▁해외에서	-11134
▁특별법	-11135
냐고	-11136
▁수시	-11137
▁수시로	-11138
▁임용	-11139
▁진실	-11140
▁성과가	-11141
생물	-11142
프를	-11143
▁국민들에게	-11144
집단	-11145
▁사실은	-11146
▁왼쪽	-11147
▁데뷔한	-11148
▁취할	-11149
▁힘들다	-11150
▁일원	-11151
▁마지막으로	-11152
▁하나가	-11153
▁회피	-11154
▁미정	-11155
▁계획에	-11156
중학교	-11157
▁불과했다	-11158
상업	-11159
▁비하	-11160
디언	-11161
터가	-11162
.2013	-11163
파가	-11164
▁타결	-11165
▁선별진료	-11166
▁합성	-11167
조가	-11168
▁마포구	-11169
▁지원했다	-11170
페이오	-11171
▁씻	-11172
사도	-11173
▁비전을	-11174
▁팀장은	-11175
▁유격	-11176
분으로	-11177
▁닛	-11178
▁주시	-11179
건설이	-11180
▁이벤트는	-11181
▁생계	-11182
▁흰	-11183
수칙	-11184
▁주방	-11185
▁감사드린다	-11186
▁주변에	-11187
▁대부	-11188
▁하이브리드	-11189
▁원인으로	-11190
▁생중계	-11191
▁전국적으로	-11192
▁금리인상	-11193
완화	-11194
▁그들의	-11195
지정	-11196
▁점수	-11197
▁방송인	-11198
▁비서실	-11199
▁효과적인	-11200
권으로	-11201
▁우한	-11202
▁방문했다	-11203
화되고	-11204
▁바꾸는	-11205
네트	-11206
▁높인	-11207
vp	-11208
▁네트워크를	-11209
남자	-11210
▁전반적으로	-11211
▁가벼운	-11212
거래소에서	-11213
▁투자자들의	-11214
▁사랑의	-11215
▁작용할	-11216
no	-11217
▁콤	-11218
▁나라를	-11219
▁듣는	-11220
▁101	-11221
▁북핵	-11222
▁공급을	-11223
▁상원의	-11224
▁린	-11225
▁작업이	-11226
▁하위	-11227
▁서울시는	-11228
▁원가	-11229
▁사용되는	-11230
▁합산	-11231
▁에서	-11232
▁벼	-11233
▁감성을	-11234
▁넘어선	-11235
▁포르	-11236
악한	-11237
지역으로	-11238
▁목표주	-11239
▁국고	-11240
▁세상	-11241
▁켜	-11242
소녀	-11243
▁재료	-11244
발전을	-11245
양은	-11246
▁과학기술정보통신	-11247
▁트렌드를	-11248
적이었다	-11249
▁채취	-11250
크를	-11251
▁그럴	-11252
▁올해의	-11253
▁재보	-11254
북한은	-11255
북한의	-11256
▁상의	-11257
▁번호	-11258
주며	-11259
▁규명	-11260
투스	-11261
서울중앙지법	-11262
▁괴롭	-11263
▁화제	-11264
▁개최된	-11265
▁들여다	-11266
▁신차	-11267
▁판매량이	-11268
▁제기된다	-11269
▁기대할	-11270
▁파우	-11271
망에	-11272
민이	-11273
포트	-11274
▁부당한	-11275
전자의	-11276
▁모집한다고	-11277
▁전산	-11278
▁지속되고	-11279
▁어제	-11280
▁싶다는	-11281
내외	-11282
수습	-11283
진출	-11284
▁고가	-11285
▁관리가	-11286
세븐	-11287
▁않기로	-11288
▁활력을	-11289
임대주택	-11290
▁금강	-11291
▁당당	-11292
네이	-11293
▁그래픽	-11294
▁덜어	-11295
▁카메라를	-11296
▁건수는	-11297
▁사운드	-11298
▁찾아가는	-11299
▁시작되는	-11300
크리스	-11301
▁목표다	-11302
▁5·18	-11303
▁선정돼	-11304
▁2001	-11305
히지	-11306
새정치	-11307
▁매니저	-11308
em	-11309
.00	-11310
▁여신	-11311
스톱	-11312
▁들을	-11313
▁브라운	-11314
▁재밌	-11315
계속	-11316
▁94	-11317
테러	-11318
현지	-11319
▁참석한다	-11320
레저	-11321
금리가	-11322
▁입지	-11323
경과	-11324
▁느끼고	-11325
▁구독	-11326
지방경찰청	-11327
▁순수	-11328
ra	-11329
▁청문회	-11330
▁집으로	-11331
총회에서	-11332
민족	-11333
불법	-11334
코어	-11335
경찰서	-11336
어졌다	-11337
▁쏠린다	-11338
님은	-11339
엔터테인먼트는	-11340
고법	-11341
▁주장한	-11342
▁굿	-11343
▁전월대비	-11344
▁따져	-11345
▁신청했다	-11346
▁우편	-11347
주변	-11348
▁본선	-11349
▁줬	-11350
-20	-11351
▁그레이	-11352
-5	-11353
▁혁신적인	-11354
▁출제	-11355
▁업무에	-11356
▁모빌리티	-11357
▁소개한다	-11358
▁한은	-11359
▁보편	-11360
▁트래	-11361
▁외신	-11362
▁심의를	-11363
▁명예훼손	-11364
▁투자자들이	-11365
▁박물	-11366
▁걸릴	-11367
트릭	-11368
▁하남	-11369
어지고	-11370
▁서비스로	-11371
▁중재	-11372
ii	-11373
산의	-11374
▁사용이	-11375
▁출전해	-11376
▁고백했다	-11377
▁전염	-11378
▁라이온	-11379
▁관행	-11380
코는	-11381
서다	-11382
▁공영	-11383
▁해고	-11384
▁신도	-11385
수학	-11386
▁복무	-11387
▁팬들을	-11388
▁학교에	-11389
▁상품으로	-11390
▁문화체육관광부	-11391
피니	-11392
cb	-11393
기업은	-11394
▁확보에	-11395
퇴직	-11396
▁정권의	-11397
▁풍부	-11398
▁소액	-11399
▁3.3	-11400
▁꾀	-11401
▁미군	-11402
▁상해	-11403
▁지원과	-11404
▁과반	-11405
효과가	-11406
투쟁	-11407
▁이어져	-11408
마의	-11409
사실을	-11410
▁사망했다	-11411
고리	-11412
▁작품이	-11413
▁조기에	-11414
▁양해	-11415
▁음반	-11416
96	-11417
▁공약을	-11418
▁조건으로	-11419
저우	-11420
기업인	-11421
▁진술을	-11422
노조는	-11423
▁정확하게	-11424
▁수송	-11425
밖에도	-11426
▁afp	-11427
▁빨라	-11428
▁부문의	-11429
테스트	-11430
▁차가	-11431
이들이	-11432
▁여는	-11433
..19	-11434
청을	-11435
▁사회에	-11436
키퍼	-11437
▁분야는	-11438
▁금품을	-11439
▁그게	-11440
▁편하게	-11441
최대	-11442
▁청장은	-11443
▁둘러싸	-11444
▁참가해	-11445
▁태극	-11446
격이	-11447
▁김치	-11448
작년	-11449
▁거리를	-11450
여건	-11451
▁치른	-11452
기준을	-11453
▁참가한	-11454
렌트	-11455
사원	-11456
▁만의	-11457
▁1990	-11458
▁인정하고	-11459
기업으로	-11460
▁등극	-11461
▁챙긴	-11462
▁안정적	-11463
▁창조	-11464
충전	-11465
인드	-11466
▁판문	-11467
▁한중	-11468
▁운영한다고	-11469
▁공유하는	-11470
▁안고	-11471
▁밝히고	-11472
▁고민이	-11473
▁사회를	-11474
나게	-11475
주신	-11476
▁단호	-11477
▁넘겨졌다	-11478
일으	-11479
실점을	-11480
▁지속가능한	-11481
nd	-11482
▁대표로	-11483
▁호평을	-11484
▁임대료	-11485
▁확정됐다	-11486
▁원의	-11487
풀이	-11488
양성	-11489
▁되겠다	-11490
▁군은	-11491
▁때문으로	-11492
~12	-11493
▁버튼	-11494
▁싸움	-11495
▁공개한다	-11496
▁ipo	-11497
군에서	-11498
▁산업혁	-11499
이에요	-11500
투자의	-11501
보로	-11502
지역은	-11503
▁증상을	-11504
▁있었다는	-11505
교육감	-11506
프가	-11507
▁조사는	-11508
오일	-11509
▁석탄	-11510
특수	-11511
보합	-11512
▁mm	-11513
오랜	-11514
▁물량이	-11515
▁수산	-11516
▁늘리는	-11517
동향	-11518
효과를	-11519
▁금리가	-11520
택트	-11521
광장	-11522
▁정책과	-11523
▁민주노총	-11524
▁공모전	-11525
▁바꿀	-11526
▁톡톡	-11527
시오	-11528
14:00	-11529
▁달라진	-11530
▁입지를	-11531
▁선제적으로	-11532
▁본사에서	-11533
▁컨테이너	-11534
가전	-11535
▁주춤	-11536
구속	-11537
역은	-11538
▁번에	-11539
▁옐	-11540
베리	-11541
▁뜻이다	-11542
▁징계를	-11543
▁공론	-11544
cd	-11545
▁치고	-11546
▁6%	-11547
▁승점	-11548
▁말씀드	-11549
▁문제점을	-11550
▁주유	-11551
병원은	-11552
▁체험할	-11553
▁환경에서	-11554
▁유진	-11555
▁머물렀다	-11556
▁피로	-11557
▁점검을	-11558
▁협의해	-11559
▁민주화	-11560
▁대검	-11561
▁게이	-11562
▁양극	-11563
▁요건을	-11564
▁부드럽	-11565
▁꾸려	-11566
년간의	-11567
▁받으	-11568
▁멋진	-11569
대법원	-11570
일드	-11571
선택	-11572
pa	-11573
기업과	-11574
▁대륙	-11575
▁97	-11576
▁사임	-11577
▁무한	-11578
인간	-11579
▁환자를	-11580
해달라고	-11581
공동체	-11582
▁잉글랜드	-11583
▁속도로	-11584
▁컵	-11585
일째	-11586
▁멤버들은	-11587
▁마르	-11588
▁정상회담을	-11589
례를	-11590
▁그룹의	-11591
▁연결하는	-11592
▁성장했다	-11593
▁탄도	-11594
▁덴	-11595
▁소홀	-11596
▁차례로	-11597
학회	-11598
▁서울과	-11599
표가	-11600
▁국민과	-11601
▁판단이	-11602
▁늦게	-11603
▁미래통합당	-11604
▁베어	-11605
▁안착	-11606
▁96	-11607
▁불러일으	-11608
하신	-11609
▁키즈	-11610
▁지위를	-11611
▁4·	-11612
모터	-11613
▁일으키	-11614
▁단순한	-11615
▁유감	-11616
▁2023	-11617
lo	-11618
▁역사상	-11619
업소	-11620
메디	-11621
호남	-11622
배가	-11623
▁올리며	-11624
▁전송	-11625
▁까지	-11626
▁교육과	-11627
▁농식품	-11628
▁호텔에서	-11629
▁만들겠다	-11630
▁심한	-11631
▁위원장을	-11632
▁시작된다	-11633
▁종목이	-11634
▁마케팅을	-11635
▁기사를	-11636
▁자원봉사	-11637
점인	-11638
▁상습	-11639
▁게이트	-11640
▁효율적으로	-11641
▁진화	-11642
fa	-11643
▁크리에	-11644
셀로나	-11645
중기	-11646
▁온실	-11647
▁이후에는	-11648
당장	-11649
데믹	-11650
돌이	-11651
▁개발과	-11652
▁강구	-11653
만톤	-11654
▁축산	-11655
▁경영권	-11656
▁생각하지	-11657
▁사람과	-11658
▁신기술	-11659
▁자격을	-11660
업체가	-11661
▁걸렸다	-11662
▁늘리고	-11663
일이다	-11664
▁합의에	-11665
▁긴밀한	-11666
▁창출을	-11667
▁스킬	-11668
▁중독	-11669
티는	-11670
▁막고	-11671
▁송파구	-11672
▁of	-11673
헨티	-11674
▁낯	-11675
▁0.3%	-11676
▁자산운용	-11677
▁재검토	-11678
창조과학	-11679
▁침묵	-11680
▁브레이	-11681
베르	-11682
▁기능성	-11683
▁플랜	-11684
▁십	-11685
▁된다면	-11686
▁당이	-11687
▁시너지를	-11688
▁강세	-11689
▁'2014	-11690
▁나흘	-11691
▁진도	-11692
▁중소형	-11693
▁식물	-11694
의무	-11695
▁끝으로	-11696
▁구성을	-11697
▁일종의	-11698
▁예선	-11699
▁조치로	-11700
▁매력적인	-11701
방법	-11702
▁구성원	-11703
▁지금의	-11704
▁결과로	-11705
공간을	-11706
ecd	-11707
직접	-11708
▁펼치는	-11709
▁강화한다	-11710
▁세입	-11711
▁지내	-11712
▁힘쓰	-11713
▁에피소	-11714
▁제조사	-11715
성장을	-11716
시간에	-11717
▁방식이	-11718
▁지지율이	-11719
▁아이콘	-11720
▁조직을	-11721
▁지상파	-11722
하에	-11723
트에서	-11724
▁조세	-11725
▁귀가	-11726
▁수료	-11727
▁라인업을	-11728
더라고	-11729
▁픽	-11730
매각	-11731
유플러스는	-11732
모가	-11733
▁위치해	-11734
▁지적에	-11735
시설과	-11736
▁공식적으로	-11737
▁손해를	-11738
▁단계적으로	-11739
▁전문가들이	-11740
▁피해자가	-11741
교실	-11742
▁경찰관	-11743
▁베네	-11744
색이	-11745
▁확산에	-11746
폐기	-11747
▁터치	-11748
사카	-11749
▁수업을	-11750
영향	-11751
이익이	-11752
▁결정하는	-11753
▁배가	-11754
▁정부서울	-11755
▁각자의	-11756
▁내리고	-11757
▁모집한다	-11758
▁연초	-11759
전성	-11760
극장	-11761
▁현실을	-11762
▁실력	-11763
▁가계부채	-11764
▁주연	-11765
카메라	-11766
▁근거가	-11767
▁출발했다	-11768
▁유인	-11769
진짜	-11770
취약	-11771
자신의	-11772
▁출시한다고	-11773
▁촉촉	-11774
▁시험을	-11775
▁논쟁	-11776
▁움직임이	-11777
협동조합	-11778
▁92	-11779
상공회의	-11780
▁허브	-11781
▁준비에	-11782
일정	-11783
▁살균	-11784
▁개최를	-11785
▁두루	-11786
▁앵	-11787
동원	-11788
▁모멘텀	-11789
▁외국인이	-11790
▁삭감	-11791
찬을	-11792
북구	-11793
▁나타내는	-11794
유기	-11795
▁복잡한	-11796
▁움직임을	-11797
..5	-11798
▁mb	-11799
▁거세	-11800
용량	-11801
▁감동을	-11802
▁선택해	-11803
진한	-11804
▁기준금리를	-11805
us	-11806
재무	-11807
.31	-11808
▁주자	-11809
타가	-11810
결승	-11811
▁앨범을	-11812
란을	-11813
▁해명	-11814
▁선정됐다고	-11815
▁일회	-11816
래도	-11817
점검을	-11818
▁공간으로	-11819
▁축적	-11820
▁스캔	-11821
▁나눈	-11822
▁이뤘다	-11823
▁수석은	-11824
▁말도	-11825
지자체	-11826
평창	-11827
▁접촉한	-11828
▁불어넣	-11829
▁900	-11830
▁맺었다	-11831
▁민감한	-11832
▁확대됐다	-11833
▁많았고	-11834
▁태블릿	-11835
▁최장	-11836
▁나누는	-11837
▁발언은	-11838
삼성은	-11839
▁하도록	-11840
▁고문	-11841
▁쿨	-11842
▁보합	-11843
▁저항	-11844
tt	-11845
▁푸드	-11846
사랑의	-11847
▁쉐	-11848
▁경유	-11849
▁확대했다	-11850
방에서	-11851
▁통과한	-11852
성군	-11853
▁타깃	-11854
▁상세	-11855
▁자신만의	-11856
▁리우	-11857
▁관악	-11858
▁떨어질	-11859
책이	-11860
▁학생이	-11861
▁확대한다	-11862
▁전문가들의	-11863
▁112	-11864
▁못하면	-11865
▁걸었다	-11866
중견	-11867
▁93	-11868
▁양적	-11869
▁행진을	-11870
기관으로	-11871
▁북한은	-11872
페라	-11873
▁재산을	-11874
종합지수는	-11875
상거래	-11876
▁사찰	-11877
로워	-11878
운송	-11879
▁관계부처	-11880
▁행사에서	-11881
산림	-11882
▁항만	-11883
▁워낙	-11884
▁들어간다	-11885
▁시스템이	-11886
▁나타나는	-11887
▁어른	-11888
▁시에	-11889
▁중고차	-11890
▁법원은	-11891
82	-11892
▁생산을	-11893
가격이	-11894
▁검찰개혁	-11895
▁용이	-11896
▁신생	-11897
▁소수	-11898
▁일축	-11899
▁아름다	-11900
▁미소를	-11901
▁국정농단	-11902
했어요	-11903
▁추진한다고	-11904
합동	-11905
▁급감	-11906
▁낫	-11907
▁저가	-11908
두는	-11909
▁봐도	-11910
▁이해할	-11911
▁대우조선해양	-11912
▁몰래	-11913
센터의	-11914
▁밝히며	-11915
▁이통	-11916
▁경험과	-11917
▁라인업	-11918
▁일방적으로	-11919
kia	-11920
회사인	-11921
▁91	-11922
원한	-11923
톡스	-11924
파크에서	-11925
▁만전을	-11926
▁심장	-11927
▁하더라	-11928
재난안전	-11929
외선	-11930
▁국장은	-11931
▁개최된다	-11932
방식	-11933
▁발언에	-11934
▁골라	-11935
▁에너지를	-11936
▁우위를	-11937
▁모은다	-11938
▁생성	-11939
▁사무총장은	-11940
▁카리스	-11941
▁350	-11942
▁등장하는	-11943
▁보답	-11944
부패	-11945
▁세종시	-11946
▁바꿨	-11947
▁대목	-11948
▁중앙방역	-11949
▁아스트라제네카	-11950
▁북구	-11951
▁이메일	-11952
▁대응에	-11953
보좌	-11954
▁스키	-11955
고교	-11956
되게	-11957
▁상처	-11958
어머니	-11959
▁현재는	-11960
▁작가는	-11961
▁사물인터넷	-11962
~11	-11963
▁브로	-11964
▁투자에	-11965
▁강경	-11966
매입	-11967
▁주소	-11968
▁자릿	-11969
▁ibk	-11970
▁인식이	-11971
▁인연을	-11972
둘러	-11973
단에서	-11974
▁갱	-11975
협회에	-11976
▁수분	-11977
▁광범위	-11978
▁투여	-11979
▁원자력	-11980
▁삽	-11981
▁하니	-11982
▁서대문	-11983
▁확대와	-11984
지점	-11985
설에	-11986
▁등장해	-11987
▁빵	-11988
면이	-11989
층은	-11990
였으나	-11991
▁과태료	-11992
▁현지에서	-11993
▁초대형	-11994
▁출루	-11995
▁고위험	-11996
▁민사	-11997
▁준비해	-11998
▁주한	-11999
▁했으며	-12000
없다	-12001
▁만약	-12002
▁실감	-12003
▁창당	-12004
▁국제사회	-12005
▁한국시리즈	-12006
▁증여	-12007
▁상태에	-12008
발이	-12009
▁산업통상자원부	-12010
두를	-12011
윤리	-12012
맛을	-12013
▁급식	-12014
▁정부에서	-12015
▁스케줄	-12016
▁광고를	-12017
▁물량을	-12018
연휴	-12019
▁서비스에	-12020
▁모터	-12021
▁영역을	-12022
국대	-12023
▁맡게	-12024
미의	-12025
즈니	-12026
▁기업들은	-12027
▁차로	-12028
▁설치하고	-12029
▁증폭	-12030
▁배후	-12031
자율	-12032
▁부추	-12033
▁cgv	-12034
▁면허	-12035
▁불필요한	-12036
▁서비스다	-12037
무는	-12038
▁1.6	-12039
▁서울시가	-12040
우지	-12041
▁마땅	-12042
▁있어서다	-12043
.2012	-12044
돌봄	-12045
주인	-12046
▁민주당의	-12047
매일	-12048
센서	-12049
경련	-12050
프란	-12051
▁균형을	-12052
▁젤	-12053
▁르노	-12054
▁마침	-12055
▁지니	-12056
분까지	-12057
▁팬들과	-12058
▁집중하고	-12059
▁이의	-12060
▁양질의	-12061
▁공동대표	-12062
▁다운로드	-12063
이씨는	-12064
▁얽	-12065
▁'10	-12066
과를	-12067
▁수행할	-12068
▁고맙	-12069
집에	-12070
▁판사	-12071
▁학생들에게	-12072
▁남용	-12073
▁스펙	-12074
▁자리가	-12075
▁정하고	-12076
▁ktx	-12077
▁적폐	-12078
심에	-12079
▁마찬가지다	-12080
▁치유	-12081
▁검사가	-12082
건이다	-12083
▁챔피언스리그	-12084
년차	-12085
▁법제사법	-12086
사드	-12087
지던	-12088
▁맞다	-12089
▁to	-12090
▁여러분께	-12091
▁위반한	-12092
▁근본적인	-12093
▁난다	-12094
실업	-12095
▁민감	-12096
비행	-12097
▁달간	-12098
▁사이트를	-12099
▁문제도	-12100
▁휴게	-12101
▁과잉	-12102
▁위주의	-12103
▁작품으로	-12104
텍은	-12105
났고	-12106
▁개혁을	-12107
▁라이트	-12108
신청을	-12109
▁리서치	-12110
▁강좌	-12111
담한	-12112
▁중지	-12113
▁공기청	-12114
낸셜	-12115
▁청사	-12116
▁요인이	-12117
원내	-12118
▁효능	-12119
▁예비후보는	-12120
데다	-12121
▁이슈가	-12122
▁당뇨	-12123
▁의결했다	-12124
니처	-12125
▁근접	-12126
▁자존	-12127
병원에	-12128
은행에	-12129
▁노동당	-12130
러닝	-12131
▁반납	-12132
차산업	-12133
▁확인되지	-12134
▁국정감사	-12135
▁하천	-12136
바이트	-12137
▁겪었다	-12138
▁소위	-12139
▁cp	-12140
▁전달할	-12141
▁회복을	-12142
지사가	-12143
역의	-12144
월을	-12145
▁직원을	-12146
▁기술은	-12147
▁묶어	-12148
▁법원의	-12149
▁사용하지	-12150
▁분야별	-12151
▁나노	-12152
▁1.0	-12153
▁바라보는	-12154
란이	-12155
만개	-12156
현황	-12157
▁벌이는	-12158
▁꽤	-12159
▁대상이다	-12160
▁광산	-12161
졌으며	-12162
지출	-12163
▁작품은	-12164
▁리모델링	-12165
▁최하	-12166
ri	-12167
디움에서	-12168
▁노원	-12169
거를	-12170
..20	-12171
▁토론회	-12172
▁제고를	-12173
▁환경이	-12174
▁야생	-12175
▁눈높	-12176
배럴	-12177
▁수익률을	-12178
다니	-12179
특별위원회	-12180
사업부	-12181
▁서로의	-12182
▁해소를	-12183
▁가족을	-12184
▁일상을	-12185
스위	-12186
▁통행	-12187
민주화	-12188
소상공	-12189
▁역으로	-12190
▁구매한	-12191
▁만성	-12192
당국에	-12193
▁리드를	-12194
인원	-12195
본부가	-12196
▁엄중	-12197
렌즈	-12198
▁존재감을	-12199
▁추가경정	-12200
▁사과를	-12201
▁시점에서	-12202
▁겪은	-12203
▁자매	-12204
▁부연했다	-12205
▁판타	-12206
▁스프링	-12207
▁자칫	-12208
▁매칭	-12209
▁시흥	-12210
이제는	-12211
국민의힘	-12212
▁공급이	-12213
▁촬영한	-12214
▁자립	-12215
▁이번주	-12216
▁청와대가	-12217
오프라인	-12218
됐는데	-12219
여당	-12220
▁넥슨	-12221
▁취한	-12222
였는데	-12223
▁표현한	-12224
▁1~3	-12225
백화	-12226
▁카테	-12227
▁납입	-12228
공항을	-12229
홀딩스	-12230
▁늘면서	-12231
레일	-12232
▁방송된다	-12233
▁수감	-12234
▁쓰지	-12235
류의	-12236
기재	-12237
현이	-12238
▁군의	-12239
▁독보	-12240
▁드리	-12241
▁샀	-12242
글라	-12243
품이	-12244
▁적시타를	-12245
룸에서	-12246
▁땅볼로	-12247
선정	-12248
드에	-12249
선도	-12250
▁등판해	-12251
▁잡는	-12252
▁여성을	-12253
▁말은	-12254
▁입장에	-12255
▁조치에	-12256
접촉	-12257
▁개선될	-12258
미르	-12259
▁헛	-12260
시도	-12261
카는	-12262
▁해왔다	-12263
▁기본적인	-12264
▁이르기까지	-12265
▁벌여	-12266
래프트	-12267
▁재편	-12268
▁조종	-12269
시간은	-12270
▁낮춰	-12271
거진	-12272
▁인천공항	-12273
▁트위터에	-12274
▁텍사스	-12275
▁무엇을	-12276
▁민주평화	-12277
방은	-12278
▁찍었다	-12279
▁랭킹	-12280
▁양육	-12281
중앙회	-12282
▁9000	-12283
▁익산	-12284
▁심사위원	-12285
▁토요일	-12286
으로서의	-12287
▁포용	-12288
▁알뜰	-12289
▁날이	-12290
▁한계	-12291
▁에디션	-12292
투자자	-12293
▁거짓말	-12294
▁삼진으로	-12295
거든요	-12296
▁결정은	-12297
▁반문	-12298
▁후문이다	-12299
영이	-12300
동에서	-12301
우승	-12302
미스터	-12303
▁170	-12304
▁웹사이트	-12305
▁저소득층	-12306
▁번의	-12307
▁여권	-12308
▁끌려	-12309
최순실	-12310
▁계획은	-12311
동은	-12312
회까지	-12313
어지는	-12314
▁위험한	-12315
스톤	-12316
판정을	-12317
마가	-12318
▁간다	-12319
▁정치권	-12320
▁높을	-12321
성년	-12322
▁개인이	-12323
활용	-12324
▁와이번	-12325
▁필요로	-12326
▁등록을	-12327
▁정상적인	-12328
▁만루	-12329
▁애정	-12330
베이터	-12331
▁dj	-12332
스트리트저널	-12333
▁탁월한	-12334
▁격상	-12335
욕을	-12336
▁증진	-12337
금융지주	-12338
팀에	-12339
▁성장한	-12340
리브	-12341
▁양호한	-12342
▁컨퍼런스	-12343
▁오고	-12344
사업과	-12345
군수	-12346
ion	-12347
▁말았다	-12348
▁전시회	-12349
▁지었다	-12350
▁안전하고	-12351
▁말부터	-12352
▁리콜	-12353
▁자부	-12354
▁세계에	-12355
블리	-12356
스런	-12357
문제를	-12358
▁경우에	-12359
▁공지	-12360
▁학생들을	-12361
▁디젤	-12362
▁소년	-12363
▁의미로	-12364
▁감수	-12365
특허	-12366
▁전용면적	-12367
▁대표이사는	-12368
▁식약	-12369
▁esg	-12370
▁시속	-12371
▁가산	-12372
sdi	-12373
▁장점이	-12374
▁사망자는	-12375
▁자이언츠	-12376
▁예산은	-12377
▁하회	-12378
▁주어진다	-12379
비한	-12380
▁인정받아	-12381
▁이수	-12382
▁감염경	-12383
물가	-12384
기록을	-12385
▁드러난	-12386
▁없으며	-12387
▁구입할	-12388
▁연쇄	-12389
주에서	-12390
▁수의	-12391
83	-12392
▁예상치	-12393
▁불가능한	-12394
▁쇼케이	-12395
▁받으면	-12396
리엄	-12397
▁폭이	-12398
▁온도	-12399
▁펄	-12400
▁육성을	-12401
▁고생	-12402
▁코오롱	-12403
▁무시	-12404
육성	-12405
기상환	-12406
치면	-12407
▁뒀다	-12408
포털	-12409
▁기록하는	-12410
▁공동체	-12411
▁무대에서	-12412
▁잡을	-12413
담배	-12414
▁밀착	-12415
▁푸틴	-12416
스러워	-12417
▁조치는	-12418
▁가면	-12419
됐기	-12420
▁텔레	-12421
길에	-12422
▁1980	-12423
훈련을	-12424
▁느꼈다	-12425
▁가까워	-12426
▁나름	-12427
▁일본이	-12428
▁학생들은	-12429
느라	-12430
▁도의	-12431
▁훈훈	-12432
▁선거운동	-12433
▁재택	-12434
▁만들어야	-12435
▁소장은	-12436
▁패러다	-12437
연출	-12438
글로	-12439
▁포스트시즌	-12440
클라우드	-12441
▁만만	-12442
▁저의	-12443
▁꼴	-12444
▁취지다	-12445
▁프레스	-12446
▁위헌	-12447
▁기자간담회에서	-12448
▁과장	-12449
▁웨딩	-12450
▁시위를	-12451
▁관련해선	-12452
▁아쉬운	-12453
▁스마트폰을	-12454
▁진출에	-12455
범죄수사	-12456
▁전보다	-12457
92	-12458
▁관계자들이	-12459
▁개최한	-12460
하늘	-12461
▁회원국	-12462
▁문건	-12463
▁'6	-12464
▁콜라보	-12465
영의	-12466
▁워터	-12467
▁설명을	-12468
▁영세	-12469
협은	-12470
▁증거를	-12471
▁사업과	-12472
▁한도	-12473
▁실질적으로	-12474
스크림	-12475
▁치른다	-12476
드라	-12477
자동	-12478
▁밝히지	-12479
oa	-12480
▁간단한	-12481
호흡	-12482
kbs	-12483
▁성장에	-12484
▁리스트	-12485
▁진출한	-12486
변호사	-12487
93	-12488
▁당정	-12489
▁전력을	-12490
집에서	-12491
귀포	-12492
아몬	-12493
▁저감	-12494
생의	-12495
보훈	-12496
▁건네	-12497
▁재확인	-12498
▁재학생	-12499
▁공표	-12500
▁이색	-12501
▁기온	-12502
▁수석대변인은	-12503
▁활동하고	-12504
▁겨울철	-12505
▁궤	-12506
▁구속기소	-12507
▁gm	-12508
기관을	-12509
▁연체	-12510
▁빛을	-12511
였습니다	-12512
▁본연의	-12513
▁포상	-12514
노래	-12515
레는	-12516
▁뚜렷한	-12517
▁보류	-12518
▁교보	-12519
▁일평균	-12520
▁훌륭한	-12521
내야	-12522
업계가	-12523
었어요	-12524
▁지도부	-12525
커스	-12526
▁고지	-12527
▁식품의약품안전	-12528
▁나오면서	-12529
키움	-12530
▁실증	-12531
▁0.7	-12532
하기를	-12533
▁패스트트랙	-12534
내부	-12535
▁녹음	-12536
▁이기	-12537
▁기록했고	-12538
성공	-12539
▁판교	-12540
▁정당한	-12541
▁여행객	-12542
▁메신저	-12543
티스	-12544
▁지혜	-12545
▁배제할	-12546
안심	-12547
우리의	-12548
▁밝힐	-12549
▁의무화	-12550
겁다	-12551
▁행위에	-12552
중립	-12553
▁등재	-12554
곳으로	-12555
▁특화된	-12556
렌지	-12557
▁0.6	-12558
버리	-12559
항에	-12560
스마트폰	-12561
대금	-12562
▁모두에게	-12563
▁적용되는	-12564
산업은	-12565
통신이	-12566
▁결혼을	-12567
▁소개하는	-12568
경의	-12569
▁모금	-12570
▁시원한	-12571
경기장에서	-12572
▁한양	-12573
▁방문을	-12574
▁지역이	-12575
관객	-12576
상장	-12577
국토교통	-12578
▁바디	-12579
▁노동조합	-12580
국적	-12581
▁돕고	-12582
▁명단을	-12583
▁크루즈	-12584
▁안으로	-12585
▁불리	-12586
▁시가총액	-12587
▁at	-12588
▁교직원	-12589
▁대상자	-12590
▁콘셉트	-12591
업체에	-12592
▁고위급	-12593
▁영상이	-12594
▁전임	-12595
▁전달하는	-12596
▁기분이	-12597
▁차익	-12598
▁넘었다	-12599
▁살짝	-12600
▁의지	-12601
▁줄이	-12602
▁법안이	-12603
▁평창동계올림픽	-12604
중이	-12605
▁중으로	-12606
▁완주	-12607
▁생기는	-12608
▁평화와	-12609
▁명확한	-12610
▁감동	-12611
소유	-12612
▁앞바다	-12613
명령을	-12614
▁언니	-12615
▁최소한의	-12616
▁더민주	-12617
파트너	-12618
▁민관	-12619
▁샌드	-12620
▁매뉴얼	-12621
▁직권남용	-12622
▁검토해	-12623
▁원금	-12624
▁착수했다	-12625
교육지원	-12626
▁본회의에서	-12627
임스	-12628
▁발굴해	-12629
헌법	-12630
▁스토어	-12631
▁부부가	-12632
▁럭셔	-12633
▁제출하면	-12634
▁예상하고	-12635
▁블룸버그	-12636
회사를	-12637
▁몰랐	-12638
▁찍어	-12639
▁z	-12640
▁협력사	-12641
▁위원회	-12642
▁완성차	-12643
▁안을	-12644
이도	-12645
▁제품과	-12646
워즈	-12647
러스터	-12648
▁서브	-12649
▁떠나는	-12650
▁않는다면	-12651
▁간판	-12652
▁세계를	-12653
벤져	-12654
▁기도	-12655
▁다이노	-12656
석에	-12657
▁아기	-12658
▁부회장의	-12659
▁서로를	-12660
▁헤드	-12661
▁은폐	-12662
머리	-12663
저도	-12664
▁부가	-12665
쪽에	-12666
▁내용도	-12667
▁홈쇼핑	-12668
▁봤을	-12669
▁시행하고	-12670
▁공직선거법	-12671
▁연출했다	-12672
매장	-12673
▁관세를	-12674
새누리당	-12675
▁차분	-12676
비용을	-12677
▁접한	-12678
▁액세서	-12679
네마	-12680
▁속한	-12681
▁원작	-12682
▁배경을	-12683
루킹	-12684
코올	-12685
▁아이들의	-12686
▁아이가	-12687
기간에	-12688
▁정치인	-12689
부지	-12690
제이	-12691
▁중진	-12692
▁나뉘	-12693
발전소	-12694
노이	-12695
▁추진한	-12696
▁사람도	-12697
▁차질이	-12698
▁상장을	-12699
넥센	-12700
▁파생	-12701
▁8%	-12702
▁원내수석	-12703
▁특별히	-12704
▁가능하다는	-12705
▁그녀의	-12706
▁반해	-12707
▁약간	-12708
▁구리	-12709
본다	-12710
▁대회는	-12711
션은	-12712
='	-12713
▁회상	-12714
▁얇	-12715
▁다저	-12716
▁지시를	-12717
▁여론이	-12718
▁상품이다	-12719
실태	-12720
▁국토부	-12721
▁경쟁률을	-12722
시절	-12723
mi	-12724
근로자	-12725
▁주총	-12726
▁발부	-12727
▁신성장	-12728
산업을	-12729
▁계속되고	-12730
▁힙합	-12731
▁변이	-12732
았을	-12733
▁도주	-12734
▁도덕	-12735
▁초콜릿	-12736
과세	-12737
▁설치를	-12738
▁넘긴	-12739
▁자체적으로	-12740
사다	-12741
클린	-12742
▁팬들이	-12743
▁yg	-12744
사회복지	-12745
▁1999	-12746
▁이해를	-12747
바닥	-12748
▁환급	-12749
스럽고	-12750
▁고등학생	-12751
▁금융위기	-12752
▁바쁜	-12753
루미	-12754
▁1300	-12755
▁사직	-12756
▁대표적	-12757
▁키우는	-12758
▁병원을	-12759
공인	-12760
▁내걸	-12761
▁최대의	-12762
증명	-12763
▁보도가	-12764
▁대입	-12765
▁선수를	-12766
▁실습	-12767
▁주재로	-12768
실의	-12769
카를	-12770
▁올라가	-12771
업계에서는	-12772
▁목소리도	-12773
▁처한	-12774
▁산다	-12775
▁회사채	-12776
▁판단하고	-12777
▁합리적	-12778
▁대책이	-12779
▁뛰었다	-12780
▁개정안이	-12781
▁음주운전	-12782
▁일선	-12783
▁한국어	-12784
▁부장판사는	-12785
▁전년동기대비	-12786
패가	-12787
▁규제가	-12788
포로	-12789
천시	-12790
▁보습	-12791
▁음식점	-12792
▁포부를	-12793
▁고용노동부	-12794
mb	-12795
▁촉구하는	-12796
원래	-12797
▁비트코인	-12798
▁사실이다	-12799
▁설문조사	-12800
▁메시지	-12801
▁조속한	-12802
▁주차장	-12803
▁북측	-12804
▁비치	-12805
▁관련이	-12806
▁인수를	-12807
동력	-12808
▁우리은행	-12809
▁노력해	-12810
▁바이어	-12811
고령	-12812
호기	-12813
▁공제	-12814
▁고등	-12815
▁제보	-12816
침해	-12817
▁내각	-12818
▁시진핑	-12819
▁무용	-12820
▁냄새	-12821
엔지니어링	-12822
▁미드	-12823
▁전설	-12824
눈에	-12825
▁부사장	-12826
▁굵	-12827
▁동월	-12828
▁조짐	-12829
함은	-12830
해상	-12831
보육	-12832
▁초등	-12833
▁게임의	-12834
▁남지	-12835
▁개그맨	-12836
▁기탁	-12837
▁맛이	-12838
▁주목할	-12839
▁국정감사에서	-12840
▁잠수	-12841
▁처리할	-12842
▁지리	-12843
드로이드	-12844
▁골키퍼	-12845
▁정도를	-12846
교과서	-12847
▁취향	-12848
▁물건을	-12849
▁스트레스	-12850
▁규칙	-12851
▁국영	-12852
'...	-12853
세권	-12854
▁나도	-12855
우를	-12856
▁감당	-12857
▁많을	-12858
▁트럭	-12859
▁속초	-12860
▁유니폼을	-12861
▁나지	-12862
패스	-12863
▁정했다	-12864
▁탈모	-12865
▁피할	-12866
▁적자를	-12867
역대	-12868
씨소프트	-12869
분은	-12870
▁상인	-12871
▁의장이	-12872
▁대변인	-12873
▁인재를	-12874
▁것이었다	-12875
▁흡연	-12876
▁스카이	-12877
▁인근에서	-12878
이든	-12879
▁간소	-12880
.2019	-12881
마이크	-12882
부정	-12883
▁신고가	-12884
▁쾌적한	-12885
부상	-12886
있고	-12887
▁달콤한	-12888
▁일정으로	-12889
▁과감한	-12890
▁진주	-12891
▁무엇인지	-12892
▁따라서	-12893
▁자본시장	-12894
▁사전투표	-12895
▁애널리스트는	-12896
▁비싼	-12897
▁신조	-12898
▁엄정	-12899
>.	-12900
▁판결이	-12901
▁기지	-12902
▁일반적인	-12903
안내	-12904
▁풍성한	-12905
소독	-12906
폴리	-12907
▁바람을	-12908
▁없으면	-12909
공격	-12910
▁지원금	-12911
▁피아	-12912
강도	-12913
부르크	-12914
▁매력이	-12915
▁중심에	-12916
▁파크	-12917
검찰청	-12918
형에	-12919
차와	-12920
▁송금	-12921
포지	-12922
▁보전	-12923
▁구매하는	-12924
▁청정	-12925
▁표현을	-12926
▁뉴질랜드	-12927
▁혁	-12928
▁성분이	-12929
맥주	-12930
▁파손	-12931
시키며	-12932
협력을	-12933
▁추억을	-12934
▁권익	-12935
▁팔아	-12936
▁개정안은	-12937
nk	-12938
매년	-12939
▁보탰	-12940
▁커진	-12941
▁행위가	-12942
▁일도	-12943
▁업체의	-12944
▁미루	-12945
▁캐시	-12946
▁들어갔	-12947
▁촉구한다	-12948
배송	-12949
▁있기를	-12950
▁야당이	-12951
▁전체회의	-12952
▁전망도	-12953
▁최적화된	-12954
▁로드맵	-12955
▁저금리	-12956
▁총장의	-12957
▁철수	-12958
▁투약	-12959
▁자세로	-12960
▁한계를	-12961
▁요구가	-12962
▁헌신	-12963
▁참석할	-12964
작전	-12965
▁그래서	-12966
▁상실	-12967
▁고무	-12968
▁의료진	-12969
▁한창	-12970
▁사죄	-12971
▁돼지	-12972
▁무단	-12973
▁미용	-12974
제품을	-12975
프리미엄	-12976
▁체력	-12977
남녀	-12978
자리를	-12979
▁수출입	-12980
▁시청자	-12981
▁◆	-12982
교부	-12983
▁다를	-12984
▁인건비	-12985
▁190	-12986
▁간에	-12987
자전거	-12988
▁정유	-12989
▁차등	-12990
▁다름	-12991
▁의정	-12992
▁화이자	-12993
감치	-12994
▁처방	-12995
▁선사했다	-12996
▁던진	-12997
▁행사로	-12998
석과	-12999
▁배임	-13000
▁여전	-13001
▁당국의	-13002
▁없어서	-13003
▁짝	-13004
▁돌아오	-13005
▁도착한	-13006
▁벨기에	-13007
▁마사	-13008
▁됐다는	-13009
▁답을	-13010
혐오	-13011
▁버전	-13012
▁라운드	-13013
▁조화를	-13014
▁그었다	-13015
▁재임	-13016
▁소비자들에게	-13017
관왕	-13018
그라	-13019
▁좋고	-13020
▁차량에	-13021
▁재선	-13022
이닝을	-13023
▁박스오피스	-13024
▁주축	-13025
해진다	-13026
▁교육과정	-13027
▁계약이	-13028
▁제작발표	-13029
▁토요	-13030
▁수수료를	-13031
▁스피커	-13032
대기	-13033
▁얘기가	-13034
▁해주는	-13035
▁정례브리핑에서	-13036
했다면	-13037
오버	-13038
▁막는	-13039
▁평화를	-13040
움과	-13041
▁어떨	-13042
.50	-13043
▁대비한	-13044
▁다니는	-13045
▁'19	-13046
▁취약한	-13047
번은	-13048
▁유의해야	-13049
▁화웨이	-13050
선거관리	-13051
청원	-13052
▁되기를	-13053
방울	-13054
▁면밀히	-13055
▁생물	-13056
번호를	-13057
▁달러로	-13058
▁주무	-13059
느냐는	-13060
▁공청	-13061
ne	-13062
▁개발했다	-13063
▁맘	-13064
▁고전	-13065
▁멀리	-13066
▁상임위	-13067
공직	-13068
mbc	-13069
승인	-13070
▁경남도	-13071
▁명령을	-13072
▁제시하고	-13073
▁탔	-13074
▁부문은	-13075
▁제작해	-13076
▁여성가족	-13077
▁걸맞	-13078
▁1.7	-13079
▁마이클	-13080
대장	-13081
▁경제정책	-13082
▁영등포	-13083
기관은	-13084
▁검토를	-13085
▁변호인	-13086
하겠	-13087
▁에릭	-13088
▁조각	-13089
▁대안을	-13090
▁완료했다	-13091
▁당을	-13092
▁압도적인	-13093
▁일대에서	-13094
▁멸	-13095
▁목표는	-13096
▁들어와	-13097
▁활발히	-13098
이들의	-13099
▁카타르	-13100
아르	-13101
정밀	-13102
자이	-13103
▁세우고	-13104
를린	-13105
▁낮다	-13106
▁판로	-13107
▁조정을	-13108
▁남구	-13109
▁쉼	-13110
직업	-13111
▁편리한	-13112
예금	-13113
▁해석된다	-13114
▁스트리밍	-13115
▁강화된	-13116
▁위치를	-13117
▁대치	-13118
▁▶	-13119
시설의	-13120
▁귀여운	-13121
▁실질적	-13122
▁살해한	-13123
▁이뤄져야	-13124
▁비디오	-13125
▁위상을	-13126
▁자연스러운	-13127
론은	-13128
▁불편한	-13129
▁세일	-13130
즈에	-13131
사실상	-13132
▁경품	-13133
▁주파	-13134
규모는	-13135
찌감치	-13136
▁할리우드	-13137
▁오빠	-13138
▁추진된다	-13139
▁각국	-13140
▁촉발	-13141
▁이용이	-13142
▁못지	-13143
▁프라	-13144
ir	-13145
차게	-13146
▁적용하는	-13147
▁폭스바겐	-13148
▁나주	-13149
▁도망	-13150
▁수원시	-13151
현직	-13152
▁선진국	-13153
▁소재의	-13154
▁의사가	-13155
과대학	-13156
▁입체	-13157
▁과제로	-13158
▁바꾼	-13159
농가	-13160
▁제도가	-13161
왔고	-13162
▁추가경정예산	-13163
▁괴산	-13164
어의	-13165
▁대권	-13166
▁없습니다	-13167
▁가리	-13168
친환경	-13169
▁화보를	-13170
▁거래소	-13171
▁금품	-13172
▁내비쳤다	-13173
▁임대주택	-13174
▁교통안전	-13175
▁공직자	-13176
▁코치	-13177
빨리	-13178
▁하기로	-13179
▁상금	-13180
▁오리	-13181
▁0.4%	-13182
아내	-13183
▁결산	-13184
▁▷	-13185
인민	-13186
▁개선과	-13187
조국	-13188
▁여성은	-13189
결합	-13190
..<	-13191
개월만에	-13192
일에서	-13193
배로	-13194
▁머니투데이	-13195
▁발표에	-13196
용역	-13197
대병원	-13198
걸음	-13199
▁산책	-13200
▁사망자가	-13201
▁서비스도	-13202
무가	-13203
▁증가세를	-13204
▁아메리카	-13205
라디	-13206
▁보고를	-13207
▁나서야	-13208
▁연구소	-13209
나가는	-13210
▁결정된	-13211
현대차는	-13212
▁장벽	-13213
번지	-13214
▁항암	-13215
▁시장과	-13216
▁소멸	-13217
▁가능하고	-13218
건강보험	-13219
▁위에서	-13220
▁dna	-13221
▁주최하고	-13222
촉진	-13223
휴가	-13224
▁맞붙	-13225
▁화가	-13226
▁크기	-13227
▁출발해	-13228
항만	-13229
▁농도는	-13230
더라고요	-13231
▁폭락	-13232
티를	-13233
중고	-13234
▁위조	-13235
▁소관	-13236
시스코	-13237
교육청이	-13238
산업이	-13239
네트웍	-13240
랜드는	-13241
가요	-13242
▁얻는	-13243
▁너무나	-13244
▁아들이	-13245
▁호기	-13246
징계	-13247
▁휘발	-13248
▁극중	-13249
▁외출	-13250
▁기업가	-13251
▁적도	-13252
▁소음	-13253
만명에	-13254
▁유격수	-13255
▁체제를	-13256
▁우회	-13257
▁노선을	-13258
산지	-13259
▁달린	-13260
▁영구	-13261
▁스타뉴	-13262
▁일상생활	-13263
▁db	-13264
▁상용화	-13265
▁상주	-13266
되는데	-13267
증으로	-13268
▁베테랑	-13269
▁꺾고	-13270
▁고양시	-13271
렸다는	-13272
▁알지	-13273
다드	-13274
▁오프	-13275
▁일주	-13276
▁원칙에	-13277
▁며칠	-13278
▁밑돌	-13279
라를	-13280
록을	-13281
▁이해관계	-13282
▁투자할	-13283
▁분석하고	-13284
졌을	-13285
▁면서	-13286
▁여부와	-13287
▁you	-13288
▁교섭단체	-13289
금호	-13290
▁같았다	-13291
▁판단에	-13292
▁캄	-13293
책으로	-13294
▁박람회	-13295
여개의	-13296
▁법인세	-13297
▁출시할	-13298
▁경기도가	-13299
▁전과	-13300
▁노조는	-13301
▁면에서	-13302
▁확산되고	-13303
창의	-13304
▁로스	-13305
▁원내대변인은	-13306
세트를	-13307
▁진행하며	-13308
있던	-13309
한국당이	-13310
크는	-13311
▁서류를	-13312
어려	-13313
▁만회	-13314
▁아무리	-13315
국제공항	-13316
검찰이	-13317
▁무서	-13318
비율은	-13319
개념	-13320
둥이	-13321
르다	-13322
▁소진	-13323
▁시연	-13324
▁변화와	-13325
▁발언이	-13326
▁자랑한다	-13327
▁던져	-13328
▁기대에	-13329
▁요청에	-13330
▁일각에서는	-13331
▁1.3	-13332
th	-13333
원전	-13334
▁구호	-13335
▁늘릴	-13336
칭을	-13337
▁실형을	-13338
▁시장에서는	-13339
미안	-13340
▁공존	-13341
받게	-13342
집회	-13343
▁문제다	-13344
▁밖의	-13345
예측	-13346
▁영남	-13347
▁증설	-13348
▁하는지	-13349
▁영상은	-13350
▁깎	-13351
▁나라의	-13352
▁360	-13353
▁침수	-13354
▁1998	-13355
▁대회에	-13356
▁향했다	-13357
▁적법	-13358
그만큼	-13359
▁업체인	-13360
▁이사는	-13361
▁시민들에게	-13362
▁수질	-13363
잖아요	-13364
▁오디션	-13365
선박	-13366
▁체결하고	-13367
▁총재	-13368
▁관리할	-13369
형과	-13370
누적	-13371
라기	-13372
▁래퍼	-13373
연장	-13374
▁근처	-13375
▁보여드	-13376
▁팀에	-13377
▁대응해	-13378
▁후보자에	-13379
하반기	-13380
▁브랜드가	-13381
▁굽	-13382
▁기아차	-13383
포터	-13384
▁옆에	-13385
끄럽	-13386
▁제휴를	-13387
▁잭	-13388
▁기술의	-13389
▁드러내	-13390
자마자	-13391
개입	-13392
만달러를	-13393
▁직영	-13394
▁명의로	-13395
▁피력	-13396
▁극복을	-13397
온다	-13398
▁생각은	-13399
신고를	-13400
▁질병관리본부	-13401
조정을	-13402
▁방지하기	-13403
▁전제로	-13404
▁거대	-13405
영리	-13406
▁어렵고	-13407
▁과열	-13408
▁부응	-13409
형태	-13410
▁역학조사	-13411
▁후임	-13412
▁상승에	-13413
▁시민사회	-13414
▁생겼	-13415
▁느낀다	-13416
▁아픈	-13417
▁끝나고	-13418
드립니다	-13419
▁성장하는	-13420
도심	-13421
▁매출액이	-13422
결산	-13423
▁교도	-13424
▁블랙리스트	-13425
인상	-13426
▁문서	-13427
▁역설	-13428
▁운수	-13429
미로	-13430
훈은	-13431
저작권	-13432
▁장기화	-13433
▁뭘	-13434
감찰	-13435
너는	-13436
▁당연	-13437
▁본질	-13438
스프	-13439
▁없는데	-13440
▁멤버십	-13441
▁아랍	-13442
▁확보하기	-13443
나들목	-13444
▁출전한	-13445
▁자유로운	-13446
▁95%	-13447
▁유용	-13448
문으로	-13449
▁댓글을	-13450
▁거라고	-13451
ma	-13452
▁트렌디	-13453
▁뷔	-13454
▁최대주주	-13455
중독	-13456
▁조용	-13457
▁포지	-13458
▁남기	-13459
▁영감을	-13460
▁고척	-13461
▁선수들을	-13462
▁것이냐	-13463
▁올라섰다	-13464
▁불합	-13465
이탈	-13466
▁진단을	-13467
레이터	-13468
해피	-13469
활성화	-13470
경에	-13471
▁실적에	-13472
▁해설	-13473
▁주택담보대출	-13474
▁눌	-13475
언제	-13476
▁전자상거래	-13477
우의	-13478
해지	-13479
아라비아	-13480
▁로맨틱	-13481
▁가끔	-13482
개월에	-13483
거리가	-13484
자로부터	-13485
있어	-13486
▁흐름이	-13487
▁정상적으로	-13488
인한	-13489
▁가정의	-13490
나쁨	-13491
놀로	-13492
공사의	-13493
▁편의성을	-13494
▁전체적으로	-13495
▁모습에	-13496
▁시민이	-13497
▁까다	-13498
▁파라	-13499
미스	-13500
만명으로	-13501
▁이해하고	-13502
▁혼란을	-13503
예고	-13504
▁자산을	-13505
가게	-13506
▁믿는다	-13507
▁약세	-13508
보다도	-13509
▁장시간	-13510
▁어쩔	-13511
▁분들께	-13512
특례	-13513
▁단일화	-13514
▁작가가	-13515
충청	-13516
스퀘어	-13517
▁가처분	-13518
~40	-13519
사단	-13520
▁종가	-13521
저축은행	-13522
네스코	-13523
▁곡을	-13524
▁금호타이어	-13525
브로드	-13526
▁이념	-13527
성향	-13528
▁죽음	-13529
▁기다려	-13530
▁세력	-13531
▁손꼽	-13532
세탁	-13533
▁할부	-13534
▁손으로	-13535
스카이	-13536
▁개봉을	-13537
테이	-13538
▁소중	-13539
외과	-13540
협의회는	-13541
생은	-13542
▁등록된	-13543
▁투자한	-13544
보전	-13545
련의	-13546
▁총선을	-13547
▁나가고	-13548
▁방통	-13549
▁글이	-13550
▁약물	-13551
▁지키지	-13552
해양수산	-13553
91	-13554
▁어워드	-13555
▁록	-13556
관계자는	-13557
▁팔레	-13558
▁시장점유	-13559
▁빌딩	-13560
메이드	-13561
▁저도	-13562
▁출발한	-13563
▁섬유	-13564
▁깨고	-13565
▁국악	-13566
▁보건소	-13567
▁추가했다	-13568
터널	-13569
▁늦은	-13570
했으면	-13571
▁작전	-13572
프로골프	-13573
전년	-13574
▁그걸	-13575
▁모욕	-13576
화장품	-13577
▁벤치	-13578
▁평범한	-13579
▁양보	-13580
▁이코노	-13581
▁변호인은	-13582
▁이별	-13583
▁끝났다	-13584
성능	-13585
▁접수된	-13586
▁열려	-13587
81	-13588
그리	-13589
▁일부개정	-13590
▁거대한	-13591
▁어렵다고	-13592
▁밸런	-13593
▁라인을	-13594
▁급속	-13595
▁깨끗한	-13596
**	-13597
▁들어서는	-13598
▁낙관	-13599
긴다	-13600
▁잔여	-13601
▁요소를	-13602
▁의료기기	-13603
▁녹화	-13604
.━	-13605
▁장학금	-13606
▁대법관	-13607
▁협상에	-13608
▁퍼포먼스	-13609
지엠	-13610
▁찬반	-13611
▁바이러스가	-13612
▁각광	-13613
▁폭을	-13614
▁급증했다	-13615
▁기성	-13616
▁변호사가	-13617
▁자정	-13618
▁신한금융	-13619
중개	-13620
줘서	-13621
▁외국인과	-13622
▁추가됐다	-13623
▁상큼	-13624
▁성장하고	-13625
▁행진	-13626
하자고	-13627
▁모델은	-13628
▁복용	-13629
▁불복	-13630
서류	-13631
▁un	-13632
▁지침을	-13633
여기서	-13634
▁인플루	-13635
선관	-13636
해준	-13637
▁생명을	-13638
▁한전	-13639
▁공간이	-13640
▁방송에	-13641
▁다이어트	-13642
▁엄격한	-13643
▁주한미	-13644
거래소	-13645
품목	-13646
방과	-13647
▁상하	-13648
브로	-13649
▁공급할	-13650
강에	-13651
▁일부는	-13652
천구	-13653
치료제	-13654
▁분석됐다	-13655
입국	-13656
사고가	-13657
전략을	-13658
났지만	-13659
했음에도	-13660
▁알바	-13661
▁인천시	-13662
▁회생	-13663
팀과	-13664
▁하겠다고	-13665
보지	-13666
▁농어촌	-13667
▁인정받았다	-13668
진구	-13669
▁가입한	-13670
듬해	-13671
하락	-13672
▁오일	-13673
▁협력업체	-13674
▁동일하게	-13675
:1	-13676
수엘	-13677
업의	-13678
▁냉동	-13679
▁그것을	-13680
▁되는데	-13681
상황이	-13682
tn	-13683
▁영화의	-13684
간접	-13685
▁퇴진	-13686
▁수행하는	-13687
▁쏘아	-13688
▁구름이	-13689
▁금융회사	-13690
▁시간과	-13691
+1	-13692
▁안건을	-13693
▁농민	-13694
▁지사의	-13695
▁직원의	-13696
성적	-13697
▁어두	-13698
▁역동	-13699
▁자격증	-13700
다행	-13701
접수	-13702
▁주도하는	-13703
▁문자메시	-13704
▁갓	-13705
월에도	-13706
프로젝트	-13707
▁기자간담회를	-13708
▁화합	-13709
회의는	-13710
▁유학생	-13711
▁사진이	-13712
▁보탰다	-13713
▁인간의	-13714
▁제한하는	-13715
현의	-13716
하긴	-13717
▁격차를	-13718
▁대가	-13719
조례	-13720
▁랜드	-13721
했다며	-13722
츠는	-13723
급적	-13724
▁판매하고	-13725
▁1997	-13726
▁전략이다	-13727
oo	-13728
▁완전한	-13729
조원에	-13730
▁1.2	-13731
검증	-13732
▁뜻으로	-13733
리바바	-13734
▁사육	-13735
▁부르는	-13736
▁금융위	-13737
▁내세운	-13738
카고	-13739
공사와	-13740
▁덩	-13741
생충	-13742
캠퍼스	-13743
포스	-13744
▁주택을	-13745
▁해소하기	-13746
황이	-13747
▁수산물	-13748
▁고기압의	-13749
▁가축	-13750
▁퇴근	-13751
▁침입	-13752
디는	-13753
▁설립을	-13754
▁고민하고	-13755
펀드는	-13756
마스터	-13757
리더	-13758
▁이론	-13759
거리는	-13760
선한	-13761
▁나오면	-13762
▁강조하고	-13763
문서	-13764
▁리버	-13765
시피	-13766
▁권장	-13767
▁종결	-13768
스토리	-13769
▁콘셉트로	-13770
자나	-13771
▁점심	-13772
득점을	-13773
라운	-13774
행위에	-13775
▁학생은	-13776
▁단말기	-13777
▁심리로	-13778
▁맛집	-13779
▁업무상	-13780
▁리뉴얼	-13781
▁달성한	-13782
▁과다	-13783
▁체제로	-13784
어린이집	-13785
▁내놓을	-13786
투표를	-13787
▁1.4	-13788
연계	-13789
▁내놓고	-13790
▁en	-13791
▁극심한	-13792
▁취하고	-13793
▁크레	-13794
▁수준에서	-13795
으니까	-13796
▁vs	-13797
▁대선후보	-13798
▁대신해	-13799
격에	-13800
후의	-13801
▁추측	-13802
▁발표하는	-13803
현재는	-13804
▁판매한	-13805
▁by	-13806
▁하려고	-13807
▁도입했다	-13808
▁경신했다	-13809
케스트라	-13810
▁주체	-13811
이었으나	-13812
▁움직이는	-13813
라와	-13814
▁곳도	-13815
ss	-13816
▁조사할	-13817
위원장과	-13818
afp	-13819
▁한국투자증권	-13820
▁출범한	-13821
▁박탈	-13822
건물	-13823
▁오른쪽	-13824
▁익숙	-13825
경찰청은	-13826
판이	-13827
▁신청이	-13828
▁승용차	-13829
▁사옥	-13830
▁합법	-13831
▁이사회를	-13832
▁만나고	-13833
평생	-13834
▁날아	-13835
▁초부터	-13836
▁장점을	-13837
▁시설물	-13838
소속사	-13839
▁매치해	-13840
▁중요하다고	-13841
▁넣은	-13842
▁올스타	-13843
▁멤버들의	-13844
프의	-13845
▁수제	-13846
▁유독	-13847
마당	-13848
▁룩을	-13849
▁통일부	-13850
▁납득	-13851
▁대상에서	-13852
이밖에도	-13853
산에	-13854
▁출고	-13855
으론	-13856
▁정도는	-13857
파를	-13858
▁폐기물	-13859
대선	-13860
경비	-13861
▁뮤지션	-13862
넥스	-13863
▁시켜	-13864
공으로	-13865
긴급	-13866
▁의문	-13867
▁협회	-13868
▁노트북	-13869
▁업체를	-13870
▁내놓았다	-13871
▁교육감은	-13872
▁잡지	-13873
▁성별	-13874
실적을	-13875
▁시기가	-13876
▁유치를	-13877
▁확대로	-13878
▁대주주	-13879
▁첼	-13880
값은	-13881
▁용산구	-13882
디션을	-13883
한반도	-13884
▁자세를	-13885
디가	-13886
~19	-13887
▁급격한	-13888
소매	-13889
▁즐거움을	-13890
가구로	-13891
▁내줬다	-13892
▁닦	-13893
확대	-13894
출판	-13895
가리	-13896
들에게도	-13897
실내	-13898
이사회	-13899
▁공개하고	-13900
▁0.8	-13901
▁짓고	-13902
▁프리미어리그	-13903
해져	-13904
▁1.5%	-13905
▁띈	-13906
▁연중	-13907
▁뷰	-13908
▁공감대를	-13909
▁드러낸	-13910
▁아르헨티	-13911
▁이룰	-13912
08	-13913
▁것인데	-13914
▁굳이	-13915
일각에서는	-13916
▁정규시즌	-13917
▁갤럭시노트	-13918
▁살린	-13919
▁설명하고	-13920
▁추진에	-13921
▁건넸	-13922
▁개발하는	-13923
▁여주	-13924
▁원심을	-13925
▁볼넷을	-13926
조금	-13927
▁ost	-13928
시장에서는	-13929
변동	-13930
▁파운드	-13931
메달을	-13932
가공	-13933
▁로비	-13934
'.━.	-13935
▁생각에	-13936
▁비서관	-13937
▁위기가	-13938
▁내용과	-13939
▁금융감독원	-13940
▁서귀포	-13941
▁업체들이	-13942
▁진학	-13943
▁평화의	-13944
▁판단한	-13945
▁등에게	-13946
▁기울이고	-13947
트럭	-13948
▁외화	-13949
▁받았다는	-13950
▁꿈꾸는	-13951
▁저해	-13952
▁불량	-13953
▁규정에	-13954
▁강력하게	-13955
기타	-13956
▁피자	-13957
▁통합당	-13958
드레	-13959
생명과학	-13960
▁효율성을	-13961
▁기점으로	-13962
▁원화	-13963
▁위장	-13964
▁분석도	-13965
▁실현을	-13966
▁호조	-13967
▁영화관	-13968
▁판문점	-13969
줄이	-13970
▁가죽	-13971
▁없다면	-13972
▁피해자의	-13973
la	-13974
~15	-13975
▁거리가	-13976
▁일어날	-13977
갈등	-13978
투자를	-13979
출연	-13980
패키	-13981
▁뜻한다	-13982
들고	-13983
버린	-13984
▁환불	-13985
▁러시아의	-13986
▁좀처럼	-13987
▁표정을	-13988
bi	-13989
철을	-13990
봉을	-13991
▁슬라이	-13992
▁선관	-13993
▁받아들이지	-13994
림이	-13995
▁해결하는	-13996
당첨	-13997
▁행위는	-13998
▁전하며	-13999
▁선수들은	-14000
공립	-14001
맥스	-14002
씨도	-14003
였다고	-14004
골드	-14005
▁동영상을	-14006
ba	-14007
군으로	-14008
▁좋게	-14009
▁형평	-14010
▁알았다	-14011
▁현상을	-14012
저를	-14013
▁증가했다고	-14014
▁인원은	-14015
▁시그니처	-14016
▁간담회에서	-14017
버거	-14018
▁이익이	-14019
▁확대되고	-14020
전기차	-14021
학과를	-14022
▁지식재산	-14023
▁단양	-14024
반대	-14025
▁당신	-14026
고양	-14027
▁쏠리고	-14028
세상	-14029
▁받아들일	-14030
▁주장은	-14031
▁경향이	-14032
▁부분도	-14033
▁불가능하다	-14034
아베	-14035
연기	-14036
위원장의	-14037
▁젖	-14038
▁팬데믹	-14039
주면	-14040
▁놀라게	-14041
▁단백질	-14042
▁플레이어	-14043
▁경험할	-14044
▁싶지	-14045
▁당해	-14046
▁지친	-14047
복무	-14048
▁자회사인	-14049
이었지만	-14050
▁배분	-14051
메이크	-14052
▁요금제	-14053
히트	-14054
▁다툼	-14055
▁악용	-14056
▁기후변화	-14057
매치	-14058
▁극복하고	-14059
▁박사는	-14060
▁마포	-14061
▁개최해	-14062
소설	-14063
▁신재생에너지	-14064
▁이야기다	-14065
▁드라이	-14066
▁객실	-14067
▁대대적인	-14068
▁행정안전부	-14069
고로	-14070
▁늘렸다	-14071
▁철저하게	-14072
▁파급	-14073
▁나중에	-14074
국민연금	-14075
▁선점	-14076
▁살아가는	-14077
▁여러가지	-14078
▁지도자	-14079
뉴딜	-14080
▁공감을	-14081
▁주의가	-14082
▁허용했다	-14083
벤져스	-14084
▁빼돌	-14085
▁아세안	-14086
▁업체에	-14087
▁이것	-14088
▁여기서	-14089
▁상황과	-14090
▁자발적으로	-14091
▁신경을	-14092
▁평가에서	-14093
▁소송에서	-14094
▁for	-14095
▁조성해	-14096
▁싶다면	-14097
가맹	-14098
경쟁력	-14099
▁출석해	-14100
수칙을	-14101
입장	-14102
▁내년에	-14103
▁득점을	-14104
▁아동학대	-14105
남미	-14106
▁로맨스	-14107
▁두산은	-14108
▁차량의	-14109
▁학교를	-14110
되어야	-14111
▁검사에서	-14112
▁나가야	-14113
▁파일	-14114
▁결정됐다	-14115
도널드	-14116
▁장소에서	-14117
▁전사	-14118
▁위원은	-14119
pd	-14120
해가	-14121
미국이	-14122
▁집단감염이	-14123
▁속속	-14124
▁지금도	-14125
고용노동	-14126
▁체계적으로	-14127
▁정부서울청사에서	-14128
▁넉	-14129
▁당기순이익은	-14130
▁정보보호	-14131
▁구급	-14132
으려	-14133
▁인사가	-14134
테크노	-14135
▁인구가	-14136
▁삼고	-14137
▁지방세	-14138
▁하다가	-14139
▁성장과	-14140
▁공격적인	-14141
▁온실가스	-14142
클리	-14143
▁문화가	-14144
▁훌쩍	-14145
▁카지노	-14146
▁지켜보	-14147
▁산업을	-14148
개동	-14149
▁대학의	-14150
▁4~5	-14151
▁모두의	-14152
▁브루	-14153
▁두번째	-14154
탄핵	-14155
▁마운드에	-14156
▁선정하고	-14157
원자력	-14158
제일제	-14159
까요	-14160
▁물론이고	-14161
가상	-14162
살인	-14163
▁강사	-14164
라리	-14165
▁공모를	-14166
▁주저	-14167
관세	-14168
도우	-14169
즈베	-14170
▁실점	-14171
▁청량	-14172
▁맞췄다	-14173
▁주신	-14174
▁도전하는	-14175
▁구축할	-14176
▁예상한다	-14177
▁공개해	-14178
▁도시락	-14179
타점을	-14180
▁그래도	-14181
▁아이들을	-14182
모로	-14183
▁제외하면	-14184
▁관계에	-14185
▁펼쳐지는	-14186
고시	-14187
계획에	-14188
▁발족	-14189
▁몸이	-14190
그렇다면	-14191
▁현실화	-14192
▁힘들어	-14193
▁램	-14194
▁기간보다	-14195
▁인텔	-14196
▁환율이	-14197
디로	-14198
만달러로	-14199
▁원피	-14200
▁연락이	-14201
▁해마다	-14202
▁디자인의	-14203
▁보이면서	-14204
▁플로리다	-14205
언스	-14206
▁프레임	-14207
▁도전을	-14208
밀한	-14209
▁옥천	-14210
▁연예인	-14211
▁논의하고	-14212
마는	-14213
▁열정	-14214
▁깔끔한	-14215
▁오산	-14216
계에서	-14217
일까지다	-14218
▁일부가	-14219
▁넘지	-14220
▁철학	-14221
▁공범	-14222
▁태어난	-14223
미술관	-14224
▁아래로	-14225
▁전하는	-14226
니의	-14227
▁말하고	-14228
▁자세히	-14229
▁부결	-14230
학술	-14231
the	-14232
▁주장하며	-14233
▁섰다	-14234
▁실리콘	-14235
▁공산	-14236
▁측면이	-14237
▁펠	-14238
▁하나를	-14239
▁사과했다	-14240
▁오랜만에	-14241
▁상품권	-14242
▁이어지면서	-14243
▁언제나	-14244
▁미만의	-14245
▁붐	-14246
▁됩니다	-14247
▁부지에	-14248
▁전체가	-14249
▁뛴	-14250
강을	-14251
변을	-14252
▁월간	-14253
▁작품에	-14254
미국과	-14255
감정	-14256
▁고충	-14257
지방선거	-14258
▁폭탄	-14259
취소	-14260
티아	-14261
▁은행의	-14262
▁부가가	-14263
▁강화와	-14264
주니어	-14265
▁유나이	-14266
▁몰랐다	-14267
▁거머	-14268
▁부평	-14269
▁전당대회	-14270
▁일간	-14271
▁선수로	-14272
▁아웃도어	-14273
▁혼합	-14274
▁응답이	-14275
헬로	-14276
금리는	-14277
▁증거가	-14278
▁걸로	-14279
스텔	-14280
▁이득	-14281
금융은	-14282
▁취지	-14283
▁수출은	-14284
▁경쟁력이	-14285
▁일본은	-14286
▁광장	-14287
▁재학	-14288
▁날인	-14289
▁아파트를	-14290
▁휴가를	-14291
▁컨셉	-14292
▁인정한	-14293
▁산업부	-14294
케이팅	-14295
▁법무법인	-14296
▁즐겁게	-14297
업자	-14298
원칙	-14299
▁사라진	-14300
독교	-14301
▁긴밀히	-14302
▁삼성바이오로직	-14303
해주고	-14304
구치	-14305
▁차장	-14306
석으로	-14307
▁사용자가	-14308
세이	-14309
▁사랑스러운	-14310
시설은	-14311
▁상황에서도	-14312
▁시상식에서	-14313
▁한우	-14314
▁특성에	-14315
▁지냈다	-14316
▁쇠	-14317
▁옵션	-14318
▁꼼꼼히	-14319
▁이용자가	-14320
▁제작된	-14321
▁넓혀	-14322
▁가입할	-14323
▁딥	-14324
멘트	-14325
▁실전	-14326
▁예의	-14327
총생산	-14328
▁과목	-14329
▁청구했다	-14330
얼마	-14331
중을	-14332
▁나쁨	-14333
▁지어	-14334
▁겉	-14335
시나	-14336
렸을	-14337
▁둥	-14338
▁넘기	-14339
▁외국인은	-14340
▁납치	-14341
초를	-14342
▁봉사활동을	-14343
▁상표	-14344
▁성형	-14345
▁주변의	-14346
▁곡으로	-14347
▁다큐	-14348
▁우세	-14349
▁폭발적인	-14350
▁될지	-14351
아카데미	-14352
지난주	-14353
▁겨냥해	-14354
▁이유에서다	-14355
전드	-14356
▁돼서	-14357
▁늘리	-14358
진행	-14359
..6	-14360
▁금융기관	-14361
▁스토리를	-14362
▁스커	-14363
▁고부가	-14364
▁빨간	-14365
▁국가를	-14366
▁주식형	-14367
▁시군	-14368
투자가	-14369
▁화답	-14370
▁【	-14371
▁북한을	-14372
▁실물	-14373
성남	-14374
▁걸리는	-14375
▁1.8	-14376
▁칩	-14377
▁자녀를	-14378
▁전환했다	-14379
▁고사	-14380
▁계속될	-14381
▁빠르고	-14382
▁딸을	-14383
▁출연하는	-14384
▁관절	-14385
▁수출을	-14386
▁개학	-14387
▁공채	-14388
안군	-14389
▁작용했다	-14390
▁비준	-14391
▁번역	-14392
▁산업단지	-14393
▁사랑에	-14394
모직	-14395
▁상품의	-14396
▁대학원	-14397
▁삼성증권	-14398
▁소개하고	-14399
▁공연이	-14400
페스티벌	-14401
▁주도한	-14402
▁붉은	-14403
▁소극	-14404
▁기회로	-14405
▁있어도	-14406
▁선고한	-14407
▁서비스의	-14408
게이트	-14409
▁라임	-14410
▁이렇	-14411
전부터	-14412
▁달할	-14413
문과	-14414
▁위임	-14415
▁있거나	-14416
▁위하여	-14417
▁확보하는	-14418
위해	-14419
즈로	-14420
▁개선해	-14421
차트	-14422
시가총액	-14423
들여	-14424
▁개봉한	-14425
▁조언을	-14426
소송을	-14427
▁증시에	-14428
▁릴레이	-14429
▁미쳤다	-14430
▁사진과	-14431
gc	-14432
▁자유를	-14433
▁전한다	-14434
▁일찌감치	-14435
▁디렉	-14436
모씨를	-14437
폭은	-14438
▁발생한다	-14439
▁감싸	-14440
심리가	-14441
지기도	-14442
▁처음부터	-14443
▁판매량은	-14444
▁더불어민주당은	-14445
▁영등포구	-14446
▁삼성은	-14447
▁한국은행	-14448
수리	-14449
▁나누고	-14450
▁전반을	-14451
▁압박을	-14452
▁롯데그룹	-14453
▁연결기준	-14454
겠고	-14455
▁법관	-14456
드에서	-14457
▁중단하고	-14458
▁건축물	-14459
▁꼽혔다	-14460
▁주민의	-14461
▁부문에	-14462
▁늘어나면서	-14463
▁회동을	-14464
▁덕분	-14465
센스	-14466
이한	-14467
▁개발이	-14468
▁미래창조과학	-14469
▁여의	-14470
▁약속한	-14471
▁측에서	-14472
▁전달한	-14473
▁단계에	-14474
▁데이트	-14475
▁모델이	-14476
적으로도	-14477
▁출품	-14478
▁선사한다	-14479
▁아모레퍼시픽	-14480
그게	-14481
지식	-14482
시켜야	-14483
▁올해로	-14484
▁발견했다	-14485
▁진흥	-14486
▁예보했다	-14487
▁앰	-14488
▁다리	-14489
▁한국전력	-14490
ex	-14491
부양	-14492
▁근거를	-14493
▁대유	-14494
▁인종	-14495
▁직원은	-14496
▁마련하는	-14497
러드	-14498
가을	-14499
최저임금	-14500
▁꿀	-14501
▁회의에	-14502
ict	-14503
▁사장을	-14504
▁전문가로	-14505
세력	-14506
▁줄곧	-14507
억달러를	-14508
▁임무를	-14509
최초	-14510
▁야기	-14511
▁걱정이	-14512
▁튼	-14513
▁대표에게	-14514
▁청와대에서	-14515
▁진천	-14516
▁활동하는	-14517
▁선택했다	-14518
▁남았다	-14519
배출	-14520
▁놓치지	-14521
니를	-14522
▁부르	-14523
▁클릭	-14524
▁전역	-14525
가구가	-14526
▁유로존	-14527
▁교수와	-14528
▁전작	-14529
▁성립	-14530
▁심도	-14531
이마트	-14532
워치	-14533
내에서	-14534
▁올랐고	-14535
▁영화다	-14536
등급을	-14537
▁폼페이오	-14538
구청장	-14539
▁쌍용	-14540
▁우리에게	-14541
▁나면	-14542
교육과	-14543
▁띄는	-14544
체스터	-14545
▁동화	-14546
개월을	-14547
▁분양가	-14548
부도	-14549
▁디자인과	-14550
▁선생님	-14551
▁계획하고	-14552
서울중앙지검	-14553
▁지는	-14554
러는	-14555
▁못했고	-14556
4'	-14557
▁사적	-14558
▁권고했다	-14559
▁현수	-14560
▁마련에	-14561
졌기	-14562
▁수신	-14563
▁양형	-14564
▁회담을	-14565
▁판단할	-14566
▁지고	-14567
▁피아노	-14568
검은	-14569
▁성수	-14570
▁끝나는	-14571
▁지사가	-14572
▁발의한	-14573
▁공개적으로	-14574
▁고성능	-14575
▁사례로	-14576
▁기본적으로	-14577
▁첫째	-14578
두산은	-14579
▁톰	-14580
-6	-14581
▁가상화폐	-14582
▁안심하고	-14583
▁교수를	-14584
개월이	-14585
▁징수	-14586
▁연출한	-14587
▁논의하는	-14588
단계에서	-14589
▁성실	-14590
허브	-14591
▁건물을	-14592
▁기억이	-14593
물량	-14594
가수	-14595
▁디테	-14596
▁우량	-14597
조사가	-14598
▁나라가	-14599
▁상품에	-14600
▁상원	-14601
▁양해각	-14602
▁피하기	-14603
매니	-14604
▁믿을	-14605
사상	-14606
▁주된	-14607
▁추진하겠다	-14608
▁특성화	-14609
▁형제	-14610
▁모르고	-14611
▁정상회의	-14612
중공업은	-14613
정권	-14614
그러다	-14615
강한	-14616
▁받으면서	-14617
?”	-14618
동네	-14619
▁참모	-14620
번홀에서	-14621
▁'7	-14622
▁cnbc	-14623
▁산재	-14624
▁높다고	-14625
▁군수는	-14626
증가	-14627
▁받았지만	-14628
이벤트	-14629
프란시스코	-14630
미래에셋	-14631
바이든	-14632
ae	-14633
▁질주	-14634
▁지켜야	-14635
▁잠실구장에서	-14636
▁젠	-14637
▁차량은	-14638
연구원이	-14639
▁열람	-14640
▁하나는	-14641
▁파격적인	-14642
▁차원	-14643
리칸	-14644
▁인물로	-14645
여행을	-14646
▁우아한	-14647
▁일본을	-14648
▁12%	-14649
▁신사	-14650
▁장소를	-14651
▁포함된다	-14652
▁미션	-14653
▁일로	-14654
▁따냈다	-14655
▁이후로	-14656
▁장르의	-14657
▁생방송	-14658
환을	-14659
un	-14660
▁알레	-14661
▁정상에	-14662
모빌리티	-14663
▁존슨	-14664
▁추가해	-14665
▁사면	-14666
케이션을	-14667
▁충당	-14668
ur	-14669
스테이트	-14670
▁결합한	-14671
투기	-14672
▁많은데	-14673
▁창업을	-14674
▁하세요	-14675
▁호흡기	-14676
▁무거운	-14677
▁애초	-14678
▁학생과	-14679
▁구미	-14680
쳤던	-14681
▁테스트를	-14682
▁제시하는	-14683
점포	-14684
▁상반	-14685
▁바르셀로나	-14686
▁기숙	-14687
었으면	-14688
여부를	-14689
▁스타일링을	-14690
▁남동	-14691
▁아이스크림	-14692
▁떨어뜨	-14693
▁일정에	-14694
▁공개하며	-14695
▁35%	-14696
▁구성하고	-14697
▁그림을	-14698
▁일시적으로	-14699
▁나뉜	-14700
▁평가하는	-14701
▁이외에도	-14702
▁내실	-14703
▁곡이다	-14704
▁시키	-14705
▁않으면서	-14706
▁자기자본	-14707
▁1100	-14708
.#	-14709
▁비싸	-14710
▁격차가	-14711
▁대회의실에서	-14712
▁일본에	-14713
▁복수	-14714
단체장	-14715
▁텐데	-14716
▁잃고	-14717
▁강수량은	-14718
▁적어도	-14719
▁아우르는	-14720
▁존경	-14721
▁수익률이	-14722
대회는	-14723
▁비용은	-14724
▁웨어	-14725
세이브	-14726
스틸	-14727
차전을	-14728
▁역임했다	-14729
었다는	-14730
협회와	-14731
적일	-14732
년에도	-14733
▁발굴하고	-14734
▁적발됐다	-14735
▁사퇴를	-14736
▁크다는	-14737
그녀는	-14738
▁취해	-14739
▁인플레이션	-14740
▁항체	-14741
▁지난해에	-14742
▁일축했다	-14743
▁3.5	-14744
▁지시한	-14745
허가를	-14746
▁강조하며	-14747
▁안았다	-14748
랭크	-14749
앞에	-14750
▁고려대	-14751
▁지역과	-14752
더욱이	-14753
▁무게를	-14754
▁명단	-14755
▁성남시	-14756
▁만화	-14757
▁20~30	-14758
▁기득	-14759
증후	-14760
▁청와대는	-14761
쳤다고	-14762
▁끝냈다	-14763
▁유력한	-14764
▁우수사례	-14765
▁oecd	-14766
▁드라마를	-14767
딩을	-14768
청약	-14769
▁배우가	-14770
타자로	-14771
하기가	-14772
▁한진해운	-14773
▁토론을	-14774
▁긴장감을	-14775
▁신산업	-14776
▁차입	-14777
▁놓은	-14778
영을	-14779
▁올라온	-14780
값을	-14781
▁개최하는	-14782
보건복지	-14783
닉스	-14784
의약	-14785
▁들어오는	-14786
실질	-14787
▁진한	-14788
구조를	-14789
▁목표주가	-14790
lb	-14791
▁털어놓	-14792
나노	-14793
막이	-14794
▁모른	-14795
▁부부의	-14796
▁220	-14797
▁폴리	-14798
▁출퇴근	-14799
전당	-14800
▁어업	-14801
▁개최할	-14802
▁시작을	-14803
▁서비스와	-14804
인멸	-14805
▁분야로	-14806
▁국외	-14807
▁keb	-14808
스퍼	-14809
▁신발	-14810
▁예상을	-14811
스트리아	-14812
▁디자인으로	-14813
▁외곽	-14814
▁트레	-14815
문화체육관광	-14816
▁저축은행	-14817
orpg	-14818
▁한껏	-14819
.60	-14820
▁태평양	-14821
▁폐렴	-14822
팩트	-14823
▁완치	-14824
▁소모	-14825
▁넣고	-14826
▁ls	-14827
▁부적절한	-14828
▁곤란	-14829
▁생각할	-14830
▁차별화	-14831
▁조치다	-14832
▁시행할	-14833
대중	-14834
가중	-14835
▁분들	-14836
다란	-14837
▁영유아	-14838
▁쇼트	-14839
▁놓인	-14840
▁반기	-14841
▁동계	-14842
▁수석부	-14843
▁경제협력	-14844
률도	-14845
지배	-14846
▁사실과	-14847
난을	-14848
▁후쿠	-14849
▁부부는	-14850
오스	-14851
미와	-14852
▁보상을	-14853
점도	-14854
.◇'	-14855
▁적힌	-14856
▁개선하고	-14857
생각	-14858
▁것들을	-14859
▁캐릭터가	-14860
▁세상에	-14861
작물	-14862
▁만난다	-14863
▁중국산	-14864
▁유성	-14865
▁클렌	-14866
보디아	-14867
지하철	-14868
▁경호	-14869
▁화재가	-14870
▁유기농	-14871
▁지원한	-14872
▁선수의	-14873
.';	-14874
▁가뭄	-14875
▁브랜드인	-14876
사회를	-14877
▁유관기관	-14878
▁자격이	-14879
▁붙잡혔다	-14880
연애	-14881
▁이때	-14882
▁단계에서	-14883
토지주택	-14884
▁부족하다	-14885
▁물에	-14886
▁미달	-14887
어업	-14888
▁수익성이	-14889
끈한	-14890
▁의원에게	-14891
▁공간에서	-14892
▁증가했고	-14893
▁미성년	-14894
▁주의를	-14895
제도의	-14896
▁결성	-14897
상황에	-14898
업무를	-14899
▁않았을	-14900
답을	-14901
▁갇	-14902
병이	-14903
▁다음주	-14904
▁독보적인	-14905
▁0.9	-14906
▁예결	-14907
▁크로스	-14908
▁수익이	-14909
개다	-14910
격으로	-14911
위권	-14912
▁데는	-14913
▁베를린	-14914
▁순위를	-14915
하고도	-14916
▁물러나	-14917
▁표출	-14918
제약은	-14919
▁끝날	-14920
▁우유	-14921
▁호평	-14922
▁군사적	-14923
업체를	-14924
▁kcc	-14925
▁농도가	-14926
▁반발했다	-14927
꺼번에	-14928
클래스	-14929
▁그렇다	-14930
▁명단에	-14931
▁마련된다	-14932
▁몽골	-14933
▁1600	-14934
▁초고	-14935
▁달러에	-14936
맞이	-14937
▁ms	-14938
마토	-14939
▁인생을	-14940
▁자신과	-14941
▁둘러싸고	-14942
▁지갑	-14943
휴직	-14944
▁설렘	-14945
▁해커	-14946
▁기능도	-14947
▁잡기	-14948
▁실어	-14949
▁가라	-14950
심지어	-14951
▁실정이다	-14952
가야	-14953
적이지	-14954
▁제도적	-14955
마르	-14956
ent	-14957
▁105	-14958
▁연속으로	-14959
선대	-14960
▁줄였다	-14961
▁사무총장	-14962
▁인디	-14963
▁디저트	-14964
▁숭	-14965
▁맹활	-14966
▁홍보를	-14967
▁안전과	-14968
▁끊이지	-14969
스파	-14970
▁무작	-14971
▁부임	-14972
▁내세워	-14973
▁손실이	-14974
조사는	-14975
▁고유의	-14976
▁챌린지	-14977
▁점진	-14978
▁만만치	-14979
▁발레	-14980
▁cbs	-14981
▁전에는	-14982
▁영향은	-14983
▁공습	-14984
살이	-14985
정책과	-14986
▁무제한	-14987
▁신청서를	-14988
▁안드로이드	-14989
년물	-14990
승째를	-14991
인공지능	-14992
센터로	-14993
▁상품이	-14994
▁빛나는	-14995
▁연달아	-14996
▁절실	-14997
▁탐방	-14998
▁연구원	-14999
플로	-15000
사이버	-15001
▁남기고	-15002
▁금리는	-15003
주류	-15004
▁디스	-15005
▁취지를	-15006
▁상권	-15007
▁확진된	-15008
▁치즈	-15009
▁선수단	-15010
▁정보는	-15011
▁마련해야	-15012
▁세계의	-15013
▁진출했다	-15014
연예	-15015
루미늄	-15016
소장	-15017
▁발전과	-15018
▁국가에서	-15019
▁변동성이	-15020
스킨	-15021
▁게임이	-15022
▁가늠	-15023
각각	-15024
분권	-15025
▁최고위원회의에서	-15026
하의	-15027
▁신상	-15028
▁클리	-15029
참모	-15030
▁현안에	-15031
▁예쁘	-15032
▁주최하는	-15033
로이터	-15034
▁과천	-15035
▁띈다	-15036
▁다가오는	-15037
▁롯데마트	-15038
▁지킬	-15039
▁대사는	-15040
▁어긋	-15041
▁돌아섰다	-15042
▁내기	-15043
▁냉장고	-15044
▁오디오	-15045
▁지지하는	-15046
▁룰	-15047
▁염려	-15048
질병관리	-15049
▁과시했다	-15050
▁베스트셀러	-15051
▁넷마블	-15052
ga	-15053
▁보험사	-15054
▁사각지	-15055
▁열악한	-15056
▁1·2	-15057
▁아들을	-15058
널티	-15059
▁뒤인	-15060
▁하반기부터	-15061
▁달성할	-15062
▁반려동물	-15063
▁방식은	-15064
▁앓고	-15065
▁대표적이다	-15066
▁주말드라마	-15067
▁링	-15068
▁헝	-15069
아빠	-15070
▁제공했다	-15071
▁전망에	-15072
▁쉴	-15073
▁범죄를	-15074
▁재원	-15075
▁상태였다	-15076
mz	-15077
▁하나금융	-15078
▁원인은	-15079
▁경제부총리	-15080
▁감안할	-15081
▁다졌다	-15082
▁총리와	-15083
콜라	-15084
▁충실	-15085
▁단장은	-15086
화성	-15087
대통령이	-15088
▁조사결과	-15089
집중	-15090
만으로는	-15091
▁정신적	-15092
▁가습기	-15093
▁대응이	-15094
이라면서도	-15095
▁율	-15096
러스트	-15097
오토	-15098
▁않자	-15099
▁이씨는	-15100
▁콘서트를	-15101
▁후보자를	-15102
▁시인	-15103
열을	-15104
▁것임을	-15105
▁떠올랐다	-15106
▁슬픔	-15107
▁불과한	-15108
▁사회적경제	-15109
▁노력했다	-15110
▁시급한	-15111
지나	-15112
▁이닝을	-15113
그냥	-15114
클로	-15115
▁말아야	-15116
지도록	-15117
▁멘토링	-15118
▁소식통	-15119
▁미국으로	-15120
찰을	-15121
▁논문	-15122
부진	-15123
▁일할	-15124
dr	-15125
▁의무가	-15126
▁역할에	-15127
▁정교	-15128
▁금액이	-15129
시간대	-15130
▁제출받은	-15131
올해로	-15132
▁남성은	-15133
▁활발하게	-15134
아이폰	-15135
▁아이들	-15136
▁재판에서	-15137
▁하도급	-15138
▁실버	-15139
▁사외이사	-15140
▁전신	-15141
▁럭셔리	-15142
▁착용한	-15143
종에	-15144
시험을	-15145
▁목적이	-15146
상가	-15147
▁불투명	-15148
▁자동화	-15149
누구	-15150
▁감추지	-15151
▁남북관계	-15152
량으로	-15153
프로듀	-15154
▁퇴원	-15155
▁다하고	-15156
강원도	-15157
국악	-15158
포장	-15159
▁사용했다	-15160
▁수호	-15161
▁계승	-15162
▁서산	-15163
ws	-15164
▁주사	-15165
금지법	-15166
▁원자재	-15167
▁대표팀은	-15168
▁관광객이	-15169
차익	-15170
▁누락	-15171
원내대표	-15172
제표	-15173
▁학대	-15174
▁질을	-15175
▁시간대	-15176
웨이는	-15177
조성	-15178
11:00	-15179
▁시사했다	-15180
▁기관과	-15181
ifa	-15182
.2011	-15183
▁허위사실	-15184
하는지	-15185
키트	-15186
▁전체회의를	-15187
▁피해자를	-15188
▁시간도	-15189
▁족	-15190
▁귀를	-15191
▁전교	-15192
▁공매도	-15193
▁자사고	-15194
▁간사	-15195
기상청에	-15196
기능식품	-15197
▁해상에서	-15198
▁소비자에게	-15199
▁많다는	-15200
▁인원이	-15201
▁더해져	-15202
▁똑같은	-15203
독도	-15204
▁무엇인가	-15205
▁삼성전자와	-15206
쳤지만	-15207
근한	-15208
▁제공하며	-15209
보이	-15210
▁사안에	-15211
▁사우디아라비아	-15212
프린	-15213
해서는	-15214
여객	-15215
등한	-15216
▁신흥국	-15217
▁젊	-15218
▁상승세가	-15219
▁저작권	-15220
▁전주시	-15221
▁터뜨렸다	-15222
▁깃	-15223
하듯	-15224
▁인문	-15225
▁중형	-15226
▁일자리가	-15227
▁탈북	-15228
보고서를	-15229
▁상징하는	-15230
▁가하고	-15231
영동	-15232
▁앞으로는	-15233
▁건강에	-15234
▁하원의	-15235
▁특가	-15236
▁목소리	-15237
▁멤버들이	-15238
▁승소	-15239
파티	-15240
▁검역	-15241
▁햄	-15242
.40	-15243
사업체	-15244
▁방탄소년단	-15245
해결	-15246
▁탓이다	-15247
▁종종	-15248
커뮤니	-15249
▁소외계층	-15250
▁과정은	-15251
단장	-15252
▁생태계를	-15253
이냐	-15254
▁마드리	-15255
▁순회	-15256
▁굳건	-15257
▁송구	-15258
▁해산	-15259
전선	-15260
▁갑질	-15261
돔에서	-15262
▁3.0	-15263
▁당선인은	-15264
▁명백한	-15265
▁보호하기	-15266
▁근로시간	-15267
▁유공	-15268
▁신중한	-15269
아프리카	-15270
▁엔화	-15271
▁파악할	-15272
▁전하고	-15273
▁걸림	-15274
▁시대가	-15275
▁아이의	-15276
심리지	-15277
원까지	-15278
특구	-15279
여가	-15280
공사를	-15281
▁않습니다	-15282
▁양식	-15283
▁102	-15284
기인	-15285
튜버	-15286
▁보태	-15287
한진	-15288
선거구	-15289
통장	-15290
▁앨	-15291
▁가능하게	-15292
▁풋	-15293
▁이목이	-15294
sm	-15295
요구	-15296
▁오너	-15297
▁달리고	-15298
▁확고	-15299
화이트	-15300
체크	-15301
▁공격수	-15302
▁이루는	-15303
벚꽃	-15304
▁그녀는	-15305
▁매체는	-15306
▁넘은	-15307
▁외국인의	-15308
▁스마트시티	-15309
아주	-15310
▁바꿨다	-15311
▁코믹	-15312
▁희귀	-15313
▁연면적	-15314
▁점유율을	-15315
▁일반인	-15316
▁든든한	-15317
▁지적을	-15318
▁별개로	-15319
▁붙여	-15320
▁송도	-15321
▁참가자	-15322
▁무역전쟁	-15323
▁보게	-15324
▁측과	-15325
▁삼성동	-15326
▁금감원	-15327
▁도입된	-15328
본은	-15329
▁알렉	-15330
▁퇴임	-15331
▁수익률은	-15332
▁정부세종	-15333
여년	-15334
종과	-15335
▁헬스	-15336
▁플래그	-15337
연봉	-15338
▁집필	-15339
▁석유화학	-15340
▁남는	-15341
실천	-15342
▁지급할	-15343
▁영화에	-15344
▁컨벤션	-15345
누가	-15346
▁한국관광	-15347
▁돕는다	-15348
▁투명한	-15349
▁경찰과	-15350
▁중단을	-15351
면세	-15352
▁오사카	-15353
▁모던	-15354
우와	-15355
▁상반기에	-15356
▁입주민	-15357
▁그친	-15358
침을	-15359
▁mvp	-15360
세부	-15361
만원과	-15362
텃밭	-15363
▁간단	-15364
아를	-15365
▁어우러진	-15366
▁중화	-15367
▁눈물	-15368
연패를	-15369
층과	-15370
만금	-15371
정책에	-15372
▁여당이	-15373
▁알려지면서	-15374
영어	-15375
▁lcd	-15376
상품권	-15377
▁은평	-15378
▁강의를	-15379
▁시간당	-15380
기후	-15381
▁하차	-15382
체제를	-15383
▁그에게	-15384
▁획득했다	-15385
가격의	-15386
비록	-15387
▁지난해까지	-15388
▁달렸다	-15389
리던	-15390
▁나갔다	-15391
필요	-15392
▁제공을	-15393
명까지	-15394
케이블	-15395
▁보도를	-15396
▁수요에	-15397
버스터	-15398
▁몰렸다	-15399
▁대부분은	-15400
▁라운	-15401
▁검사는	-15402
..7	-15403
▁제임스	-15404
▁각국의	-15405
터카	-15406
▁실패한	-15407
▁방송에서는	-15408
▁9%	-15409
경제를	-15410
▁일일이	-15411
▁대선에서	-15412
▁총수	-15413
▁짓는	-15414
▁스타디움에서	-15415
▁누구도	-15416
▁마련하기	-15417
▁한꺼번에	-15418
아지	-15419
▁참여가	-15420
▁심플	-15421
도도	-15422
부서	-15423
▁최소한	-15424
▁pb	-15425
▁대다수	-15426
▁품질을	-15427
▁계신	-15428
▁느껴지는	-15429
기본소득	-15430
▁홈플러스	-15431
▁영화제	-15432
용지	-15433
▁하기도	-15434
▁주니어	-15435
▁고심	-15436
▁잇달아	-15437
▁또다른	-15438
▁불꽃	-15439
▁진술했다	-15440
▁장의	-15441
▁최상의	-15442
▁진압	-15443
▁놀라운	-15444
▁휩쓸	-15445
▁실린	-15446
▁실수요	-15447
▁라는	-15448
▁중부지방	-15449
▁의학	-15450
▁근로자의	-15451
제도가	-15452
▁대내외	-15453
▁간사인	-15454
▁공연은	-15455
▁진전	-15456
부문의	-15457
인수	-15458
▁쳤다	-15459
페어	-15460
▁맞이한	-15461
▁면담을	-15462
▁자사의	-15463
▁효과는	-15464
▁사업계획	-15465
▁것들이	-15466
▁노르	-15467
요일인	-15468
▁다우존스	-15469
▁오른다	-15470
▁정기적으로	-15471
▁블로	-15472
▁기조를	-15473
▁해를	-15474
▁완도	-15475
▁자산관리	-15476
량과	-15477
새로	-15478
▁중학생	-15479
▁평가해	-15480
솔린	-15481
▁거래됐다	-15482
▁사례도	-15483
▁누리꾼들은	-15484
▁열차	-15485
▁폭넓은	-15486
▁감소할	-15487
▁같은데	-15488
▁대결을	-15489
▁매거진	-15490
억원과	-15491
유엔	-15492
릉도	-15493
안녕	-15494
▁여자친	-15495
월초	-15496
번홀	-15497
북미	-15498
▁수단	-15499
▁관측된다	-15500
▁물건	-15501
▁업종이	-15502
▁하락을	-15503
▁입장문을	-15504
▁선보인다고	-15505
체와	-15506
▁유네스코	-15507
▁알고리즘	-15508
▁단계를	-15509
제안	-15510
▁무실점으로	-15511
▁0.6%	-15512
▁걸음	-15513
▁심각하게	-15514
▁워너	-15515
▁매각을	-15516
▁저출산	-15517
기만	-15518
▁단체는	-15519
▁의문을	-15520
▁앞으로의	-15521
▁대세	-15522
▁구축에	-15523
차이나	-15524
▁공시가	-15525
▁삼성의	-15526
▁교역	-15527
▁도매	-15528
▁압수수색을	-15529
속에	-15530
화물	-15531
▁달러의	-15532
▁급등했다	-15533
▁직원들은	-15534
공약	-15535
▁펀드는	-15536
▁악영	-15537
▁이노	-15538
▁데일리	-15539
스튜디오	-15540
수능	-15541
▁학과	-15542
▁자치구	-15543
만히	-15544
명인	-15545
▁양상	-15546
▁어플	-15547
▁정책은	-15548
지원금을	-15549
▁투런	-15550
▁통화를	-15551
..10	-15552
▁키우고	-15553
▁공무원연금	-15554
규정	-15555
▁장마	-15556
▁제출할	-15557
▁됐던	-15558
▁집안	-15559
▁교육청	-15560
▁미래의	-15561
▁1400	-15562
예선	-15563
▁수단으로	-15564
력도	-15565
▁내게	-15566
▁이내로	-15567
▁증가와	-15568
▁놀랐다	-15569
▁베이스	-15570
▁달라질	-15571
▁대두	-15572
▁맞물려	-15573
뮤지컬	-15574
▁감소로	-15575
▁베이비	-15576
▁더불어민주당이	-15577
▁지원금을	-15578
먹는	-15579
▁발목을	-15580
▁사장의	-15581
▁있겠지만	-15582
▁우선적으로	-15583
공사에	-15584
방식을	-15585
▁장수	-15586
▁프로듀서	-15587
공항공	-15588
단체가	-15589
▁이듬해	-15590
▁자꾸	-15591
▁금전	-15592
방탄소년	-15593
▁잦은	-15594
연구소는	-15595
▁나이가	-15596
▁부러	-15597
▁전무는	-15598
카드로	-15599
▁도봉	-15600
▁당진	-15601
▁게스트로	-15602
▁우려된다	-15603
▁장례식	-15604
▁마이크로소프트	-15605
▁증가를	-15606
▁통합을	-15607
▁추천한다	-15608
▁주관으로	-15609
▁윌리엄	-15610
▁지원하겠다	-15611
▁컨디션	-15612
▁몬스터	-15613
일지	-15614
▁소득이	-15615
▁유선	-15616
▁75%	-15617
▁맞이해	-15618
피부	-15619
▁적용을	-15620
▁증가하면서	-15621
▁한복	-15622
민을	-15623
▁진행을	-15624
시간의	-15625
▁재도	-15626
▁주전	-15627
▁소각	-15628
▁그것이	-15629
▁여배우	-15630
▁챙겼다	-15631
▁시청률을	-15632
▁커뮤니케이션	-15633
리조트	-15634
▁각별한	-15635
▁공개될	-15636
▁끝나면	-15637
▁중앙방역대책본부	-15638
▁검증을	-15639
cg	-15640
행한	-15641
▁석방	-15642
▁있음에도	-15643
▁판단된다	-15644
▁적용됐다	-15645
외부	-15646
박이	-15647
데뷔	-15648
▁인식하고	-15649
우로	-15650
▁투자유치	-15651
▁다뤄	-15652
창고	-15653
마음	-15654
▁쿠폰을	-15655
어드	-15656
▁문턱	-15657
▁발표가	-15658
▁요건	-15659
▁인수한	-15660
▁기다리는	-15661
▁해피	-15662
▁미지수	-15663
수산물	-15664
오면서	-15665
▁이루고	-15666
▁파악해	-15667
▁행복을	-15668
▁내장	-15669
▁정황이	-15670
량에	-15671
▁화면을	-15672
▁변수가	-15673
▁평가는	-15674
▁안팎의	-15675
▁영화가	-15676
▁않겠다고	-15677
▁약한	-15678
▁천재	-15679
▁압력을	-15680
▁제한을	-15681
▁다이아몬	-15682
▁등급을	-15683
▁무대로	-15684
▁소명	-15685
▁운영하며	-15686
▁bbc	-15687
▁선사할	-15688
▁총파	-15689
▁키우	-15690
▁직속	-15691
▁다루는	-15692
월로	-15693
▁전복	-15694
▁미네	-15695
▁알릴	-15696
▁줄기	-15697
▁금융권	-15698
▁주민들은	-15699
만배럴	-15700
▁리듬	-15701
▁사은	-15702
▁비영리	-15703
▁조성에	-15704
교를	-15705
▁날카	-15706
▁발동	-15707
▁켈	-15708
기업들이	-15709
ch	-15710
▁아무도	-15711
▁계파	-15712
▁외야	-15713
▁아픔을	-15714
▁이집	-15715
▁요구할	-15716
▁원내수석부	-15717
▁동점	-15718
전에는	-15719
해야한다	-15720
▁보장하는	-15721
▁생각하면	-15722
님께	-15723
▁자구	-15724
▁멈춰	-15725
▁무난	-15726
▁몇몇	-15727
▁유권자	-15728
▁한국형	-15729
▁누구보다	-15730
비치	-15731
▁만찬	-15732
▁없었고	-15733
구체적인	-15734
▁바뀌었다	-15735
▁정책으로	-15736
테르	-15737
▁못했지만	-15738
내에	-15739
상인	-15740
▁답한	-15741
증과	-15742
국민은행	-15743
원으로부터	-15744
rs	-15745
화학은	-15746
▁명예를	-15747
▁태어나	-15748
▁재판이	-15749
▁인상에	-15750
▁알린	-15751
▁통과했다	-15752
과연	-15753
▁선대	-15754
▁쟁점	-15755
▁단식	-15756
▁리드	-15757
시간으로	-15758
▁들어왔다	-15759
▁손가락	-15760
▁학교에서	-15761
▁직격	-15762
▁모습도	-15763
▁지자체가	-15764
스도	-15765
가능한	-15766
조원으로	-15767
▁가계대출	-15768
문화재단	-15769
▁헤지	-15770
▁의석	-15771
일본의	-15772
▁450	-15773
▁과징금	-15774
▁대하여	-15775
▁법원행정	-15776
▁업무보고	-15777
▁새마을	-15778
▁않으며	-15779
▁가방	-15780
▁날씨가	-15781
▁펼치며	-15782
▁반발하고	-15783
▁쪼	-15784
..8	-15785
▁동서	-15786
락이	-15787
트레이	-15788
▁해운대	-15789
▁관계자에	-15790
▁키움증권	-15791
▁파산	-15792
▁드라마다	-15793
▁표정으로	-15794
▁싹	-15795
▁안건	-15796
구체적으로	-15797
▁목에	-15798
벌이	-15799
▁찾는다	-15800
▁전망치를	-15801
▁김정	-15802
▁내로	-15803
베이스	-15804
▁이것이	-15805
▁조정했다	-15806
▁개회	-15807
▁남북정상회담	-15808
▁거야	-15809
▁가속화	-15810
▁이뤄져	-15811
메드	-15812
▁보훈	-15813
▁불발	-15814
▁시행하는	-15815
카운트	-15816
....	-15817
유공자	-15818
▁여러분의	-15819
▁유전	-15820
다행히	-15821
▁해양수산부	-15822
▁상황이었다	-15823
▁판타지	-15824
▁현실적으로	-15825
나요	-15826
▁기울여	-15827
월말까지	-15828
▁돌아갔다	-15829
위치	-15830
▁맑은	-15831
이나마	-15832
▁사회가	-15833
▁샐	-15834
▁충실히	-15835
차기	-15836
▁구속영장	-15837
억달러로	-15838
▁스릴	-15839
▁국가에	-15840
▁형이	-15841
▁상승으로	-15842
▁전달하고	-15843
▁연다고	-15844
▁사업도	-15845
▁인정하는	-15846
▁국내총생산	-15847
▁조화	-15848
▁요청할	-15849
▁올라왔다	-15850
▁이다	-15851
스타인	-15852
▁부검	-15853
▁직결	-15854
▁불가피한	-15855
통이	-15856
▁알리기	-15857
▁관리하고	-15858
강수	-15859
▁서비스업	-15860
박람	-15861
▁레저	-15862
▁단속을	-15863
▁구성한	-15864
▁오렌지	-15865
▁240	-15866
장으로서	-15867
▁입증했다	-15868
▁순이다	-15869
▁장기적으로	-15870
▁요리를	-15871
▁지도부가	-15872
▁웃도는	-15873
▁오가는	-15874
▁기업이다	-15875
▁관계자들은	-15876
▁kdb	-15877
▁살리기	-15878
▁시행한다	-15879
▁후퇴	-15880
왔지만	-15881
▁일정은	-15882
▁드라이브	-15883
▁아일랜드	-15884
▁분해	-15885
▁공유할	-15886
오가	-15887
▁강조하는	-15888
▁결정적인	-15889
여대	-15890
▁거제	-15891
▁통영	-15892
▁넣었다	-15893
▁사실에	-15894
▁달성을	-15895
독한	-15896
외환	-15897
▁빌보드	-15898
▁세션	-15899
▁줄고	-15900
하시는	-15901
개는	-15902
▁좌석	-15903
▁행사다	-15904
리라	-15905
▁일본과	-15906
▁낡	-15907
▁두는	-15908
▁스타일의	-15909
▁국무부	-15910
▁판결했다	-15911
와도	-15912
▁잘못을	-15913
증진	-15914
▁확인하기	-15915
어링	-15916
채무	-15917
품으로	-15918
가에서	-15919
▁오버	-15920
▁수사의	-15921
사장	-15922
▁총기	-15923
▁배우는	-15924
용이	-15925
▁스트레스를	-15926
밀러	-15927
청탁	-15928
핵심	-15929
▁강화한	-15930
국회에서	-15931
▁준비할	-15932
▁지정해	-15933
함으로	-15934
정확	-15935
▁영업이익을	-15936
▁명동	-15937
▁딸이	-15938
극을	-15939
▁불안한	-15940
▁친화	-15941
스타트업	-15942
▁공헌	-15943
▁새누리당은	-15944
수상	-15945
경기가	-15946
태그	-15947
▁직원들에게	-15948
▁찔	-15949
▁부풀	-15950
▁유보	-15951
금감원은	-15952
에프	-15953
▁가치는	-15954
틱스	-15955
투자의견	-15956
열이	-15957
▁입문	-15958
개선을	-15959
교육의	-15960
농촌	-15961
▁싱크	-15962
▁전문가가	-15963
르드	-15964
무사	-15965
사이클	-15966
▁데님	-15967
▁연기로	-15968
▁부분이다	-15969
해볼	-15970
개혁을	-15971
▁작곡가	-15972
▁평가하고	-15973
▁발맞	-15974
▁하원	-15975
▁선택하는	-15976
▁무렵	-15977
▁건전한	-15978
곳이다	-15979
처장	-15980
▁군인	-15981
▁공문을	-15982
▁기억을	-15983
▁uhd	-15984
▁몰라	-15985
▁방역을	-15986
▁서식	-15987
▁장거리	-15988
▁목소리로	-15989
카르타	-15990
민과	-15991
▁안전성을	-15992
▁볼륨	-15993
게더	-15994
에르	-15995
▁다중이용	-15996
▁부른	-15997
도쿄	-15998
기생충	-15999
▁불평등	-16000
▁무역분쟁	-16001
▁국가주	-16002
▁리조트	-16003
▁생리	-16004
▁거리에	-16005
▁선제적	-16006
▁핑	-16007
▁주얼	-16008
여기	-16009
▁엄중한	-16010
▁공세를	-16011
▁시에는	-16012
▁마산	-16013
▁승용	-16014
▁사업부	-16015
▁확인을	-16016
단일	-16017
터의	-16018
분기부터	-16019
▁중앙은행	-16020
▁각계	-16021
▁씨와	-16022
▁간절	-16023
▁성숙	-16024
omc	-16025
▁유럽의	-16026
▁농축	-16027
se	-16028
▁곱	-16029
테마	-16030
▁장치	-16031
▁논의한다	-16032
▁결정될	-16033
아들	-16034
프로그램을	-16035
▁봉사활동	-16036
▁규정이	-16037
▁요양병원	-16038
보호법	-16039
▁전략이	-16040
▁vip	-16041
▁두려워	-16042
▁1995	-16043
▁퀴즈	-16044
▁무리한	-16045
▁전문의	-16046
▁차이로	-16047
▁보령	-16048
▁독도	-16049
▁금지하는	-16050
▁떠오른	-16051
빌라	-16052
▁개선된	-16053
▁자영업자	-16054
억엔	-16055
아가는	-16056
선진	-16057
▁서울대학교	-16058
골로	-16059
▁만나게	-16060
암동	-16061
▁패밀리	-16062
▁공개하지	-16063
▁하나하나	-16064
▁지급을	-16065
▁띠	-16066
▁베네수엘	-16067
▁타당성	-16068
▁선원	-16069
단계를	-16070
▁조기상환	-16071
권리	-16072
."	-16073
▁시스템은	-16074
▁좌절	-16075
▁차례에	-16076
세스	-16077
▁맡았던	-16078
처의	-16079
▁때문이라고	-16080
선두	-16081
▁개발된	-16082
▁감각적인	-16083
▁선정했다고	-16084
▁독거	-16085
아산	-16086
세데스	-16087
▁북한과	-16088
▁물가상승	-16089
▁운영되고	-16090
▁정권이	-16091
본부에	-16092
관절	-16093
▁각각의	-16094
모씨가	-16095
평가는	-16096
갔고	-16097
▁뒤진	-16098
▁떨어지고	-16099
▁성명에서	-16100
▁환수	-16101
▁기사는	-16102
▁붙어	-16103
▁제품인	-16104
▁출동한	-16105
▁패션을	-16106
▁고급스러운	-16107
▁후회	-16108
▁시행된	-16109
▁iptv	-16110
▁증정하는	-16111
크루	-16112
▁판매할	-16113
▁활약했다	-16114
▁분식	-16115
▁때에는	-16116
자신	-16117
▁금토	-16118
▁쓰이는	-16119
net	-16120
▁산은	-16121
▁중앙재난안전	-16122
▁행정부가	-16123
▁명문	-16124
불이	-16125
▁컨설팅을	-16126
▁수용할	-16127
▁레인	-16128
▁혐오	-16129
▁집중되고	-16130
▁단독으로	-16131
▁주먹	-16132
▁특허를	-16133
즈베키스탄	-16134
각종	-16135
▁해남	-16136
처분을	-16137
▁못하도록	-16138
▁스코	-16139
▁인정할	-16140
▁세우	-16141
▁늘었고	-16142
대학생	-16143
토크	-16144
▁뭔가	-16145
비율이	-16146
▁비난을	-16147
▁고위공직자	-16148
▁모습이었다	-16149
▁mmorpg	-16150
▁장외	-16151
▁페널티	-16152
▁뜨거	-16153
▁거예요	-16154
▁됐으면	-16155
▁대응하고	-16156
가계	-16157
▁조업	-16158
▁싼	-16159
▁위대한	-16160
▁법안은	-16161
▁눈치	-16162
▁짙은	-16163
▁게스트	-16164
▁앞섰다	-16165
국무	-16166
▁미주	-16167
▁대전시	-16168
▁스타벅스	-16169
청장	-16170
▁약화	-16171
협상을	-16172
▁친구가	-16173
▁모집에	-16174
▁고소한	-16175
▁종류의	-16176
▁표명했다	-16177
국세	-16178
엔자	-16179
▁연임	-16180
▁북미정상회담	-16181
연말	-16182
▁전념	-16183
▁종목에	-16184
▁퇴직연금	-16185
▁선거법	-16186
사채	-16187
터로	-16188
▁월평균	-16189
▁마블	-16190
▁1988	-16191
루에	-16192
▁검정	-16193
문체	-16194
▁연결해	-16195
리나	-16196
▁로그	-16197
▁터져	-16198
▁같아서	-16199
▁인사들이	-16200
새누리당은	-16201
타당	-16202
▁목적을	-16203
▁개표	-16204
대회에	-16205
▁키워드	-16206
▁참고인	-16207
유한	-16208
▁용기	-16209
▁착한	-16210
▁넘는다	-16211
▁교정	-16212
▁교차	-16213
ist	-16214
민원	-16215
▁0.7%	-16216
▁대정부	-16217
▁시행한다고	-16218
푸어스	-16219
▁열정을	-16220
▁위원장과	-16221
▁탄력을	-16222
ci	-16223
수단	-16224
▁라면	-16225
▁한데	-16226
▁살아남	-16227
▁휴양	-16228
▁턴	-16229
▁오찬	-16230
▁국가와	-16231
▁치러진	-16232
.2020	-16233
연속	-16234
▁맞대결	-16235
▁정면	-16236
▁오직	-16237
▁도전한다	-16238
▁전술	-16239
▁기본계획	-16240
▁주인공이	-16241
시설로	-16242
▁단원	-16243
▁국어	-16244
거래가	-16245
▁공주	-16246
▁위험에	-16247
▁준결승	-16248
hp	-16249
▁새누리당이	-16250
중부	-16251
▁산유	-16252
기억	-16253
▁담장을	-16254
색의	-16255
▁인쇄	-16256
▁전문가를	-16257
▁따돌	-16258
호로	-16259
있었다	-16260
▁빼고	-16261
▁아닌지	-16262
일부터는	-16263
▁0.8%	-16264
르노	-16265
옵션	-16266
▁만인	-16267
▁참가하는	-16268
▁노란	-16269
▁삼척	-16270
▁파고	-16271
▁이겼다	-16272
▁반입	-16273
▁이길	-16274
▁형식	-16275
▁현안을	-16276
▁패배를	-16277
마에	-16278
▁빚을	-16279
▁지급된다	-16280
▁닐	-16281
▁멍	-16282
▁유가증권	-16283
▁때와	-16284
▁미르	-16285
▁기준은	-16286
▁개원	-16287
슬림	-16288
▁서서히	-16289
▁싣	-16290
▁정황을	-16291
▁드레스	-16292
▁이견이	-16293
▁연방준비제도	-16294
▁푸른	-16295
으로의	-16296
판에서	-16297
▁늘어난다	-16298
용을	-16299
추어	-16300
▁다르지	-16301
▁신화	-16302
▁성장률을	-16303
▁줄을	-16304
▁최강	-16305
▁중국어	-16306
▁국회는	-16307
▁누리과정	-16308
▁귀농	-16309
도시로	-16310
▁과기정통	-16311
▁기술적	-16312
▁뜻하는	-16313
컨대	-16314
▁고립	-16315
.2010	-16316
▁2.5%	-16317
▁고객들을	-16318
루가	-16319
▁휘말	-16320
조명	-16321
cnn	-16322
▁노리는	-16323
▁일어나는	-16324
▁찾아온	-16325
▁추세를	-16326
▁돌아갈	-16327
입법	-16328
▁합계	-16329
▁나눌	-16330
체육회	-16331
▁전제	-16332
▁존재한다	-16333
레븐	-16334
교도	-16335
▁인사청문회	-16336
▁않느냐	-16337
▁국책	-16338
식약	-16339
모닝	-16340
좋음	-16341
직무	-16342
▁설치할	-16343
▁최종적으로	-16344
▁졸업한	-16345
지부	-16346
▁th	-16347
소형	-16348
▁글로	-16349
▁위협을	-16350
▁불가피하다	-16351
▁공무원이	-16352
▁거둘	-16353
▁행안	-16354
▁건강과	-16355
여론조사	-16356
▁85%	-16357
▁주장도	-16358
▁커지는	-16359
▁연기에	-16360
▁우연히	-16361
▁선순환	-16362
▁1800	-16363
▁상황으로	-16364
모의	-16365
▁비닐	-16366
▁학사	-16367
▁동점을	-16368
▁나뉜다	-16369
▁국방부는	-16370
▁못했다는	-16371
▁계단	-16372
▁터널	-16373
▁산학협력	-16374
문제가	-16375
▁설치한	-16376
▁저렴하게	-16377
구정	-16378
▁경기침	-16379
욕장	-16380
▁표기	-16381
▁높아지는	-16382
롬비아	-16383
▁타협	-16384
한화는	-16385
▁채용을	-16386
▁인원을	-16387
▁유쾌한	-16388
▁예쁜	-16389
▁입금	-16390
▁시청자들에게	-16391
창원	-16392
매가	-16393
쓰레	-16394
박을	-16395
▁반가	-16396
기상청	-16397
▁싶다고	-16398
▁달라는	-16399
▁신고한	-16400
▁판단이다	-16401
▁압축	-16402
▁사업화	-16403
▁가기	-16404
▁코드	-16405
▁계란	-16406
▁통보했다	-16407
▁보냈	-16408
국제영화제	-16409
대만	-16410
▁11%	-16411
교육은	-16412
▁뛰어넘는	-16413
▁선두타자	-16414
쇼핑몰	-16415
▁컬러를	-16416
▁패했다	-16417
▁샌프란시스코	-16418
▁일하고	-16419
▁성공할	-16420
▁돌아와	-16421
민생	-16422
▁대응하는	-16423
▁소통하는	-16424
권역	-16425
▁5~6	-16426
▁아쉽게	-16427
▁교과서	-16428
▁나쁘지	-16429
▁농구	-16430
아와	-16431
일로부터	-16432
▁영농	-16433
▁오지	-16434
▁넘기는	-16435
재와	-16436
▁효과도	-16437
▁포함되지	-16438
▁전년도	-16439
▁있으므로	-16440
▁독립운동	-16441
개월여	-16442
▁임기를	-16443
▁들어올	-16444
▁부분에서	-16445
발행	-16446
▁석사	-16447
카오는	-16448
▁경위를	-16449
▁낮았다	-16450
▁구두	-16451
▁우리를	-16452
▁보이스피	-16453
▁셋째	-16454
▁해온	-16455
▁코스피는	-16456
워킹	-16457
▁확인이	-16458
▁국제적	-16459
소상공인	-16460
총장	-16461
▁정권교	-16462
▁정책위의장은	-16463
▁매트	-16464
▁아우디	-16465
▁크리에이터	-16466
▁정권을	-16467
▁보이스피싱	-16468
▁접어들	-16469
▁연기했다	-16470
▁산업에	-16471
▁업황	-16472
이탈리아	-16473
산과	-16474
▁즉석	-16475
▁간주	-16476
▁하반기에	-16477
▁첫번째	-16478
▁곰	-16479
소개	-16480
▁능동	-16481
▁인정하지	-16482
치즈	-16483
▁모를	-16484
▁미래에	-16485
▁교류를	-16486
완전	-16487
신임	-16488
티콘	-16489
호주	-16490
▁계정을	-16491
▁대조	-16492
▁경기장	-16493
▁입술	-16494
▁문체부	-16495
▁시도를	-16496
▁신청은	-16497
▁접촉을	-16498
소위	-16499
만큼은	-16500
▁승계	-16501
▁물품을	-16502
▁한식	-16503
▁모습과	-16504
▁태스크	-16505
모금	-16506
▁주어진	-16507
▁자원을	-16508
잡이	-16509
▁바꾸고	-16510
▁어떨까	-16511
동시에	-16512
회장의	-16513
▁불만이	-16514
▁구축하는	-16515
▁톡톡히	-16516
▁아닐까	-16517
▁안전에	-16518
▁자유무역	-16519
▁고발했다	-16520
▁없이도	-16521
▁학생의	-16522
▁상승하고	-16523
들까지	-16524
▁폰	-16525
▁길게	-16526
▁사격	-16527
▁유류	-16528
▁예산결산	-16529
▁대타	-16530
보험료	-16531
▁고객과	-16532
▁신제품을	-16533
▁김종	-16534
▁아무것도	-16535
▁양측	-16536
▁연루된	-16537
▁대부분을	-16538
고발	-16539
일본은	-16540
▁정시	-16541
▁끌어올렸다	-16542
▁놓여	-16543
▁방문할	-16544
▁결혼식을	-16545
박사	-16546
▁인상이	-16547
▁월스트리트저널	-16548
▁코트	-16549
▁성분을	-16550
▁콜센터	-16551
주군	-16552
▁한국토지주택	-16553
sds	-16554
관람	-16555
▁실수	-16556
▁생일	-16557
▁아스	-16558
▁우체	-16559
▁안타까운	-16560
▁뇌물을	-16561
▁원내대표의	-16562
▁재해석	-16563
▁제시할	-16564
루의	-16565
▁고흥	-16566
▁총액	-16567
▁개인과	-16568
광장에서	-16569
~18	-16570
▁활용하고	-16571
월이	-16572
▁ds	-16573
까지의	-16574
셨으면	-16575
▁이해가	-16576
sbs	-16577
▁유감을	-16578
▁3500	-16579
▁운영이	-16580
▁생각이다	-16581
쪽에서	-16582
도르	-16583
리랑	-16584
▁학생을	-16585
골든	-16586
▁부터	-16587
▁재확산	-16588
▁금융시장	-16589
아메	-16590
▁리스	-16591
▁230	-16592
▁줄어드는	-16593
▁변론	-16594
▁피해는	-16595
▁머무	-16596
▁시총	-16597
▁걷어	-16598
▁파트너십을	-16599
미사	-16600
오를	-16601
편성	-16602
▁경제지표	-16603
▁선물세트	-16604
검사는	-16605
▁낮게	-16606
▁강북	-16607
▁and	-16608
▁125	-16609
지방법원	-16610
▁설명회	-16611
▁규모에	-16612
모는	-16613
노동자	-16614
▁중심이	-16615
▁국제사회의	-16616
개소를	-16617
전투	-16618
오던	-16619
▁대강	-16620
▁했습니다	-16621
일만에	-16622
▁지지율은	-16623
▁어디서나	-16624
▁안겨	-16625
▁세인트	-16626
1'	-16627
▁잃었다	-16628
고등	-16629
천안	-16630
호와	-16631
▁108	-16632
▁배우자	-16633
▁소지가	-16634
▁전월보다	-16635
▁청와대의	-16636
소득세	-16637
▁항공사	-16638
.'-	-16639
회째를	-16640
▁맥락	-16641
▁주중	-16642
▁반문했다	-16643
가구를	-16644
▁하시	-16645
▁만족도를	-16646
▁가이드라인	-16647
▁'8	-16648
▁그날	-16649
▁소아	-16650
▁헌혈	-16651
▁대표에	-16652
▁덴마크	-16653
신뢰	-16654
▁폴란드	-16655
▁인수합병	-16656
테이션	-16657
▁증거인멸	-16658
▁검찰총장	-16659
플레이는	-16660
▁토너	-16661
▁시신을	-16662
▁플래그십	-16663
▁대통령도	-16664
ak	-16665
▁바람에	-16666
▁해결해야	-16667
재단이	-16668
▁여당의	-16669
▁받았으며	-16670
▁청담	-16671
▁연구위원은	-16672
▁교황	-16673
▁양평	-16674
피해자	-16675
▁커넥	-16676
▁서울을	-16677
벨트	-16678
▁분노를	-16679
▁사람들과	-16680
▁타석에	-16681
▁핵심은	-16682
▁지검	-16683
▁법정에서	-16684
톨릭	-16685
▁다목적	-16686
▁투구	-16687
▁자랑했다	-16688
▁바로잡	-16689
구축	-16690
▁탕	-16691
▁cf	-16692
▁아레나	-16693
▁방북	-16694
▁엔씨소프트	-16695
▁발목	-16696
▁합동으로	-16697
kbo	-16698
교환	-16699
▁부진을	-16700
당원	-16701
실무	-16702
▁공개하는	-16703
들만	-16704
▁거쳐야	-16705
▁밝히는	-16706
국토부는	-16707
▁군에	-16708
▁중전	-16709
제출	-16710
▁부족해	-16711
추석	-16712
제조업	-16713
쿠폰	-16714
▁폐업	-16715
현안	-16716
▁결렬	-16717
▁민간인	-16718
주말	-16719
▁내구	-16720
▁회사로	-16721
▁러닝	-16722
▁컨센서	-16723
차도	-16724
▁도래	-16725
▁트로트	-16726
▁펼쳐졌다	-16727
준의	-16728
상생	-16729
▁cu	-16730
▁경기도의	-16731
금전	-16732
분리	-16733
의학	-16734
▁맨체스터	-16735
경제의	-16736
▁넷플릭스	-16737
▁것이라며	-16738
결의	-16739
▁사인	-16740
▁박물관	-16741
▁궁극	-16742
▁한방	-16743
▁과거의	-16744
bb	-16745
▁여건이	-16746
열에	-16747
피는	-16748
▁탐지	-16749
▁자사주	-16750
▁반부패	-16751
▁부를	-16752
▁데이비드	-16753
▁보인다고	-16754
▁차지하며	-16755
▁요소가	-16756
▁기쁨을	-16757
▁전경련	-16758
▁통지	-16759
▁해요	-16760
슨이	-16761
▁그들이	-16762
공원에서	-16763
▁생긴다	-16764
▁유명하다	-16765
▁개발할	-16766
▁보건의료	-16767
▁도쿄올림픽	-16768
▁아이템으로	-16769
▁되돌아	-16770
항상	-16771
▁증가가	-16772
컴퓨터	-16773
▁한국영화	-16774
▁계류	-16775
국민의당	-16776
기다	-16777
▁김씨	-16778
▁생각도	-16779
▁지능형	-16780
되길	-16781
반의	-16782
▁하수	-16783
▁편안하게	-16784
▁등산	-16785
▁받기도	-16786
▁하나도	-16787
▁줄줄이	-16788
▁악영향을	-16789
잘못	-16790
명이었다	-16791
▁월급	-16792
묘한	-16793
▁당연한	-16794
▁운세	-16795
협의체	-16796
더를	-16797
분별	-16798
▁시카고	-16799
▁응답자의	-16800
하진	-16801
검찰에	-16802
▁기반한	-16803
▁사용하면	-16804
▁아르바이트	-16805
▁유닛	-16806
▁촬영에	-16807
▁강호	-16808
▁선거가	-16809
▁게임은	-16810
▁배우들이	-16811
▁커지면서	-16812
▁물결은	-16813
▁설명회를	-16814
▁추궁	-16815
▁업계는	-16816
용은	-16817
희가	-16818
▁되자	-16819
보도에	-16820
▁바닷	-16821
음성	-16822
▁영토	-16823
▁헌재	-16824
니스트	-16825
▁해달라	-16826
▁몰린	-16827
▁행정부의	-16828
정책의	-16829
▁부합하는	-16830
인력을	-16831
▁고집	-16832
▁구형했다	-16833
▁아쉽다	-16834
▁fr	-16835
▁기념식	-16836
▁나빠	-16837
▁하루에	-16838
▁입대	-16839
그룹과	-16840
물품	-16841
▁왕복	-16842
▁혜택도	-16843
▁해시	-16844
환경이	-16845
▁의식을	-16846
▁아들의	-16847
니커	-16848
차원	-16849
▁동북아	-16850
▁기구	-16851
▁국제유	-16852
▁‘2019	-16853
▁존재하는	-16854
2015	-16855
아무리	-16856
▁로버트	-16857
▁다가온	-16858
▁써야	-16859
공수처	-16860
본부를	-16861
▁배울	-16862
▁장기화로	-16863
▁백지	-16864
▁지역에서는	-16865
▁접수를	-16866
▁대림	-16867
생활건강	-16868
끄러운	-16869
▁초반부터	-16870
살아	-16871
▁고도화	-16872
▁토론토	-16873
트롯	-16874
노선	-16875
키즈	-16876
▁자릿수	-16877
▁충남도	-16878
▁특징을	-16879
바른미래	-16880
▁첩	-16881
▁빅뱅	-16882
▁일조	-16883
▁권력을	-16884
▁아버지가	-16885
장벽	-16886
▁화장실	-16887
개사가	-16888
▁강서구	-16889
▁임무	-16890
▁게임에	-16891
▁접종이	-16892
▁몰고	-16893
▁전체에	-16894
▁동반성장	-16895
▁보충	-16896
▁점과	-16897
▁시민들은	-16898
▁약정	-16899
▁조지	-16900
▁의미하는	-16901
산업진흥	-16902
▁사회관계	-16903
▁모티브	-16904
▁고려해야	-16905
▁세계랭킹	-16906
▁기한	-16907
▁주민이	-16908
시스템에	-16909
포항	-16910
▁인물이	-16911
▁취업자	-16912
걸이	-16913
울렛	-16914
▁시뮬	-16915
▁책임감을	-16916
▁강진	-16917
지진	-16918
▁미소	-16919
▁동성	-16920
업체는	-16921
▁관측도	-16922
▁장기적인	-16923
▁컴퓨	-16924
일간의	-16925
▁참배	-16926
중단	-16927
▁후반기	-16928
▁트럼프의	-16929
택배	-16930
프랜차이즈	-16931
▁전례	-16932
▁테마로	-16933
▁빈번	-16934
▁적용하고	-16935
▁졸업하고	-16936
▁경기도는	-16937
▁토종	-16938
벨벳	-16939
▁질타	-16940
▁투자와	-16941
▁고객에게는	-16942
▁한옥	-16943
▁적격	-16944
▁백신의	-16945
▁오후에	-16946
▁채팅	-16947
라디오스타	-16948
▁유튜버	-16949
▁태도	-16950
하를	-16951
▁향상에	-16952
위원으로	-16953
▁제네시스	-16954
▁신념	-16955
아름	-16956
ad	-16957
▁혐의다	-16958
피의	-16959
▁킨	-16960
메가	-16961
▁확보가	-16962
구장	-16963
▁박람	-16964
▁김씨가	-16965
▁펼쳐진	-16966
바다의	-16967
▁감탄	-16968
▁내면	-16969
▁헨	-16970
▁더이상	-16971
▁매니지	-16972
▁지수를	-16973
빅데이터	-16974
▁개성공단	-16975
▁알리바바	-16976
▁표를	-16977
동생	-16978
▁보고서에	-16979
▁심지어	-16980
▁지도부는	-16981
▁예방하기	-16982
가던	-16983
포지엄	-16984
▁자금조달	-16985
▁말했고	-16986
▁창단	-16987
▁평년보다	-16988
사퇴	-16989
령이	-16990
▁전한	-16991
미팅	-16992
▁섹시	-16993
▁서둘러	-16994
▁가사	-16995
▁역사의	-16996
균관	-16997
▁imf	-16998
▁가족들이	-16999
▁백신이	-17000
▁한눈에	-17001
▁산지	-17002
라이크	-17003
방한	-17004
장년	-17005
▁돌연	-17006
▁발판을	-17007
▁선두를	-17008
임상	-17009
▁맛있는	-17010
어벤져스	-17011
▁인가	-17012
▁찍고	-17013
▁닥	-17014
▁모드	-17015
▁원스톱	-17016
▁트랜	-17017
▁공관	-17018
규모가	-17019
일레븐	-17020
감의	-17021
스윙	-17022
▁선택의	-17023
다음달	-17024
▁펀드를	-17025
▁전체적인	-17026
혁은	-17027
▁급변	-17028
▁2-1	-17029
▁조사해	-17030
분기에는	-17031
▁자택에서	-17032
판으로	-17033
▁커다란	-17034
월은	-17035
▁삶에	-17036
▁조사했다	-17037
▁열흘	-17038
▁한화는	-17039
▁우선협상	-17040
▁역사와	-17041
▁것이기	-17042
▁국회의장	-17043
▁정보와	-17044
▁도시계획	-17045
▁오스트리아	-17046
▁언제든	-17047
▁소비가	-17048
▁킬	-17049
▁신개념	-17050
▁이보다	-17051
소리를	-17052
▁광주지역	-17053
▁신사업	-17054
▁애플의	-17055
소추	-17056
art	-17057
▁시신	-17058
▁없었다고	-17059
약한	-17060
파는	-17061
착한	-17062
..━	-17063
▁진상조사	-17064
▁조별리그	-17065
섬유	-17066
분위	-17067
▁사연을	-17068
▁캄보디아	-17069
▁나들이	-17070
▁성동	-17071
▁충주시	-17072
▁예정대로	-17073
▁전략으로	-17074
▁디즈니	-17075
▁상승할	-17076
▁개선됐다	-17077
▁인스타그램을	-17078
~50	-17079
▁2-0	-17080
▁자외선	-17081
▁샴	-17082
▁그저	-17083
▁변함	-17084
기능을	-17085
)'	-17086
▁스포티	-17087
▁구성되어	-17088
산단	-17089
들였다	-17090
▁이날까지	-17091
엘리	-17092
▁스티븐	-17093
▁스피드	-17094
▁지켜봐야	-17095
▁보조금을	-17096
청와대는	-17097
가인	-17098
▁공사가	-17099
▁밝히면서	-17100
▁오래된	-17101
▁바뀔	-17102
▁구축했다	-17103
저작권자	-17104
▁참가할	-17105
▁1994	-17106
▁화해	-17107
▁그치지	-17108
▁업체들의	-17109
▁챙기	-17110
▁다음으로	-17111
▁국내산	-17112
▁대단히	-17113
▁재가	-17114
지역별	-17115
▁달랐다	-17116
발적으로	-17117
▁━.	-17118
▁대본	-17119
말이	-17120
▁팝업	-17121
아버지	-17122
▁국장	-17123
▁롯데백화점	-17124
김치	-17125
▁공간에	-17126
▁건강기능식품	-17127
메틱	-17128
▁낮췄다	-17129
▁신한금융투자	-17130
미노	-17131
▁트리플	-17132
▁죄송하다	-17133
▁문자를	-17134
▁기름	-17135
▁배우고	-17136
▁부족으로	-17137
모델을	-17138
▁얼굴이	-17139
계절	-17140
코리아가	-17141
앤드	-17142
..9	-17143
▁동력	-17144
▁센서	-17145
▁심층	-17146
명이며	-17147
▁열리고	-17148
▁마련한다	-17149
저의	-17150
▁직원들을	-17151
가기	-17152
▁협업해	-17153
▁회상했다	-17154
▁관계자가	-17155
선생	-17156
▁버티	-17157
▁화제다	-17158
▁유학	-17159
▁부산에서	-17160
▁샀다	-17161
▁에르	-17162
▁각기	-17163
▁팬들은	-17164
업체들이	-17165
▁입는	-17166
▁정하는	-17167
▁진료를	-17168
-7	-17169
▁방과	-17170
▁디바이	-17171
▁남을	-17172
일수록	-17173
▁오후부터	-17174
격리	-17175
▁용납	-17176
▁기관에	-17177
▁듀얼	-17178
대다	-17179
년부터는	-17180
▁가리지	-17181
보의	-17182
▁내부에	-17183
▁탄생한	-17184
▁최씨	-17185
▁회고	-17186
▁적극적	-17187
날레	-17188
▁연이	-17189
반대로	-17190
▁돌파한	-17191
상권	-17192
장소	-17193
위크	-17194
60;	-17195
스코리아	-17196
의결	-17197
▁1996	-17198
▁자카르타	-17199
양호	-17200
▁유지해	-17201
보단	-17202
▁입장은	-17203
▁시행을	-17204
▁사례다	-17205
▁지방자치	-17206
척을	-17207
▁회의는	-17208
▁교육의	-17209
▁있는가	-17210
위성	-17211
리테	-17212
노사	-17213
치료를	-17214
▁판결에	-17215
▁좁혀	-17216
▁일원에서	-17217
▁김장	-17218
▁임산	-17219
▁45%	-17220
린은	-17221
업체와	-17222
가중처벌	-17223
▁매출의	-17224
▁시한	-17225
▁끓	-17226
bo	-17227
▁독일의	-17228
수요가	-17229
▁삼성이	-17230
▁위협하는	-17231
▁보였고	-17232
▁동아시아	-17233
법원에	-17234
▁재미있게	-17235
▁프로젝트는	-17236
플라이	-17237
▁내외로	-17238
▁기대되는	-17239
벤츠	-17240
▁반짝	-17241
▁수사권	-17242
투갈	-17243
▁방향에	-17244
▁야당은	-17245
▁백신은	-17246
▁기초자산으로	-17247
▁구원	-17248
▁제기돼	-17249
▁시리즈를	-17250
ht	-17251
▁13%	-17252
▁기피	-17253
▁초록	-17254
단지를	-17255
용인	-17256
▁발견한	-17257
▁부지를	-17258
▁작성해	-17259
▁지속할	-17260
▁획기적으로	-17261
데시	-17262
▁문의가	-17263
버터	-17264
장일	-17265
행사는	-17266
▁신라	-17267
▁해보	-17268
▁통보를	-17269
▁어색	-17270
▁않거나	-17271
구리	-17272
▁생각보다	-17273
▁우려에	-17274
무장	-17275
대학교는	-17276
▁개인적으로	-17277
▁2.4	-17278
▁종목을	-17279
▁추진하기로	-17280
▁이렇다	-17281
깊은	-17282
오늘은	-17283
pe	-17284
▁조류	-17285
▁개인적인	-17286
▁미팅	-17287
업종별로는	-17288
위원이	-17289
개국에서	-17290
▁불고	-17291
일자	-17292
ll	-17293
스페	-17294
▁성장세가	-17295
높은	-17296
메이트	-17297
iew	-17298
▁다녀온	-17299
▁103	-17300
체적	-17301
▁대표도	-17302
병원으로	-17303
비교	-17304
▁해줄	-17305
▁핏	-17306
▁계정	-17307
▁막내	-17308
▁걱정을	-17309
▁사장과	-17310
수다	-17311
▁트렌드에	-17312
자유한국당	-17313
su	-17314
▁교육은	-17315
▁꽉	-17316
▁개선할	-17317
편에	-17318
▁선발된	-17319
▁정책적	-17320
▁이력	-17321
▁적용될	-17322
.100	-17323
▁루이	-17324
▁연기가	-17325
▁주목하고	-17326
▁라이선	-17327
혼자	-17328
▁법이	-17329
▁우려로	-17330
▁있었을	-17331
▁정치자금	-17332
혈압	-17333
▁주최한	-17334
머지는	-17335
여만원을	-17336
시키지	-17337
▁가세	-17338
▁시계	-17339
▁엠넷	-17340
▁뒤에는	-17341
▁피고인	-17342
이른	-17343
▁속으로	-17344
▁동남아시아	-17345
▁건설을	-17346
▁볼넷으로	-17347
월부터는	-17348
▁꽂	-17349
▁퇴출	-17350
▁랠	-17351
▁낮추는	-17352
▁지정한	-17353
▁소셜네트워크	-17354
▁고액	-17355
▁활용될	-17356
▁흑자전환	-17357
▁모험	-17358
▁설치하는	-17359
▁사우스	-17360
▁솔직한	-17361
▁보이지만	-17362
▁전락	-17363
▁1-0	-17364
▁탑재한	-17365
·4	-17366
▁끄	-17367
▁덕에	-17368
만이다	-17369
활동이	-17370
▁불렀다	-17371
▁발생하면	-17372
▁이코노미스트	-17373
▁딴	-17374
▁에디	-17375
▁장이	-17376
▁올레드	-17377
로만	-17378
~200	-17379
▁독감	-17380
▁노력에	-17381
▁부친	-17382
▁장성	-17383
▁다큐멘	-17384
▁커피를	-17385
▁금융상품	-17386
▁전방	-17387
▁안되는	-17388
▁국무회의	-17389
▁지급하고	-17390
▁렉	-17391
▁제일모직	-17392
▁실시된다	-17393
증은	-17394
▁해외시장	-17395
실습	-17396
▁경우를	-17397
▁남자의	-17398
▁안방극	-17399
청소	-17400
▁단어	-17401
▁폭의	-17402
▁수치를	-17403
▁비자	-17404
▁국정조사	-17405
▁용기를	-17406
▁동기대비	-17407
▁이틀째	-17408
슬러	-17409
▁월세	-17410
▁돌렸다	-17411
장려	-17412
엣지	-17413
▁마음껏	-17414
▁상설	-17415
▁신탁	-17416
외식	-17417
시밀러	-17418
혜택을	-17419
가슴	-17420
▁드릴	-17421
▁금연	-17422
▁기해	-17423
▁물이	-17424
▁나가기로	-17425
▁디자인이	-17426
▁개선하는	-17427
에미	-17428
▁가솔린	-17429
▁수위를	-17430
▁차지한다	-17431
▁계기를	-17432
▁잃지	-17433
▁입단	-17434
키스	-17435
▁항소심에서	-17436
▁물었고	-17437
▁없지	-17438
▁제공되는	-17439
대회가	-17440
▁추천을	-17441
▁다가가	-17442
▁클래스	-17443
개월의	-17444
▁법조계에	-17445
▁이날도	-17446
준호	-17447
수사를	-17448
▁사용자의	-17449
▁공천을	-17450
▁블라디	-17451
▁여야는	-17452
하지도	-17453
▁키운	-17454
▁학계	-17455
▁자라	-17456
▁등기	-17457
▁7~8	-17458
출시	-17459
▁종목의	-17460
▁찾아볼	-17461
▁허락	-17462
▁경선을	-17463
▁기본소득	-17464
▁요구하며	-17465
▁104	-17466
수용	-17467
▁보여줬	-17468
▁1970	-17469
▁'9	-17470
위까지	-17471
▁확실하게	-17472
▁교육이	-17473
▁내준	-17474
▁간호사	-17475
▁공급하고	-17476
▁전통적인	-17477
▁승차	-17478
▁부적절	-17479
▁양양	-17480
요원	-17481
▁유혹	-17482
▁빈곤	-17483
▁활성화와	-17484
▁호전	-17485
▁싫어	-17486
▁서울에	-17487
▁다크	-17488
▁클로	-17489
▁술에	-17490
▁알림	-17491
▁터진	-17492
..11	-17493
▁표현하는	-17494
현장에	-17495
▁처리가	-17496
▁즐기고	-17497
뜻한	-17498
▁발현	-17499
▁했었다	-17500
▁법에	-17501
린다는	-17502
▁점검했다	-17503
방송을	-17504
▁체험을	-17505
▁공략에	-17506
▁모양의	-17507
▁무실점	-17508
무대	-17509
곡동	-17510
는데도	-17511
▁갈라	-17512
▁미세	-17513
▁재미있는	-17514
▁가량의	-17515
더리	-17516
▁영장을	-17517
▁14%	-17518
대원	-17519
명예	-17520
▁체질	-17521
들께서	-17522
페이지	-17523
아일랜드	-17524
▁도착했다	-17525
▁겨우	-17526
▁행보에	-17527
등에	-17528
수해	-17529
▁퍼포먼스를	-17530
▁지은	-17531
안에는	-17532
▁1.9	-17533
▁정무수석	-17534
▁민주평화당	-17535
세인	-17536
▁지속되는	-17537
좋아	-17538
타의	-17539
▁생명과	-17540
▁협력이	-17541
▁출마한	-17542
▁정서	-17543
냉장	-17544
▁참석하는	-17545
▁대화가	-17546
류에이션	-17547
▁고려하고	-17548
▁휘발유	-17549
▁흔히	-17550
▁보고서에서	-17551
▁시행에	-17552
▁배우들의	-17553
▁인제	-17554
경찰이	-17555
농식품	-17556
▁공론화	-17557
▁제도는	-17558
▁지나면	-17559
이었다고	-17560
▁알려지지	-17561
▁풍성	-17562
원유	-17563
▁맞선	-17564
가면서	-17565
▁불이익을	-17566
▁논평	-17567
▁판매에	-17568
행위가	-17569
▁부스	-17570
▁ir	-17571
▁임기가	-17572
▁없었	-17573
페이스북	-17574
▁속출	-17575
▁교육부가	-17576
▁하드웨어	-17577
ft	-17578
▁감자	-17579
▁세액	-17580
▁작사	-17581
컨벤션	-17582
어려운	-17583
▁레이스	-17584
폭탄	-17585
력발전	-17586
▁건수가	-17587
▁취임한	-17588
▁사외이	-17589
sw	-17590
▁이행을	-17591
▁감염증으로	-17592
종일	-17593
▁이게	-17594
▁배경에	-17595
▁의장의	-17596
겠느냐	-17597
▁전문가의	-17598
▁향하는	-17599
▁국무총리는	-17600
▁시기는	-17601
무용	-17602
준이	-17603
▁외환시장에서	-17604
▁경제는	-17605
ge	-17606
▁벗어난	-17607
약간	-17608
▁입양	-17609
루타	-17610
우나	-17611
휴게	-17612
안으로	-17613
▁이번에도	-17614
▁투자자들은	-17615
▁에버	-17616
급으로	-17617
▁지원은	-17618
▁내부에서	-17619
방역당국은	-17620
▁국민들은	-17621
놓을	-17622
경찰서에	-17623
▁영상으로	-17624
▁홈페이지와	-17625
한강	-17626
▁박수를	-17627
▁재난안전	-17628
너의	-17629
▁구조로	-17630
피크	-17631
▁납세	-17632
▁당직	-17633
▁알아야	-17634
▁여성들의	-17635
▁임금을	-17636
▁헬기	-17637
개발을	-17638
▁급락했다	-17639
▁것만	-17640
▁어두운	-17641
▁건강하게	-17642
개별	-17643
▁시점을	-17644
ice	-17645
▁이야기했다	-17646
▁내셔널	-17647
▁기재부	-17648
았습니다	-17649
▁인정받은	-17650
중국이	-17651
로와	-17652
리케	-17653
▁성장률이	-17654
▁타이밍	-17655
▁”	-17656
▁해보고	-17657
보험은	-17658
보고서는	-17659
▁육상	-17660
▁경로를	-17661
▁구입한	-17662
▁노벨	-17663
▁획득한	-17664
▁부위원장	-17665
대표팀	-17666
주들이	-17667
▁도입하는	-17668
▁피트	-17669
곳과	-17670
▁취득한	-17671
▁자아낸다	-17672
동반	-17673
▁115	-17674
▁적잖	-17675
이거나	-17676
▁처리하는	-17677
보복	-17678
▁성실히	-17679
▁악의	-17680
태를	-17681
테라	-17682
▁하라	-17683
▁케이크	-17684
▁트렌디한	-17685
시기	-17686
▁증시의	-17687
▁분위기는	-17688
▁예상되고	-17689
▁주의해야	-17690
▁사랑과	-17691
▁각별히	-17692
▁실시된	-17693
▁중단된	-17694
▁해소하고	-17695
부문은	-17696
전산	-17697
연대는	-17698
▁주요국	-17699
적이라는	-17700
율도	-17701
▁오송	-17702
▁부장판사	-17703
창을	-17704
▁최첨단	-17705
리니지	-17706
▁로켓	-17707
▁반영할	-17708
▁달에	-17709
▁마다	-17710
후배	-17711
▁경력을	-17712
▁섬세한	-17713
캐슬	-17714
감염병	-17715
▁배치해	-17716
▁좋음	-17717
▁감정이	-17718
몬스터	-17719
pi	-17720
▁낙폭을	-17721
마저도	-17722
▁구속된	-17723
기아차는	-17724
▁발언으로	-17725
곡이	-17726
▁영업손	-17727
▁받아왔다	-17728
▁평일	-17729
▁매출과	-17730
▁알뜰폰	-17731
▁수상했다고	-17732
▁확대가	-17733
▁내세웠다	-17734
▁희망한다	-17735
초반	-17736
▁데에	-17737
▁중점적으로	-17738
격은	-17739
▁만드	-17740
생명이	-17741
▁핵심인	-17742
▁대신증권	-17743
실현	-17744
▁페르	-17745
▁과도하게	-17746
워했다	-17747
-8	-17748
▁개편을	-17749
간편	-17750
▁보이콧	-17751
▁국회의원이	-17752
▁뜯	-17753
▁분과	-17754
국방부는	-17755
▁치안	-17756
▁변화는	-17757
비즈니스	-17758
▁알루미늄	-17759
분명	-17760
역시	-17761
▁©	-17762
분들이	-17763
▁죽음을	-17764
▁오케스트라	-17765
▁진행했다고	-17766
르면서	-17767
▁부여하는	-17768
▁의도가	-17769
건수는	-17770
휴양	-17771
설립	-17772
▁보였던	-17773
▁예정이었다	-17774
자들에	-17775
▁팁	-17776
▁필름	-17777
▁학교가	-17778
▁터트	-17779
▁2.3	-17780
▁현실적인	-17781
▁데리고	-17782
▁전장대비	-17783
▁지정을	-17784
▁원내대책	-17785
소스	-17786
하러	-17787
▁질의에	-17788
등은	-17789
▁되풀이	-17790
▁128	-17791
▁년간	-17792
▁수납	-17793
▁베르	-17794
공장을	-17795
▁2024	-17796
▁'2021	-17797
서울대	-17798
▁사유가	-17799
▁사단	-17800
▁숨어	-17801
▁총력	-17802
▁270	-17803
회장이	-17804
▁영화는	-17805
▁하우스	-17806
▁식재	-17807
▁오면	-17808
▁특별수사	-17809
롯데는	-17810
▁테슬라	-17811
▁음란	-17812
▁숨지게	-17813
▁확률이	-17814
▁우려되는	-17815
하셨	-17816
장관과	-17817
▁버디를	-17818
받기	-17819
.”.	-17820
▁경험한	-17821
블릭	-17822
▁퓨처	-17823
▁국가적	-17824
▁허용하는	-17825
▁양국의	-17826
▁여론을	-17827
▁퀄리티	-17828
·3	-17829
란스	-17830
▁달러화	-17831
▁ebs	-17832
▁단계로	-17833
▁경희	-17834
▁돌입한다	-17835
▁매번	-17836
▁미만으로	-17837
운은	-17838
..12	-17839
강제	-17840
▁승리에	-17841
▁프로그램도	-17842
▁맞을	-17843
▁급증한	-17844
▁참가했다	-17845
▁보석	-17846
▁앤드	-17847
범죄가중처벌	-17848
맞춤형	-17849
▁담당하고	-17850
▁시민과	-17851
▁응용	-17852
▁보통주	-17853
펀드를	-17854
▁신입생	-17855
했거나	-17856
▁치는	-17857
▁사용된	-17858
▁김씨의	-17859
당했다	-17860
산업에	-17861
▁경영을	-17862
▁당신의	-17863
형제	-17864
올해의	-17865
▁경진	-17866
도날	-17867
▁시장으로	-17868
▁친구들과	-17869
▁쌓은	-17870
수업을	-17871
▁예고한	-17872
워서	-17873
▁혼조	-17874
▁유죄로	-17875
관제	-17876
선전	-17877
▁똑같이	-17878
문일	-17879
기존의	-17880
▁앞당겨	-17881
장으로부터	-17882
aa	-17883
▁ott	-17884
▁수행하고	-17885
lh	-17886
▁딸기	-17887
▁필터	-17888
▁관리와	-17889
▁소리가	-17890
▁우려하는	-17891
▁절약	-17892
▁세균	-17893
▁감사원	-17894
▁감상할	-17895
▁발표될	-17896
전공	-17897
▁배우로	-17898
▁잔류	-17899
금고	-17900
▁가치와	-17901
▁거라	-17902
역량을	-17903
플렉스	-17904
▁심혈	-17905
파의	-17906
▁제철	-17907
▁한시적으로	-17908
▁동거	-17909
태양	-17910
▁sh	-17911
▁포즈를	-17912
금융감독	-17913
▁성명서를	-17914
▁넉넉	-17915
▁전면에	-17916
▁해결해	-17917
▁얼음	-17918
▁해외여행	-17919
▁프로그램의	-17920
5'	-17921
▁대선을	-17922
▁미분양	-17923
▁검체	-17924
▁법학	-17925
▁포수	-17926
▁발표하며	-17927
단순히	-17928
타당성	-17929
일반적으로	-17930
경력	-17931
▁레전드	-17932
▁낮춘	-17933
▁애국	-17934
▁영위	-17935
▁대출이	-17936
▁해변	-17937
랍니다	-17938
▁연출할	-17939
▁흠	-17940
제주도	-17941
▁거부했다	-17942
▁극복하기	-17943
▁전문적인	-17944
건조	-17945
▁개선하기	-17946
▁세분	-17947
단체의	-17948
버리지	-17949
방학	-17950
▁바가	-17951
▁주를	-17952
추는	-17953
▁수월	-17954
▁순조	-17955
간다는	-17956
▁주도권을	-17957
▁거치	-17958
▁책임지는	-17959
▁비서실장	-17960
기대	-17961
▁부재	-17962
▁수비수	-17963
▁한동안	-17964
'·	-17965
▁fomc	-17966
▁급증하고	-17967
▁소나	-17968
▁스타뉴스에	-17969
▁순간을	-17970
낸셜타임	-17971
▁양재	-17972
▁생생한	-17973
▁혁명	-17974
▁장남	-17975
▁영역에서	-17976
▁화를	-17977
▁검토한	-17978
▁성격이	-17979
▁대항	-17980
덕분에	-17981
▁논란과	-17982
▁ex	-17983
▁줘	-17984
▁상승이	-17985
▁영수	-17986
▁해석이	-17987
▁운명	-17988
여부	-17989
▁메이크업을	-17990
꼈다	-17991
▁세트를	-17992
▁고용보험	-17993
▁분명한	-17994
▁합류했다	-17995
▁투자는	-17996
▁기여했다	-17997
▁‘2018	-17998
세일	-17999
▁발대	-18000
▁행정명령	-18001
▁논란은	-18002
▁빅데이터를	-18003
▁낮아졌다	-18004
▁해가	-18005
▁깊게	-18006
▁who	-18007
▁업무방해	-18008
▁무산됐다	-18009
▁그칠	-18010
캠퍼	-18011
▁패소	-18012
▁그야말로	-18013
▁시중은행	-18014
무선	-18015
▁운을	-18016
거래를	-18017
▁투명하게	-18018
▁시설이	-18019
▁대학에	-18020
글을	-18021
파리	-18022
▁오류	-18023
쳐야	-18024
▁갖췄	-18025
내면서	-18026
학력	-18027
층으로	-18028
▁삽입	-18029
배구	-18030
▁청와	-18031
▁선고받은	-18032
▁장학금을	-18033
▁회전	-18034
▁성적이	-18035
▁제주시	-18036
▁발표는	-18037
▁불확실성	-18038
▁가져올	-18039
~25	-18040
폐기물	-18041
고사	-18042
▁리뷰	-18043
▁지원도	-18044
▁전셋	-18045
▁여유가	-18046
▁조항을	-18047
▁메모	-18048
▁동향을	-18049
▁계속되는	-18050
▁114	-18051
▁사정이	-18052
▁참여하지	-18053
▁동호	-18054
▁당사자	-18055
▁돼지고	-18056
▁협의가	-18057
▁밀접한	-18058
이건	-18059
▁익숙한	-18060
텔레콤이	-18061
vr	-18062
▁정리해	-18063
▁협의체	-18064
정산	-18065
▁신메뉴	-18066
반은	-18067
▁씨를	-18068
▁종업	-18069
▁완화를	-18070
▁한국전	-18071
▁만족도	-18072
▁처리했다	-18073
진영	-18074
▁환산	-18075
▁발랄	-18076
개년	-18077
▁결집	-18078
▁두피	-18079
▁조립	-18080
▁환상	-18081
▁사생활	-18082
▁실수를	-18083
▁러시아가	-18084
김포	-18085
▁결선	-18086
민주주의	-18087
지역별로는	-18088
설명회	-18089
▁아쉬움이	-18090
▁종식	-18091
▁노력하는	-18092
면역	-18093
▁반영하는	-18094
▁특별검사	-18095
파운드	-18096
으로만	-18097
▁상승하며	-18098
▁인문학	-18099
▁뜬공으로	-18100
▁승강	-18101
▁얻기	-18102
특별자치	-18103
▁깨달	-18104
주교	-18105
▁없다며	-18106
쿠르	-18107
검진	-18108
▁사태와	-18109
하나은행	-18110
▁컬러로	-18111
▁중요하게	-18112
수렴	-18113
▁취지에	-18114
▁개인정보를	-18115
ut	-18116
▁이관	-18117
▁정관	-18118
▁환승	-18119
▁임대차	-18120
▁제작진은	-18121
연극	-18122
▁체인	-18123
▁고민하는	-18124
▁부문을	-18125
▁하이라	-18126
구마	-18127
▁enm	-18128
선수권대회	-18129
▁기억에	-18130
리스크	-18131
▁등장한다	-18132
투게더	-18133
▁안정성을	-18134
▁바깥	-18135
▁시점이	-18136
▁셀프	-18137
방사	-18138
▁1.1	-18139
종이다	-18140
스케	-18141
회생	-18142
▁선거인	-18143
언이	-18144
▁조성할	-18145
▁우리나라는	-18146
▁추진했다	-18147
▁금토드라마	-18148
▁매립	-18149
▁무상으로	-18150
▁변화하는	-18151
필름	-18152
▁시트	-18153
끼를	-18154
세미나	-18155
▁생산성	-18156
▁연출을	-18157
▁삼성그룹	-18158
인근	-18159
▁그릴	-18160
▁보험료를	-18161
▁쏟아졌다	-18162
▁출시한다	-18163
▁비로	-18164
▁상승해	-18165
▁의혹도	-18166
▁덤	-18167
▁공격에	-18168
▁뚝	-18169
▁위배	-18170
▁셔	-18171
러를	-18172
▁애플이	-18173
▁공동연구	-18174
하이닉스는	-18175
▁비공개로	-18176
▁벌인다	-18177
▁경위	-18178
▁모이는	-18179
▁신당	-18180
▁해경	-18181
▁결정한다	-18182
즈와의	-18183
▁자리에는	-18184
▁공기업	-18185
▁취업을	-18186
바는	-18187
▁나이에	-18188
아이돌	-18189
▁벗어나지	-18190
▁독창	-18191
엑스포	-18192
▁공판에서	-18193
▁주부	-18194
▁공식적인	-18195
앤젤	-18196
▁인력이	-18197
▁죽은	-18198
▁포천	-18199
▁승리의	-18200
▁인센티브를	-18201
▁시작될	-18202
▁화순	-18203
▁출시될	-18204
▁싶어요	-18205
공단이	-18206
▁옹호	-18207
직에	-18208
▁본사를	-18209
증거	-18210
▁분들의	-18211
오른	-18212
색으로	-18213
▁전방위	-18214
개헌	-18215
병대	-18216
▁부담으로	-18217
필더	-18218
▁어우러져	-18219
▁210	-18220
▁강제로	-18221
▁인체	-18222
려한	-18223
▁국민은	-18224
▁수년간	-18225
▁중남미	-18226
▁재외	-18227
▁지급한	-18228
언을	-18229
▁플랫폼으로	-18230
상반기	-18231
▁오페라	-18232
▁임시회	-18233
▁무승	-18234
▁표정	-18235
동으로	-18236
▁딸의	-18237
wh	-18238
련을	-18239
비엔	-18240
▁버리고	-18241
▁일었다	-18242
들기	-18243
▁한남	-18244
▁이스타	-18245
능한	-18246
▁일대에	-18247
한일	-18248
그것이	-18249
단체는	-18250
편집	-18251
았으나	-18252
▁갤러리	-18253
▁확고한	-18254
▁중앙재난안전대책본부	-18255
드리고	-18256
▁공약으로	-18257
버넌	-18258
▁흉기로	-18259
▁시행한	-18260
급한	-18261
▁오늘은	-18262
▁유지하면서	-18263
국회가	-18264
▁선고했다고	-18265
.70	-18266
농산물	-18267
▁뺏	-18268
강력	-18269
네스	-18270
▁이용자의	-18271
▁창의적인	-18272
볶음	-18273
▁kai	-18274
▁건넨	-18275
▁관료	-18276
이체	-18277
▁점령	-18278
▁대체할	-18279
▁폭행한	-18280
▁녹취	-18281
▁해외로	-18282
▁시선	-18283
불가	-18284
관광객	-18285
▁법정에	-18286
▁탔다	-18287
철강	-18288
bt	-18289
네가	-18290
대기업	-18291
▁멤버로	-18292
인베스트	-18293
▁브랜	-18294
▁끝이	-18295
2016	-18296
▁사유로	-18297
사관	-18298
▁로열	-18299
▁수입이	-18300
▁아이오	-18301
▁역의	-18302
샷을	-18303
▁총무	-18304
▁순매도했다	-18305
▁무책임	-18306
▁하락하고	-18307
▁사냥	-18308
▁차림	-18309
주차장	-18310
▁셰프	-18311
▁춤을	-18312
▁사이클	-18313
▁높지	-18314
버그는	-18315
▁대용량	-18316
▁행정자치	-18317
▁관제	-18318
▁106	-18319
찍한	-18320
▁마음의	-18321
▁거센	-18322
▁소화했다	-18323
짐에	-18324
환자가	-18325
▁힘으로	-18326
▁심리가	-18327
▁결정된다	-18328
▁판단한다	-18329
타이틀	-18330
▁선도하는	-18331
레니	-18332
캐스트	-18333
▁듯하다	-18334
▁장점이다	-18335
▁혼인	-18336
▁로스쿨	-18337
게임을	-18338
▁인명피해	-18339
플레이오프	-18340
과제를	-18341
▁거듭나	-18342
▁뗐	-18343
조리	-18344
▁점쳐	-18345
▁109	-18346
▁강세다	-18347
▁펼쳐질	-18348
식간에	-18349
▁신중하게	-18350
▁돌아오는	-18351
여전히	-18352
▁승마	-18353
▁회복에	-18354
겠나	-18355
날인	-18356
파인	-18357
▁규정한	-18358
졌으나	-18359
▁취재진	-18360
▁플레이를	-18361
▁속의	-18362
▁남아있는	-18363
▁안타까움을	-18364
▁대명	-18365
▁통학	-18366
▁사이로	-18367
▁해결에	-18368
▁예정으로	-18369
▁팀장	-18370
▁일련의	-18371
질서	-18372
▁자는	-18373
▁커브	-18374
▁순이익	-18375
▁로컬	-18376
▁해외에	-18377
▁사정	-18378
▁효성	-18379
▁동안의	-18380
▁첨가	-18381
▁평가한다	-18382
바꿈	-18383
서초	-18384
▁깨닫	-18385
▁오락	-18386
▁찾아야	-18387
▁ok	-18388
병원을	-18389
▁도교육청	-18390
▁속여	-18391
▁기록은	-18392
최씨는	-18393
▁학교폭력	-18394
▁전쟁을	-18395
▁최우선으로	-18396
▁닮은	-18397
▁옴	-18398
▁보자	-18399
▁의구	-18400
▁내려진	-18401
▁조성사업	-18402
▁포털사이트	-18403
르몬	-18404
▁거침	-18405
▁벌일	-18406
▁심어	-18407
년이다	-18408
▁누군가	-18409
▁조성된	-18410
블로	-18411
▁107	-18412
▁방식에	-18413
▁속에는	-18414
▁이산화	-18415
▁요청이	-18416
▁르노삼성	-18417
▁열풍	-18418
▁일본군	-18419
▁목표주가를	-18420
▁수탁	-18421
▁어려웠다	-18422
▁단정	-18423
▁연기한	-18424
▁비즈니	-18425
▁지원된다	-18426
▁설치했다	-18427
젠은	-18428
▁가파른	-18429
▁최근까지	-18430
간부	-18431
▁통해서도	-18432
▁제도개선	-18433
럼을	-18434
▁이슈를	-18435
▁눈으로	-18436
▁엮	-18437
림은	-18438
▁경감	-18439
▁다국적	-18440
▁도시의	-18441
▁형을	-18442
▁치르는	-18443
특화	-18444
▁나서지	-18445
▁의무적으로	-18446
▁미국인	-18447
▁프로그램인	-18448
▁안무	-18449
▁top	-18450
▁동력을	-18451
▁이달부터	-18452
▁걷기	-18453
▁대미	-18454
병으로	-18455
▁원내대표와	-18456
▁링크	-18457
▁만하다	-18458
▁훔친	-18459
▁대단	-18460
산업개발	-18461
▁짜릿	-18462
사진을	-18463
▁일으킬	-18464
▁좌전	-18465
▁다주택	-18466
▁잃어버	-18467
개발사업	-18468
대인	-18469
▁과시	-18470
▁변경을	-18471
능력이	-18472
▁유지하기	-18473
위탁	-18474
▁무안	-18475
▁이주	-18476
▁운반	-18477
▁테라	-18478
▁비위	-18479
인사를	-18480
▁비용으로	-18481
코의	-18482
▁여자친구	-18483
해주신	-18484
▁현대상	-18485
기아차	-18486
만대를	-18487
보와	-18488
▁도시를	-18489
▁크기의	-18490
▁일겠다	-18491
▁우즈베키스탄	-18492
▁현대백화점	-18493
▁버락	-18494
▁실손	-18495
▁산업이	-18496
▁관객들의	-18497
▁1.3%	-18498
▁시스템에	-18499
▁과장은	-18500
▁사안이	-18501
으려는	-18502
지난해에는	-18503
▁적용돼	-18504
▁정수	-18505
▁명의의	-18506
▁학교는	-18507
▁행동에	-18508
▁부작용이	-18509
진로	-18510
▁됐지만	-18511
▁연휴를	-18512
분한	-18513
씨로부터	-18514
▁차이는	-18515
▁판매는	-18516
▁하자는	-18517
▁외에는	-18518
감소	-18519
오브	-18520
▁정제	-18521
공화국	-18522
한도전	-18523
▁장소로	-18524
내역	-18525
항이	-18526
비용이	-18527
▁운영한	-18528
하키	-18529
▁편지를	-18530
fm	-18531
너를	-18532
▁낮추고	-18533
▁감소하고	-18534
▁담겨있다	-18535
▁리스크가	-18536
▁정성	-18537
▁조직의	-18538
▁생각으로	-18539
훈이	-18540
▁코인	-18541
새롭게	-18542
2020	-18543
▁높아지면서	-18544
▁물려	-18545
개인의	-18546
싸움	-18547
연합은	-18548
▁보니까	-18549
▁현대건설	-18550
자흐	-18551
▁묵묵	-18552
인삼	-18553
론에	-18554
▁적혀	-18555
▁가창	-18556
▁인사는	-18557
▁티켓을	-18558
▁화폐	-18559
토론회	-18560
▁지진이	-18561
▁최초기준	-18562
리터	-18563
▁비결	-18564
~14	-18565
▁레이저	-18566
업과	-18567
▁입성	-18568
▁주장한다	-18569
▁과의	-18570
▁기대감에	-18571
▁발맞춰	-18572
여명은	-18573
▁나선다고	-18574
▁경제성	-18575
▁기술에	-18576
▁무증상	-18577
▁치료에	-18578
초기	-18579
xx	-18580
롭다	-18581
▁카리스마	-18582
학자	-18583
버스를	-18584
랑이	-18585
▁일문일	-18586
▁못했다고	-18587
▁락	-18588
웠고	-18589
▁강타	-18590
▁무궁	-18591
▁버거	-18592
득점으로	-18593
▁비박	-18594
▁전문인력	-18595
▁청와대에	-18596
파로	-18597
스스로	-18598
▁보험금	-18599
▁침투	-18600
▁응답했다	-18601
▁예술의	-18602
패키지	-18603
정치적	-18604
▁공기청정기	-18605
▁1.2%	-18606
행에	-18607
▁모임을	-18608
▁해외유입	-18609
▁공격이	-18610
▁선정한다	-18611
▁기침	-18612
▁카페에서	-18613
디를	-18614
죄로	-18615
▁제한이	-18616
백은	-18617
▁경연	-18618
▁빠질	-18619
▁맛볼	-18620
▁열을	-18621
▁온다	-18622
▁주관한	-18623
▁일어났다	-18624
면과	-18625
출자	-18626
▁마련돼	-18627
▁의상을	-18628
▁서울시의	-18629
▁정도에	-18630
▁만끽	-18631
▁학교의	-18632
▁났	-18633
▁전력이	-18634
▁격려했다	-18635
▁기장	-18636
▁흡입	-18637
▁교육부는	-18638
▁문의하면	-18639
편으로	-18640
▁강점을	-18641
전에서는	-18642
애틀	-18643
▁타워	-18644
럴림픽	-18645
▁베어스	-18646
공공기관	-18647
▁대표발의	-18648
▁못하면서	-18649
룩을	-18650
▁여건을	-18651
연패에	-18652
▁용인시	-18653
▁크다고	-18654
▁근무한	-18655
▁남양주	-18656
출입	-18657
▁사태의	-18658
▁부당하게	-18659
다우	-18660
롭지	-18661
문화의	-18662
뱅크는	-18663
사업본부	-18664
▁오름세를	-18665
▁포트폴리오를	-18666
▁'200	-18667
▁노조가	-18668
▁시가총	-18669
▁시리즈의	-18670
▁니트	-18671
▁변화의	-18672
시즌을	-18673
확률	-18674
▁일방적인	-18675
▁키울	-18676
신약	-18677
▁통장	-18678
▁나타났	-18679
▁구간을	-18680
▁낚시	-18681
▁소주	-18682
▁시작한다고	-18683
▁주도하고	-18684
▁느끼게	-18685
▁sp	-18686
▁되새	-18687
▁묻고	-18688
▁증평	-18689
▁미래에셋대우	-18690
▁이동할	-18691
▁지스타	-18692
▁나고	-18693
▁뛰는	-18694
시민의	-18695
▁매장에	-18696
▁효과로	-18697
▁경영진	-18698
▁전환하는	-18699
▁끌어내	-18700
▁0.9%	-18701
▁증시에서	-18702
▁길어	-18703
보조금	-18704
버드	-18705
▁파는	-18706
▁힘써	-18707
▁-1	-18708
어터	-18709
▁기내	-18710
▁결합해	-18711
▁불안감을	-18712
직장	-18713
▁개발자	-18714
▁요청하는	-18715
▁잘라	-18716
▁동탄	-18717
▁얻게	-18718
▁인물을	-18719
▁신입사원	-18720
▁폭스	-18721
라클	-18722
▁결론이	-18723
▁그라	-18724
▁ch	-18725
▁수직	-18726
▁불리한	-18727
등이	-18728
공여	-18729
▁튼튼	-18730
▁군이	-18731
▁도지사	-18732
▁추천한	-18733
▁전향	-18734
▁때의	-18735
▁이바지	-18736
▁변호사를	-18737
▁제외된다	-18738
연수원	-18739
▁지자체의	-18740
▁gt	-18741
▁물량은	-18742
법무부는	-18743
애니	-18744
▁신안	-18745
▁농업인	-18746
▁여섯	-18747
▁의사결	-18748
▁금요일	-18749
▁뜨겁게	-18750
▁일반적으로	-18751
▁나아갈	-18752
전도	-18753
▁부모님	-18754
▁밟았다	-18755
남의	-18756
▁상승률을	-18757
▁참석하지	-18758
▁법과	-18759
▁선택이	-18760
▁양대	-18761
▁모델인	-18762
▁회장에	-18763
어와	-18764
▁쿠바	-18765
▁필두로	-18766
▁전년동월	-18767
[...]
