{
  "version": "1.0",
  "truncation": null,
  "padding": null,
  "added_tokens": [],
  "normalizer": null,
  "pre_tokenizer": {
    "type": "Whitespace"
  },
  "post_processor": null,
  "decoder": null,
  "model": {
    "type": "BPE",
    "dropout": null,
    "unk_token": "[UNK]",
    "continuing_subword_prefix": null,
    "end_of_word_suffix": null,
    "fuse_unk": false,
    "vocab": {
      "!": 0,
      "\"": 1,
      "#": 2,
      "$": 3,
      "%": 4,
      "&": 5,
      "'": 6,
      "(": 7,
      ")": 8,
      "*": 9,
      "+": 10,
      ",": 11,
      "-": 12,
      ".": 13,
      "/": 14,
      "0": 15,
      "1": 16,
      "2": 17,
      "3": 18,
      "4": 19,
      "5": 20,
      "6": 21,
      "7": 22,
      "8": 23,
      "9": 24,
      ":": 25,
      ";": 26,
      "<": 27,
      "=": 28,
      ">": 29,
      "?": 30,
      "@": 31,
      "A": 32,
      "B": 33,
      "C": 34,
      "D": 35,
      "E": 36,
      "F": 37,
      "G": 38,
      "H": 39,
      "I": 40,
      "J": 41,
      "K": 42,
      "L": 43,
      "M": 44,
      "N": 45,
      "O": 46,
      "P": 47,
      "Q": 48,
      "R": 49,
      "S": 50,
      "T": 51,
      "U": 52,
      "V": 53,
      "W": 54,
      "X": 55,
      "Y": 56,
      "Z": 57,
      "[": 58,
      "\\": 59,
      "]": 60,
      "^": 61,
      "_": 62,
      "a": 63,
      "b": 64,
      "c": 65,
      "d": 66,
      "e": 67,
      "f": 68,
      "g": 69,
      "h": 70,
      "i": 71,
      "j": 72,
      "k": 73,
      "l": 74,
      "m": 75,
      "n": 76,
      "o": 77,
      "p": 78,
      "q": 79,
      "r": 80,
      "s": 81,
      "t": 82,
      "u": 83,
      "v": 84,
      "w": 85,
      "x": 86,
      "y": 87,
      "z": 88,
      "{": 89,
      "|": 90,
      "}": 91,
      "~": 92,
      "¥": 93,
      "§": 94,
      "¨": 95,
      "­": 96,
      "®": 97,
      "°": 98,
      "±": 99,
      "²": 100,
      "³": 101,
      "´": 102,
      "µ": 103,
      "·": 104,
      "¸": 105,
      "¹": 106,
      "º": 107,
      "¼": 108,
      "½": 109,
      "¾": 110,
      "¿": 111,
      "À": 112,
      "Ä": 113,
      "Å": 114,
      "Æ": 115,
      "Ç": 116,
      "È": 117,
      "É": 118,
      "Ë": 119,
      "Ó": 120,
      "Ö": 121,
      "×": 122,
      "Ø": 123,
      "Ü": 124,
      "ß": 125,
      "à": 126,
      "á": 127,
      "â": 128,
      "ã": 129,
      "ä": 130,
      "å": 131,
      "æ": 132,
      "ç": 133,
      "è": 134,
      "é": 135,
      "ê": 136,
      "ë": 137,
      "ì": 138,
      "í": 139,
      "ï": 140,
      "ñ": 141,
      "ò": 142,
      "ó": 143,
      "ô": 144,
      "õ": 145,
      "ö": 146,
      "÷": 147,
      "ø": 148,
      "ù": 149,
      "ú": 150,
      "û": 151,
      "ü": 152,
      "ý": 153,
      "ā": 154,
      "ă": 155,
      "ą": 156,
      "ć": 157,
      "Č": 158,
      "č": 159,
      "Đ": 160,
      "đ": 161,
      "ě": 162,
      "ĩ": 163,
      "ĭ": 164,
      "ı": 165,
      "ł": 166,
      "ō": 167,
      "ŏ": 168,
      "œ": 169,
      "ř": 170,
      "ś": 171,
      "Š": 172,
      "š": 173,
      "ũ": 174,
      "Ū": 175,
      "ŭ": 176,
      "ž": 177,
      "ơ": 178,
      "ư": 179,
      "ǐ": 180,
      "Ș": 181,
      "ː": 182,
      "˚": 183,
      "΄": 184,
      "Δ": 185,
      "Ι": 186,
      "Λ": 187,
      "Μ": 188,
      "Ν": 189,
      "Ξ": 190,
      "Ο": 191,
      "Π": 192,
      "Χ": 193,
      "Ω": 194,
      "έ": 195,
      "α": 196,
      "β": 197,
      "γ": 198,
      "δ": 199,
      "ε": 200,
      "ζ": 201,
      "θ": 202,
      "ι": 203,
      "κ": 204,
      "λ": 205,
      "μ": 206,
      "ν": 207,
      "ξ": 208,
      "ο": 209,
      "π": 210,
      "ρ": 211,
      "ς": 212,
      "σ": 213,
      "τ": 214,
      "υ": 215,
      "φ": 216,
      "χ": 217,
      "ω": 218,
      "А": 219,
      "Д": 220,
      "Е": 221,
      "К": 222,
      "М": 223,
      "Н": 224,
      "П": 225,
      "Р": 226,
      "С": 227,
      "У": 228,
      "Ц": 229,
      "Ш": 230,
      "а": 231,
      "б": 232,
      "в": 233,
      "г": 234,
      "д": 235,
      "е": 236,
      "ж": 237,
      "з": 238,
      "и": 239,
      "й": 240,
      "л": 241,
      "м": 242,
      "н": 243,
      "о": 244,
      "р": 245,
      "с": 246,
      "т": 247,
      "у": 248,
      "ф": 249,
      "ч": 250,
      "ш": 251,
      "ы": 252,
      "ь": 253,
      "я": 254,
      "ᄁ": 255,
      "ᄃ": 256,
      "ᄄ": 257,
      "ᄌ": 258,
      "ᄍ": 259,
      "ᄒ": 260,
      "ᅟ": 261,
      "ᅠ": 262,
      "ᅢ": 263,
      "ᅥ": 264,
      "ᅲ": 265,
      "ᆞ": 266,
      "ᆨ": 267,
      "ᆫ": 268,
      "ᆯ": 269,
      "ᆻ": 270,
      "ᆼ": 271,
      "ᇂ": 272,
      "ạ": 273,
      "ả": 274,
      "ấ": 275,
      "ẩ": 276,
      "ậ": 277,
      "ị": 278,
      "ồ": 279,
      "ỗ": 280,
      "ớ": 281,
      "ờ": 282,
      "ữ": 283,
      "‌": 284,
      "‎": 285,
      "‐": 286,
      "‑": 287,
      "‒": 288,
      "–": 289,
      "—": 290,
      "―": 291,
      "‘": 292,
      "’": 293,
      "“": 294,
      "”": 295,
      "†": 296,
      "‣": 297,
      "‥": 298,
      "…": 299,
      "‪": 300,
      "‬": 301,
      "‰": 302,
      "‱": 303,
      "‵": 304,
      "※": 305,
      "⁃": 306,
      "⁺": 307,
      "⁻": 308,
      "ⁿ": 309,
      "₁": 310,
      "₂": 311,
      "₃": 312,
      "₄": 313,
      "₅": 314,
      "€": 315,
      "℃": 316,
      "℉": 317,
      "ℓ": 318,
      "™": 319,
      "Ω": 320,
      "Å": 321,
      "⅓": 322,
      "⅔": 323,
      "⅛": 324,
      "Ⅰ": 325,
      "Ⅱ": 326,
      "Ⅲ": 327,
      "Ⅳ": 328,
      "Ⅴ": 329,
      "Ⅵ": 330,
      "Ⅶ": 331,
      "Ⅷ": 332,
      "Ⅸ": 333,
      "Ⅹ": 334,
      "Ⅻ": 335,
      "ⅰ": 336,
      "ⅱ": 337,
      "ⅶ": 338,
      "ⅹ": 339,
      "ⅿ": 340,
      "←": 341,
      "↑": 342,
      "→": 343,
      "↓": 344,
      "↔": 345,
      "↖": 346,
      "⇄": 347,
      "⇆": 348,
      "⇒": 349,
      "⇔": 350,
      "⇧": 351,
      "⇨": 352,
      "⇩": 353,
      "∂": 354,
      "∆": 355,
      "∇": 356,
      "∑": 357,
      "−": 358,
      "∝": 359,
      "∞": 360,
      "∥": 361,
      "∩": 362,
      "∮": 363,
      "∼": 364,
      "∽": 365,
      "≒": 366,
      "≠": 367,
      "≡": 368,
      "≤": 369,
      "≥": 370,
      "≪": 371,
      "≫": 372,
      "⊂": 373,
      "⊙": 374,
      "⋆": 375,
      "⋯": 376,
      "⌜": 377,
      "⌟": 378,
      "①": 379,
      "②": 380,
      "③": 381,
      "④": 382,
      "⑤": 383,
      "⑥": 384,
      "⑦": 385,
      "⑧": 386,
      "⑨": 387,
      "⑩": 388,
      "⑪": 389,
      "⑫": 390,
      "⑬": 391,
      "⑭": 392,
      "⑮": 393,
      "⑴": 394,
      "⑵": 395,
      "⑶": 396,
      "⑷": 397,
      "⑸": 398,
      "⑹": 399,
      "Ⓡ": 400,
      "ⓒ": 401,
      "ⓔ": 402,
      "ⓝ": 403,
      "ⓡ": 404,
      "⓵": 405,
      "⓶": 406,
      "⓷": 407,
      "⓸": 408,
      "│": 409,
      "┃": 410,
      "┌": 411,
      "╴": 412,
      "╶": 413,
      "■": 414,
      "□": 415,
      "▣": 416,
      "▦": 417,
      "▪": 418,
      "▲": 419,
      "△": 420,
      "▴": 421,
      "▵": 422,
      "▶": 423,
      "▷": 424,
      "▸": 425,
      "▼": 426,
      "▽": 427,
      "◀": 428,
      "◆": 429,
      "◇": 430,
      "◈": 431,
      "◊": 432,
      "○": 433,
      "◌": 434,
      "◎": 435,
      "●": 436,
      "◦": 437,
      "◯": 438,
      "★": 439,
      "☆": 440,
      "☎": 441,
      "☏": 442,
      "☓": 443,
      "☜": 444,
      "☞": 445,
      "☰": 446,
      "♀": 447,
      "♂": 448,
      "♡": 449,
      "♥": 450,
      "♨": 451,
      "♩": 452,
      "♪": 453,
      "♬": 454,
      "♭": 455,
      "✕": 456,
      "❍": 457,
      "❏": 458,
      "➀": 459,
      "➁": 460,
      "➂": 461,
      "➉": 462,
      "➊": 463,
      "➋": 464,
      "➌": 465,
      "➍": 466,
      "➝": 467,
      "⟁": 468,
      "⟶": 469,
      "⟷": 470,
      "⠂": 471,
      "⬝": 472,
      "⯅": 473,
      "⾷": 474,
      "、": 475,
      "。": 476,
      "〃": 477,
      "々": 478,
      "〇": 479,
      "〈": 480,
      "〉": 481,
      "《": 482,
      "》": 483,
      "「": 484,
      "」": 485,
      "『": 486,
      "』": 487,
      "【": 488,
      "】": 489,
      "〓": 490,
      "〔": 491,
      "〕": 492,
      "〜": 493,
      "〮": 494,
      "あ": 495,
      "い": 496,
      "う": 497,
      "お": 498,
      "か": 499,
      "が": 500,
      "き": 501,
      "く": 502,
      "け": 503,
      "げ": 504,
      "こ": 505,
      "ご": 506,
      "さ": 507,
      "ざ": 508,
      "し": 509,
      "じ": 510,
      "す": 511,
      "せ": 512,
      "そ": 513,
      "た": 514,
      "ち": 515,
      "っ": 516,
      "つ": 517,
      "て": 518,
      "で": 519,
      "と": 520,
      "ど": 521,
      "な": 522,
      "に": 523,
      "ぬ": 524,
      "ね": 525,
      "の": 526,
      "は": 527,
      "ば": 528,
      "ひ": 529,
      "び": 530,
      "ふ": 531,
      "べ": 532,
      "ほ": 533,
      "ま": 534,
      "み": 535,
      "め": 536,
      "も": 537,
      "ゃ": 538,
      "や": 539,
      "ゅ": 540,
      "ゆ": 541,
      "よ": 542,
      "ら": 543,
      "り": 544,
      "る": 545,
      "れ": 546,
      "ろ": 547,
      "わ": 548,
      "を": 549,
      "ん": 550,
      "ア": 551,
      "ィ": 552,
      "イ": 553,
      "ゥ": 554,
      "ウ": 555,
      "エ": 556,
      "ォ": 557,
      "カ": 558,
      "ガ": 559,
      "キ": 560,
      "ギ": 561,
      "ク": 562,
      "グ": 563,
      "ケ": 564,
      "ゲ": 565,
      "コ": 566,
      "ザ": 567,
      "シ": 568,
      "ジ": 569,
      "ス": 570,
      "ズ": 571,
      "セ": 572,
      "ソ": 573,
      "ゾ": 574,
      "タ": 575,
      "ダ": 576,
      "チ": 577,
      "ッ": 578,
      "テ": 579,
      "デ": 580,
      "ト": 581,
      "ド": 582,
      "ナ": 583,
      "ニ": 584,
      "ネ": 585,
      "ノ": 586,
      "ハ": 587,
      "パ": 588,
      "ビ": 589,
      "フ": 590,
      "ブ": 591,
      "ホ": 592,
      "ボ": 593,
      "ポ": 594,
      "マ": 595,
      "ム": 596,
      "メ": 597,
      "モ": 598,
      "ャ": 599,
      "ヤ": 600,
      "ュ": 601,
      "ョ": 602,
      "ヨ": 603,
      "ラ": 604,
      "リ": 605,
      "ル": 606,
      "レ": 607,
      "ロ": 608,
      "ワ": 609,
      "ン": 610,
      "ー": 611,
      "ㄅ": 612,
      "ㄱ": 613,
      "ㄲ": 614,
      "ㄴ": 615,
      "ㄷ": 616,
      "ㄹ": 617,
      "ㄽ": 618,
      "ㅁ": 619,
      "ㅂ": 620,
      "ㅃ": 621,
      "ㅅ": 622,
      "ㅆ": 623,
      "ㅇ": 624,
      "ㅈ": 625,
      "ㅉ": 626,
      "ㅊ": 627,
      "ㅋ": 628,
      "ㅌ": 629,
      "ㅍ": 630,
      "ㅎ": 631,
      "ㅏ": 632,
      "ㅑ": 633,
      "ㅓ": 634,
      "ㅔ": 635,
      "ㅕ": 636,
      "ㅗ": 637,
      "ㅜ": 638,
      "ㅠ": 639,
      "ㅡ": 640,
      "ㅤ": 641,
      "ㅭ": 642,
      "ㅱ": 643,
      "ㅸ": 644,
      "ㅽ": 645,
      "ㅿ": 646,
      "ㆅ": 647,
      "ㆆ": 648,
      "ㆍ": 649,
      "㈔": 650,
      "㈖": 651,
      "㈜": 652,
      "㉕": 653,
      "㉚": 654,
      "㉠": 655,
      "㉥": 656,
      "㉦": 657,
      "㉧": 658,
      "㉨": 659,
      "㉭": 660,
      "㎀": 661,
      "㎂": 662,
      "㎃": 663,
      "㎄": 664,
      "㎆": 665,
      "㎇": 666,
      "㎈": 667,
      "㎉": 668,
      "㎌": 669,
      "㎍": 670,
      "㎎": 671,
      "㎏": 672,
      "㎐": 673,
      "㎑": 674,
      "㎒": 675,
      "㎓": 676,
      "㎔": 677,
      "㎕": 678,
      "㎖": 679,
      "㎗": 680,
      "㎘": 681,
      "㎚": 682,
      "㎛": 683,
      "㎜": 684,
      "㎝": 685,
      "㎞": 686,
      "㎟": 687,
      "㎠": 688,
      "㎡": 689,
      "㎢": 690,
      "㎣": 691,
      "㎤": 692,
      "㎥": 693,
      "㎦": 694,
      "㎧": 695,
      "㎨": 696,
      "㎩": 697,
      "㎪": 698,
      "㎫": 699,
      "㎬": 700,
      "㎰": 701,
      "㎲": 702,
      "㎳": 703,
      "㎶": 704,
      "㎷": 705,
      "㎸": 706,
      "㎹": 707,
      "㎼": 708,
      "㎽": 709,
      "㎾": 710,
      "㎿": 711,
      "㏃": 712,
      "㏄": 713,
      "㏅": 714,
      "㏈": 715,
      "㏊": 716,
      "㏏": 717,
      "㏐": 718,
      "㏓": 719,
      "㏖": 720,
      "㏗": 721,
      "㏙": 722,
      "㏜": 723,
      "㦿": 724,
      "䌙": 725,
      "䚨": 726,
      "一": 727,
      "丁": 728,
      "七": 729,
      "万": 730,
      "丈": 731,
      "三": 732,
      "上": 733,
      "下": 734,
      "不": 735,
      "与": 736,
      "丑": 737,
      "且": 738,
      "世": 739,
      "丘": 740,
      "丙": 741,
      "业": 742,
      "丛": 743,
      "东": 744,
      "丞": 745,
      "两": 746,
      "个": 747,
      "中": 748,
      "丰": 749,
      "串": 750,
      "丸": 751,
      "丹": 752,
      "主": 753,
      "丽": 754,
      "乃": 755,
      "久": 756,
      "之": 757,
      "乎": 758,
      "乏": 759,
      "乐": 760,
      "乘": 761,
      "乙": 762,
      "九": 763,
      "也": 764,
      "习": 765,
      "乡": 766,
      "书": 767,
      "乳": 768,
      "乶": 769,
      "乾": 770,
      "亂": 771,
      "了": 772,
      "事": 773,
      "二": 774,
      "于": 775,
      "亏": 776,
      "云": 777,
      "互": 778,
      "五": 779,
      "井": 780,
      "亚": 781,
      "亞": 782,
      "亡": 783,
      "交": 784,
      "亥": 785,
      "亦": 786,
      "产": 787,
      "亨": 788,
      "享": 789,
      "京": 790,
      "亭": 791,
      "亮": 792,
      "人": 793,
      "什": 794,
      "仁": 795,
      "仇": 796,
      "今": 797,
      "介": 798,
      "仓": 799,
      "仔": 800,
      "仕": 801,
      "他": 802,
      "仗": 803,
      "付": 804,
      "仙": 805,
      "代": 806,
      "令": 807,
      "以": 808,
      "们": 809,
      "仰": 810,
      "仲": 811,
      "仵": 812,
      "件": 813,
      "任": 814,
      "份": 815,
      "企": 816,
      "伊": 817,
      "伍": 818,
      "伎": 819,
      "伏": 820,
      "伐": 821,
      "休": 822,
      "众": 823,
      "优": 824,
      "会": 825,
      "伯": 826,
      "伴": 827,
      "伸": 828,
      "似": 829,
      "伽": 830,
      "佃": 831,
      "但": 832,
      "位": 833,
      "低": 834,
      "住": 835,
      "佐": 836,
      "佑": 837,
      "体": 838,
      "何": 839,
      "佗": 840,
      "余": 841,
      "佚": 842,
      "佛": 843,
      "作": 844,
      "你": 845,
      "佩": 846,
      "佰": 847,
      "佳": 848,
      "佶": 849,
      "佾": 850,
      "使": 851,
      "來": 852,
      "例": 853,
      "侍": 854,
      "供": 855,
      "依": 856,
      "侮": 857,
      "侯": 858,
      "侵": 859,
      "侶": 860,
      "便": 861,
      "係": 862,
      "促": 863,
      "俉": 864,
      "俊": 865,
      "俎": 866,
      "俑": 867,
      "俔": 868,
      "俗": 869,
      "保": 870,
      "俟": 871,
      "俠": 872,
      "信": 873,
      "修": 874,
      "俯": 875,
      "俱": 876,
      "俳": 877,
      "俸": 878,
      "倂": 879,
      "倉": 880,
      "個": 881,
      "倍": 882,
      "們": 883,
      "倒": 884,
      "倔": 885,
      "倖": 886,
      "候": 887,
      "倚": 888,
      "借": 889,
      "倡": 890,
      "値": 891,
      "倦": 892,
      "倩": 893,
      "倪": 894,
      "倫": 895,
      "倭": 896,
      "倻": 897,
      "偃": 898,
      "假": 899,
      "偈": 900,
      "偉": 901,
      "偏": 902,
      "偕": 903,
      "做": 904,
      "停": 905,
      "健": 906,
      "側": 907,
      "偵": 908,
      "偶": 909,
      "傀": 910,
      "傅": 911,
      "傍": 912,
      "傑": 913,
      "傘": 914,
      "備": 915,
      "催": 916,
      "傭": 917,
      "傲": 918,
      "傳": 919,
      "債": 920,
      "傷": 921,
      "傾": 922,
      "像": 923,
      "僑": 924,
      "僕": 925,
      "僚": 926,
      "僞": 927,
      "僧": 928,
      "僭": 929,
      "價": 930,
      "僻": 931,
      "儀": 932,
      "億": 933,
      "儉": 934,
      "儒": 935,
      "儚": 936,
      "償": 937,
      "優": 938,
      "儲": 939,
      "儺": 940,
      "儼": 941,
      "儿": 942,
      "允": 943,
      "元": 944,
      "兄": 945,
      "充": 946,
      "兆": 947,
      "先": 948,
      "光": 949,
      "克": 950,
      "免": 951,
      "兎": 952,
      "児": 953,
      "兒": 954,
      "兢": 955,
      "入": 956,
      "內": 957,
      "全": 958,
      "兩": 959,
      "兪": 960,
      "八": 961,
      "公": 962,
      "六": 963,
      "兮": 964,
      "兰": 965,
      "共": 966,
      "关": 967,
      "兴": 968,
      "兵": 969,
      "其": 970,
      "具": 971,
      "典": 972,
      "兼": 973,
      "冀": 974,
      "内": 975,
      "円": 976,
      "冊": 977,
      "册": 978,
      "再": 979,
      "冕": 980,
      "军": 981,
      "冠": 982,
      "冤": 983,
      "冥": 984,
      "冨": 985,
      "冬": 986,
      "冰": 987,
      "冲": 988,
      "冶": 989,
      "冷": 990,
      "冽": 991,
      "净": 992,
      "准": 993,
      "凉": 994,
      "凌": 995,
      "凍": 996,
      "凝": 997,
      "凡": 998,
      "凤": 999,
      "凯": 1000,
      "凰": 1001,
      "凱": 1002,
      "凶": 1003,
      "凸": 1004,
      "凹": 1005,
      "出": 1006,
      "函": 1007,
      "刀": 1008,
      "分": 1009,
      "切": 1010,
      "刈": 1011,
      "刊": 1012,
      "刑": 1013,
      "列": 1014,
      "刘": 1015,
      "刚": 1016,
      "创": 1017,
      "初": 1018,
      "判": 1019,
      "別": 1020,
      "利": 1021,
      "刮": 1022,
      "到": 1023,
      "制": 1024,
      "刷": 1025,
      "券": 1026,
      "刹": 1027,
      "刺": 1028,
      "刻": 1029,
      "則": 1030,
      "削": 1031,
      "剋": 1032,
      "前": 1033,
      "剑": 1034,
      "剔": 1035,
      "剛": 1036,
      "剝": 1037,
      "剩": 1038,
      "副": 1039,
      "剰": 1040,
      "割": 1041,
      "創": 1042,
      "劃": 1043,
      "劇": 1044,
      "劉": 1045,
      "劍": 1046,
      "劑": 1047,
      "劒": 1048,
      "力": 1049,
      "办": 1050,
      "功": 1051,
      "加": 1052,
      "务": 1053,
      "劣": 1054,
      "动": 1055,
      "助": 1056,
      "努": 1057,
      "劫": 1058,
      "劲": 1059,
      "勁": 1060,
      "勃": 1061,
      "勅": 1062,
      "勇": 1063,
      "勉": 1064,
      "勋": 1065,
      "勒": 1066,
      "動": 1067,
      "務": 1068,
      "勝": 1069,
      "勞": 1070,
      "募": 1071,
      "勢": 1072,
      "勤": 1073,
      "勳": 1074,
      "勸": 1075,
      "勾": 1076,
      "勿": 1077,
      "包": 1078,
      "匏": 1079,
      "匕": 1080,
      "化": 1081,
      "北": 1082,
      "匙": 1083,
      "匠": 1084,
      "匡": 1085,
      "匣": 1086,
      "匪": 1087,
      "匯": 1088,
      "匹": 1089,
      "区": 1090,
      "医": 1091,
      "區": 1092,
      "十": 1093,
      "千": 1094,
      "卄": 1095,
      "升": 1096,
      "午": 1097,
      "半": 1098,
      "卍": 1099,
      "华": 1100,
      "协": 1101,
      "卑": 1102,
      "卒": 1103,
      "卓": 1104,
      "協": 1105,
      "南": 1106,
      "博": 1107,
      "卞": 1108,
      "占": 1109,
      "卡": 1110,
      "卦": 1111,
      "卯": 1112,
      "印": 1113,
      "危": 1114,
      "却": 1115,
      "卵": 1116,
      "卷": 1117,
      "卽": 1118,
      "卿": 1119,
      "厄": 1120,
      "厓": 1121,
      "厚": 1122,
      "原": 1123,
      "厥": 1124,
      "厦": 1125,
      "厨": 1126,
      "厭": 1127,
      "厲": 1128,
      "厶": 1129,
      "去": 1130,
      "参": 1131,
      "參": 1132,
      "又": 1133,
      "叉": 1134,
      "及": 1135,
      "友": 1136,
      "双": 1137,
      "反": 1138,
      "叔": 1139,
      "取": 1140,
      "受": 1141,
      "变": 1142,
      "叛": 1143,
      "叡": 1144,
      "叢": 1145,
      "口": 1146,
      "古": 1147,
      "句": 1148,
      "只": 1149,
      "召": 1150,
      "叮": 1151,
      "可": 1152,
      "台": 1153,
      "叱": 1154,
      "史": 1155,
      "右": 1156,
      "号": 1157,
      "司": 1158,
      "吃": 1159,
      "各": 1160,
      "合": 1161,
      "吉": 1162,
      "同": 1163,
      "名": 1164,
      "后": 1165,
      "吏": 1166,
      "吐": 1167,
      "向": 1168,
      "吒": 1169,
      "吕": 1170,
      "君": 1171,
      "吝": 1172,
      "吟": 1173,
      "吠": 1174,
      "否": 1175,
      "吧": 1176,
      "含": 1177,
      "吳": 1178,
      "吴": 1179,
      "吸": 1180,
      "吹": 1181,
      "吻": 1182,
      "吼": 1183,
      "吾": 1184,
      "呂": 1185,
      "呆": 1186,
      "呈": 1187,
      "告": 1188,
      "呑": 1189,
      "周": 1190,
      "呪": 1191,
      "味": 1192,
      "呼": 1193,
      "命": 1194,
      "和": 1195,
      "咒": 1196,
      "咖": 1197,
      "咚": 1198,
      "咤": 1199,
      "咨": 1200,
      "咬": 1201,
      "咲": 1202,
      "咳": 1203,
      "咸": 1204,
      "哀": 1205,
      "品": 1206,
      "哇": 1207,
      "哈": 1208,
      "哉": 1209,
      "哔": 1210,
      "員": 1211,
      "哥": 1212,
      "哨": 1213,
      "哩": 1214,
      "哪": 1215,
      "哭": 1216,
      "哲": 1217,
      "哺": 1218,
      "唄": 1219,
      "唆": 1220,
      "唇": 1221,
      "唐": 1222,
      "唯": 1223,
      "唱": 1224,
      "唾": 1225,
      "啄": 1226,
      "商": 1227,
      "問": 1228,
      "啐": 1229,
      "啓": 1230,
      "啟": 1231,
      "啡": 1232,
      "啤": 1233,
      "啰": 1234,
      "啼": 1235,
      "喀": 1236,
      "善": 1237,
      "喆": 1238,
      "喘": 1239,
      "喜": 1240,
      "喝": 1241,
      "喟": 1242,
      "喩": 1243,
      "喪": 1244,
      "喬": 1245,
      "單": 1246,
      "嗅": 1247,
      "嗇": 1248,
      "嗒": 1249,
      "嗔": 1250,
      "嗜": 1251,
      "嗣": 1252,
      "嗨": 1253,
      "嗶": 1254,
      "嗾": 1255,
      "嘀": 1256,
      "嘉": 1257,
      "嘗": 1258,
      "嘯": 1259,
      "嘲": 1260,
      "嘴": 1261,
      "嘿": 1262,
      "噗": 1263,
      "器": 1264,
      "噴": 1265,
      "噸": 1266,
      "嚆": 1267,
      "嚥": 1268,
      "嚮": 1269,
      "嚴": 1270,
      "嚼": 1271,
      "囀": 1272,
      "囉": 1273,
      "囊": 1274,
      "囑": 1275,
      "囚": 1276,
      "四": 1277,
      "回": 1278,
      "因": 1279,
      "团": 1280,
      "囧": 1281,
      "园": 1282,
      "困": 1283,
      "囹": 1284,
      "固": 1285,
      "国": 1286,
      "图": 1287,
      "圃": 1288,
      "圄": 1289,
      "圈": 1290,
      "圉": 1291,
      "國": 1292,
      "圍": 1293,
      "園": 1294,
      "圓": 1295,
      "圖": 1296,
      "團": 1297,
      "土": 1298,
      "圣": 1299,
      "在": 1300,
      "圩": 1301,
      "圭": 1302,
      "地": 1303,
      "圳": 1304,
      "场": 1305,
      "址": 1306,
      "坂": 1307,
      "均": 1308,
      "坊": 1309,
      "坎": 1310,
      "坐": 1311,
      "坑": 1312,
      "坡": 1313,
      "坤": 1314,
      "坦": 1315,
      "坪": 1316,
      "坼": 1317,
      "坽": 1318,
      "垂": 1319,
      "垈": 1320,
      "型": 1321,
      "垓": 1322,
      "垠": 1323,
      "垢": 1324,
      "垣": 1325,
      "埈": 1326,
      "埋": 1327,
      "城": 1328,
      "埔": 1329,
      "域": 1330,
      "埠": 1331,
      "執": 1332,
      "培": 1333,
      "基": 1334,
      "埼": 1335,
      "堀": 1336,
      "堂": 1337,
      "堅": 1338,
      "堆": 1339,
      "堡": 1340,
      "堤": 1341,
      "堧": 1342,
      "堪": 1343,
      "堯": 1344,
      "堰": 1345,
      "報": 1346,
      "場": 1347,
      "塊": 1348,
      "塋": 1349,
      "塑": 1350,
      "塔": 1351,
      "塗": 1352,
      "塚": 1353,
      "塞": 1354,
      "塡": 1355,
      "塢": 1356,
      "填": 1357,
      "塵": 1358,
      "塼": 1359,
      "塾": 1360,
      "境": 1361,
      "墅": 1362,
      "墓": 1363,
      "墜": 1364,
      "增": 1365,
      "墟": 1366,
      "墨": 1367,
      "墩": 1368,
      "墳": 1369,
      "墺": 1370,
      "墻": 1371,
      "墾": 1372,
      "壁": 1373,
      "壇": 1374,
      "壑": 1375,
      "壓": 1376,
      "壕": 1377,
      "壘": 1378,
      "壙": 1379,
      "壝": 1380,
      "壞": 1381,
      "壤": 1382,
      "士": 1383,
      "壬": 1384,
      "壯": 1385,
      "売": 1386,
      "壳": 1387,
      "壹": 1388,
      "壺": 1389,
      "壽": 1390,
      "备": 1391,
      "复": 1392,
      "夏": 1393,
      "夕": 1394,
      "外": 1395,
      "夙": 1396,
      "多": 1397,
      "夜": 1398,
      "夢": 1399,
      "大": 1400,
      "天": 1401,
      "太": 1402,
      "夫": 1403,
      "央": 1404,
      "失": 1405,
      "头": 1406,
      "夷": 1407,
      "夾": 1408,
      "奄": 1409,
      "奇": 1410,
      "奈": 1411,
      "奉": 1412,
      "奎": 1413,
      "奏": 1414,
      "契": 1415,
      "奔": 1416,
      "奕": 1417,
      "套": 1418,
      "奠": 1419,
      "奥": 1420,
      "奧": 1421,
      "奪": 1422,
      "奬": 1423,
      "奮": 1424,
      "女": 1425,
      "奴": 1426,
      "奶": 1427,
      "奸": 1428,
      "好": 1429,
      "如": 1430,
      "妃": 1431,
      "妄": 1432,
      "妊": 1433,
      "妍": 1434,
      "妓": 1435,
      "妖": 1436,
      "妙": 1437,
      "妣": 1438,
      "妥": 1439,
      "妳": 1440,
      "妹": 1441,
      "妻": 1442,
      "姆": 1443,
      "始": 1444,
      "姐": 1445,
      "姑": 1446,
      "姓": 1447,
      "委": 1448,
      "姙": 1449,
      "姚": 1450,
      "姜": 1451,
      "姦": 1452,
      "姪": 1453,
      "姬": 1454,
      "姸": 1455,
      "姿": 1456,
      "威": 1457,
      "娃": 1458,
      "娅": 1459,
      "娘": 1460,
      "娛": 1461,
      "娜": 1462,
      "娟": 1463,
      "娥": 1464,
      "娱": 1465,
      "娼": 1466,
      "婁": 1467,
      "婚": 1468,
      "婢": 1469,
      "婦": 1470,
      "婧": 1471,
      "婪": 1472,
      "婭": 1473,
      "婷": 1474,
      "媒": 1475,
      "媛": 1476,
      "媤": 1477,
      "媽": 1478,
      "嫁": 1479,
      "嫌": 1480,
      "嫡": 1481,
      "嫦": 1482,
      "嫻": 1483,
      "嬉": 1484,
      "嬋": 1485,
      "嬪": 1486,
      "嬰": 1487,
      "孃": 1488,
      "子": 1489,
      "孔": 1490,
      "孕": 1491,
      "字": 1492,
      "存": 1493,
      "孚": 1494,
      "孝": 1495,
      "孟": 1496,
      "季": 1497,
      "孤": 1498,
      "学": 1499,
      "孩": 1500,
      "孫": 1501,
      "孵": 1502,
      "學": 1503,
      "孺": 1504,
      "宁": 1505,
      "宅": 1506,
      "宇": 1507,
      "守": 1508,
      "安": 1509,
      "宋": 1510,
      "完": 1511,
      "宏": 1512,
      "宗": 1513,
      "官": 1514,
      "宙": 1515,
      "定": 1516,
      "宜": 1517,
      "宝": 1518,
      "宠": 1519,
      "客": 1520,
      "宣": 1521,
      "室": 1522,
      "宦": 1523,
      "宫": 1524,
      "宮": 1525,
      "害": 1526,
      "宴": 1527,
      "家": 1528,
      "宸": 1529,
      "容": 1530,
      "宾": 1531,
      "宿": 1532,
      "寀": 1533,
      "寂": 1534,
      "寃": 1535,
      "寄": 1536,
      "寅": 1537,
      "密": 1538,
      "富": 1539,
      "寐": 1540,
      "寒": 1541,
      "寓": 1542,
      "寛": 1543,
      "寞": 1544,
      "察": 1545,
      "寡": 1546,
      "寢": 1547,
      "寥": 1548,
      "實": 1549,
      "寧": 1550,
      "寨": 1551,
      "審": 1552,
      "寫": 1553,
      "寬": 1554,
      "寰": 1555,
      "寵": 1556,
      "寶": 1557,
      "寸": 1558,
      "寺": 1559,
      "导": 1560,
      "封": 1561,
      "専": 1562,
      "射": 1563,
      "將": 1564,
      "專": 1565,
      "尉": 1566,
      "尊": 1567,
      "尋": 1568,
      "對": 1569,
      "導": 1570,
      "小": 1571,
      "少": 1572,
      "尔": 1573,
      "尖": 1574,
      "尙": 1575,
      "尚": 1576,
      "尤": 1577,
      "尨": 1578,
      "就": 1579,
      "尸": 1580,
      "尹": 1581,
      "尺": 1582,
      "尼": 1583,
      "尽": 1584,
      "尾": 1585,
      "尿": 1586,
      "局": 1587,
      "居": 1588,
      "屈": 1589,
      "屋": 1590,
      "屍": 1591,
      "屏": 1592,
      "展": 1593,
      "屛": 1594,
      "屠": 1595,
      "屢": 1596,
      "層": 1597,
      "履": 1598,
      "屬": 1599,
      "屯": 1600,
      "山": 1601,
      "屹": 1602,
      "岐": 1603,
      "岑": 1604,
      "岔": 1605,
      "岗": 1606,
      "岚": 1607,
      "岛": 1608,
      "岡": 1609,
      "岩": 1610,
      "岫": 1611,
      "岬": 1612,
      "岳": 1613,
      "岸": 1614,
      "岾": 1615,
      "峙": 1616,
      "峥": 1617,
      "峨": 1618,
      "峯": 1619,
      "峰": 1620,
      "峴": 1621,
      "島": 1622,
      "峻": 1623,
      "峽": 1624,
      "崇": 1625,
      "崎": 1626,
      "崑": 1627,
      "崔": 1628,
      "崖": 1629,
      "崗": 1630,
      "崙": 1631,
      "崛": 1632,
      "崢": 1633,
      "崩": 1634,
      "嵌": 1635,
      "嵐": 1636,
      "嵩": 1637,
      "嶋": 1638,
      "嶝": 1639,
      "嶺": 1640,
      "嶼": 1641,
      "嶽": 1642,
      "巍": 1643,
      "巒": 1644,
      "巖": 1645,
      "川": 1646,
      "州": 1647,
      "巡": 1648,
      "巢": 1649,
      "工": 1650,
      "左": 1651,
      "巧": 1652,
      "巨": 1653,
      "巫": 1654,
      "差": 1655,
      "己": 1656,
      "已": 1657,
      "巳": 1658,
      "巴": 1659,
      "巷": 1660,
      "巻": 1661,
      "巽": 1662,
      "巾": 1663,
      "市": 1664,
      "布": 1665,
      "帆": 1666,
      "师": 1667,
      "希": 1668,
      "帕": 1669,
      "帖": 1670,
      "帝": 1671,
      "帥": 1672,
      "带": 1673,
      "師": 1674,
      "席": 1675,
      "帮": 1676,
      "帯": 1677,
      "帳": 1678,
      "帶": 1679,
      "常": 1680,
      "帽": 1681,
      "幀": 1682,
      "幅": 1683,
      "幇": 1684,
      "幌": 1685,
      "幕": 1686,
      "幞": 1687,
      "幟": 1688,
      "幡": 1689,
      "幢": 1690,
      "幣": 1691,
      "幫": 1692,
      "干": 1693,
      "平": 1694,
      "年": 1695,
      "幷": 1696,
      "幸": 1697,
      "幹": 1698,
      "幻": 1699,
      "幼": 1700,
      "幽": 1701,
      "幾": 1702,
      "广": 1703,
      "庁": 1704,
      "広": 1705,
      "庄": 1706,
      "床": 1707,
      "序": 1708,
      "底": 1709,
      "店": 1710,
      "庚": 1711,
      "府": 1712,
      "庞": 1713,
      "度": 1714,
      "座": 1715,
      "庫": 1716,
      "庭": 1717,
      "庵": 1718,
      "庶": 1719,
      "康": 1720,
      "庸": 1721,
      "廈": 1722,
      "廉": 1723,
      "廊": 1724,
      "廓": 1725,
      "廖": 1726,
      "廚": 1727,
      "廟": 1728,
      "廠": 1729,
      "廢": 1730,
      "廣": 1731,
      "廨": 1732,
      "廬": 1733,
      "廳": 1734,
      "延": 1735,
      "廷": 1736,
      "建": 1737,
      "廻": 1738,
      "开": 1739,
      "弁": 1740,
      "弄": 1741,
      "弊": 1742,
      "式": 1743,
      "弓": 1744,
      "弔": 1745,
      "引": 1746,
      "弗": 1747,
      "弘": 1748,
      "弟": 1749,
      "张": 1750,
      "弦": 1751,
      "弩": 1752,
      "弱": 1753,
      "張": 1754,
      "強": 1755,
      "强": 1756,
      "弼": 1757,
      "彈": 1758,
      "彊": 1759,
      "彌": 1760,
      "彎": 1761,
      "彙": 1762,
      "彛": 1763,
      "形": 1764,
      "彤": 1765,
      "彥": 1766,
      "彦": 1767,
      "彩": 1768,
      "彪": 1769,
      "彫": 1770,
      "彬": 1771,
      "彭": 1772,
      "彰": 1773,
      "影": 1774,
      "役": 1775,
      "彼": 1776,
      "彿": 1777,
      "往": 1778,
      "征": 1779,
      "待": 1780,
      "律": 1781,
      "後": 1782,
      "徐": 1783,
      "徑": 1784,
      "徒": 1785,
      "得": 1786,
      "從": 1787,
      "御": 1788,
      "復": 1789,
      "循": 1790,
      "微": 1791,
      "徳": 1792,
      "徵": 1793,
      "德": 1794,
      "徹": 1795,
      "徽": 1796,
      "心": 1797,
      "必": 1798,
      "忌": 1799,
      "忍": 1800,
      "忖": 1801,
      "志": 1802,
      "忘": 1803,
      "応": 1804,
      "忠": 1805,
      "快": 1806,
      "念": 1807,
      "忽": 1808,
      "怀": 1809,
      "怒": 1810,
      "怖": 1811,
      "思": 1812,
      "怠": 1813,
      "怡": 1814,
      "急": 1815,
      "性": 1816,
      "怨": 1817,
      "怪": 1818,
      "恆": 1819,
      "恍": 1820,
      "恐": 1821,
      "恒": 1822,
      "恕": 1823,
      "恣": 1824,
      "恤": 1825,
      "恥": 1826,
      "恨": 1827,
      "恩": 1828,
      "恬": 1829,
      "恭": 1830,
      "息": 1831,
      "恰": 1832,
      "恵": 1833,
      "恺": 1834,
      "悅": 1835,
      "悉": 1836,
      "悌": 1837,
      "悍": 1838,
      "悔": 1839,
      "悖": 1840,
      "悛": 1841,
      "悟": 1842,
      "悠": 1843,
      "患": 1844,
      "悲": 1845,
      "悸": 1846,
      "悼": 1847,
      "情": 1848,
      "惇": 1849,
      "惑": 1850,
      "惚": 1851,
      "惜": 1852,
      "惟": 1853,
      "惠": 1854,
      "惡": 1855,
      "惱": 1856,
      "想": 1857,
      "惻": 1858,
      "愁": 1859,
      "愈": 1860,
      "愉": 1861,
      "意": 1862,
      "愚": 1863,
      "愛": 1864,
      "感": 1865,
      "愼": 1866,
      "慈": 1867,
      "態": 1868,
      "慕": 1869,
      "慘": 1870,
      "慢": 1871,
      "慧": 1872,
      "慮": 1873,
      "慰": 1874,
      "慶": 1875,
      "慷": 1876,
      "慾": 1877,
      "憂": 1878,
      "憎": 1879,
      "憐": 1880,
      "憚": 1881,
      "憤": 1882,
      "憩": 1883,
      "憲": 1884,
      "憶": 1885,
      "憾": 1886,
      "懂": 1887,
      "懇": 1888,
      "懈": 1889,
      "應": 1890,
      "懲": 1891,
      "懶": 1892,
      "懷": 1893,
      "懸": 1894,
      "懺": 1895,
      "懼": 1896,
      "懿": 1897,
      "戀": 1898,
      "戈": 1899,
      "戊": 1900,
      "戌": 1901,
      "戎": 1902,
      "成": 1903,
      "我": 1904,
      "戒": 1905,
      "战": 1906,
      "戚": 1907,
      "戦": 1908,
      "截": 1909,
      "戮": 1910,
      "戰": 1911,
      "戱": 1912,
      "戲": 1913,
      "戴": 1914,
      "戶": 1915,
      "戸": 1916,
      "房": 1917,
      "所": 1918,
      "扁": 1919,
      "扇": 1920,
      "扈": 1921,
      "扉": 1922,
      "手": 1923,
      "才": 1924,
      "扎": 1925,
      "打": 1926,
      "执": 1927,
      "扮": 1928,
      "扶": 1929,
      "批": 1930,
      "找": 1931,
      "承": 1932,
      "技": 1933,
      "抄": 1934,
      "抉": 1935,
      "把": 1936,
      "抑": 1937,
      "抒": 1938,
      "抓": 1939,
      "投": 1940,
      "抖": 1941,
      "抗": 1942,
      "折": 1943,
      "抛": 1944,
      "报": 1945,
      "披": 1946,
      "抱": 1947,
      "抵": 1948,
      "押": 1949,
      "抽": 1950,
      "拂": 1951,
      "拇": 1952,
      "拈": 1953,
      "拉": 1954,
      "拍": 1955,
      "拏": 1956,
      "拒": 1957,
      "拓": 1958,
      "拔": 1959,
      "拘": 1960,
      "拙": 1961,
      "招": 1962,
      "拜": 1963,
      "拮": 1964,
      "拳": 1965,
      "拼": 1966,
      "拾": 1967,
      "拿": 1968,
      "持": 1969,
      "指": 1970,
      "按": 1971,
      "振": 1972,
      "挺": 1973,
      "挾": 1974,
      "捐": 1975,
      "捕": 1976,
      "捧": 1977,
      "捨": 1978,
      "据": 1979,
      "捲": 1980,
      "捷": 1981,
      "捽": 1982,
      "捿": 1983,
      "掃": 1984,
      "授": 1985,
      "掌": 1986,
      "掎": 1987,
      "排": 1988,
      "掘": 1989,
      "掛": 1990,
      "採": 1991,
      "探": 1992,
      "接": 1993,
      "控": 1994,
      "推": 1995,
      "揄": 1996,
      "描": 1997,
      "提": 1998,
      "揚": 1999,
      "換": 2000,
      "握": 2001,
      "揭": 2002,
      "揮": 2003,
      "援": 2004,
      "揶": 2005,
      "揷": 2006,
      "損": 2007,
      "搏": 2008,
      "搔": 2009,
      "搖": 2010,
      "搜": 2011,
      "搬": 2012,
      "携": 2013,
      "摇": 2014,
      "摘": 2015,
      "摠": 2016,
      "摩": 2017,
      "摸": 2018,
      "摹": 2019,
      "摺": 2020,
      "撃": 2021,
      "撑": 2022,
      "撒": 2023,
      "撓": 2024,
      "撗": 2025,
      "撞": 2026,
      "撤": 2027,
      "撥": 2028,
      "撫": 2029,
      "播": 2030,
      "撮": 2031,
      "撲": 2032,
      "撼": 2033,
      "擄": 2034,
      "擇": 2035,
      "擊": 2036,
      "操": 2037,
      "擎": 2038,
      "擔": 2039,
      "據": 2040,
      "擦": 2041,
      "擧": 2042,
      "擬": 2043,
      "擲": 2044,
      "擴": 2045,
      "擾": 2046,
      "攀": 2047,
      "攘": 2048,
      "攜": 2049,
      "攝": 2050,
      "攬": 2051,
      "支": 2052,
      "收": 2053,
      "攷": 2054,
      "改": 2055,
      "攻": 2056,
      "放": 2057,
      "政": 2058,
      "故": 2059,
      "效": 2060,
      "敍": 2061,
      "敎": 2062,
      "敏": 2063,
      "救": 2064,
      "敗": 2065,
      "教": 2066,
      "敞": 2067,
      "散": 2068,
      "敦": 2069,
      "敬": 2070,
      "数": 2071,
      "整": 2072,
      "敵": 2073,
      "敷": 2074,
      "數": 2075,
      "敾": 2076,
      "斂": 2077,
      "文": 2078,
      "斌": 2079,
      "斎": 2080,
      "斐": 2081,
      "斑": 2082,
      "斗": 2083,
      "料": 2084,
      "斛": 2085,
      "斜": 2086,
      "斟": 2087,
      "斤": 2088,
      "斥": 2089,
      "斧": 2090,
      "斩": 2091,
      "斬": 2092,
      "斯": 2093,
      "新": 2094,
      "斷": 2095,
      "方": 2096,
      "於": 2097,
      "施": 2098,
      "旁": 2099,
      "旅": 2100,
      "旋": 2101,
      "旌": 2102,
      "族": 2103,
      "旗": 2104,
      "无": 2105,
      "旣": 2106,
      "日": 2107,
      "旦": 2108,
      "旨": 2109,
      "早": 2110,
      "旬": 2111,
      "旭": 2112,
      "旱": 2113,
      "时": 2114,
      "旺": 2115,
      "旻": 2116,
      "昆": 2117,
      "昇": 2118,
      "昉": 2119,
      "昊": 2120,
      "昌": 2121,
      "明": 2122,
      "昏": 2123,
      "易": 2124,
      "昔": 2125,
      "昕": 2126,
      "星": 2127,
      "映": 2128,
      "春": 2129,
      "昨": 2130,
      "昭": 2131,
      "是": 2132,
      "昶": 2133,
      "昷": 2134,
      "晁": 2135,
      "時": 2136,
      "晃": 2137,
      "晉": 2138,
      "晋": 2139,
      "晏": 2140,
      "晓": 2141,
      "晚": 2142,
      "晛": 2143,
      "晝": 2144,
      "晟": 2145,
      "晦": 2146,
      "晨": 2147,
      "晩": 2148,
      "普": 2149,
      "景": 2150,
      "晴": 2151,
      "晶": 2152,
      "晷": 2153,
      "智": 2154,
      "暄": 2155,
      "暇": 2156,
      "暉": 2157,
      "暎": 2158,
      "暑": 2159,
      "暖": 2160,
      "暗": 2161,
      "暢": 2162,
      "暫": 2163,
      "暮": 2164,
      "暴": 2165,
      "暹": 2166,
      "暻": 2167,
      "曄": 2168,
      "曆": 2169,
      "曉": 2170,
      "曙": 2171,
      "曜": 2172,
      "曝": 2173,
      "曠": 2174,
      "曦": 2175,
      "曬": 2176,
      "曰": 2177,
      "曲": 2178,
      "曳": 2179,
      "更": 2180,
      "書": 2181,
      "曹": 2182,
      "曺": 2183,
      "曼": 2184,
      "曽": 2185,
      "曾": 2186,
      "替": 2187,
      "最": 2188,
      "會": 2189,
      "月": 2190,
      "有": 2191,
      "朋": 2192,
      "服": 2193,
      "朔": 2194,
      "朗": 2195,
      "望": 2196,
      "朝": 2197,
      "期": 2198,
      "木": 2199,
      "未": 2200,
      "末": 2201,
      "本": 2202,
      "札": 2203,
      "朮": 2204,
      "朱": 2205,
      "朴": 2206,
      "朵": 2207,
      "机": 2208,
      "朽": 2209,
      "杆": 2210,
      "杉": 2211,
      "李": 2212,
      "杏": 2213,
      "材": 2214,
      "村": 2215,
      "杓": 2216,
      "杖": 2217,
      "杜": 2218,
      "杞": 2219,
      "束": 2220,
      "条": 2221,
      "来": 2222,
      "杨": 2223,
      "杭": 2224,
      "杯": 2225,
      "杰": 2226,
      "東": 2227,
      "杵": 2228,
      "松": 2229,
      "板": 2230,
      "极": 2231,
      "枋": 2232,
      "枏": 2233,
      "析": 2234,
      "枓": 2235,
      "枕": 2236,
      "林": 2237,
      "枚": 2238,
      "果": 2239,
      "枝": 2240,
      "枯": 2241,
      "枳": 2242,
      "架": 2243,
      "枾": 2244,
      "柄": 2245,
      "柏": 2246,
      "某": 2247,
      "柑": 2248,
      "柒": 2249,
      "染": 2250,
      "柔": 2251,
      "查": 2252,
      "柬": 2253,
      "柯": 2254,
      "柱": 2255,
      "柳": 2256,
      "柴": 2257,
      "柵": 2258,
      "査": 2259,
      "栃": 2260,
      "栄": 2261,
      "标": 2262,
      "树": 2263,
      "栓": 2264,
      "栖": 2265,
      "栗": 2266,
      "校": 2267,
      "栢": 2268,
      "株": 2269,
      "栱": 2270,
      "核": 2271,
      "根": 2272,
      "格": 2273,
      "栽": 2274,
      "桀": 2275,
      "桂": 2276,
      "桃": 2277,
      "案": 2278,
      "桎": 2279,
      "桐": 2280,
      "桑": 2281,
      "桓": 2282,
      "桔": 2283,
      "桦": 2284,
      "桶": 2285,
      "梁": 2286,
      "梅": 2287,
      "梏": 2288,
      "梓": 2289,
      "條": 2290,
      "梧": 2291,
      "梨": 2292,
      "梯": 2293,
      "梱": 2294,
      "梵": 2295,
      "梶": 2296,
      "棄": 2297,
      "棉": 2298,
      "棋": 2299,
      "棍": 2300,
      "棒": 2301,
      "棗": 2302,
      "棘": 2303,
      "棚": 2304,
      "棟": 2305,
      "棠": 2306,
      "棣": 2307,
      "棧": 2308,
      "森": 2309,
      "棲": 2310,
      "棺": 2311,
      "椄": 2312,
      "椅": 2313,
      "植": 2314,
      "椎": 2315,
      "椒": 2316,
      "椰": 2317,
      "楊": 2318,
      "楓": 2319,
      "楙": 2320,
      "楚": 2321,
      "楞": 2322,
      "楠": 2323,
      "楡": 2324,
      "楣": 2325,
      "楨": 2326,
      "業": 2327,
      "楮": 2328,
      "極": 2329,
      "楷": 2330,
      "楸": 2331,
      "楽": 2332,
      "概": 2333,
      "榊": 2334,
      "榕": 2335,
      "榘": 2336,
      "榜": 2337,
      "榨": 2338,
      "榮": 2339,
      "榴": 2340,
      "構": 2341,
      "槍": 2342,
      "槐": 2343,
      "槨": 2344,
      "槪": 2345,
      "槳": 2346,
      "槽": 2347,
      "槿": 2348,
      "樂": 2349,
      "樊": 2350,
      "樑": 2351,
      "樓": 2352,
      "標": 2353,
      "樞": 2354,
      "模": 2355,
      "樣": 2356,
      "横": 2357,
      "樵": 2358,
      "樸": 2359,
      "樹": 2360,
      "樺": 2361,
      "樽": 2362,
      "橈": 2363,
      "橋": 2364,
      "橘": 2365,
      "橙": 2366,
      "機": 2367,
      "橡": 2368,
      "橫": 2369,
      "檀": 2370,
      "檄": 2371,
      "檍": 2372,
      "檜": 2373,
      "檢": 2374,
      "檸": 2375,
      "櫓": 2376,
      "櫛": 2377,
      "櫻": 2378,
      "欄": 2379,
      "權": 2380,
      "欌": 2381,
      "欏": 2382,
      "次": 2383,
      "欢": 2384,
      "欣": 2385,
      "欧": 2386,
      "欲": 2387,
      "欺": 2388,
      "欽": 2389,
      "款": 2390,
      "歆": 2391,
      "歌": 2392,
      "歎": 2393,
      "歐": 2394,
      "歡": 2395,
      "止": 2396,
      "正": 2397,
      "此": 2398,
      "步": 2399,
      "武": 2400,
      "歧": 2401,
      "歲": 2402,
      "歳": 2403,
      "歷": 2404,
      "歸": 2405,
      "死": 2406,
      "殆": 2407,
      "殉": 2408,
      "殊": 2409,
      "残": 2410,
      "殖": 2411,
      "殘": 2412,
      "殮": 2413,
      "殲": 2414,
      "段": 2415,
      "殷": 2416,
      "殺": 2417,
      "殼": 2418,
      "殿": 2419,
      "毁": 2420,
      "毅": 2421,
      "毆": 2422,
      "毋": 2423,
      "母": 2424,
      "每": 2425,
      "毒": 2426,
      "毓": 2427,
      "比": 2428,
      "毘": 2429,
      "毛": 2430,
      "毫": 2431,
      "毬": 2432,
      "氈": 2433,
      "氏": 2434,
      "民": 2435,
      "气": 2436,
      "気": 2437,
      "氛": 2438,
      "氣": 2439,
      "氧": 2440,
      "氪": 2441,
      "氫": 2442,
      "水": 2443,
      "氷": 2444,
      "永": 2445,
      "汀": 2446,
      "求": 2447,
      "汉": 2448,
      "汎": 2449,
      "汕": 2450,
      "汗": 2451,
      "汚": 2452,
      "汝": 2453,
      "江": 2454,
      "池": 2455,
      "汤": 2456,
      "汪": 2457,
      "汲": 2458,
      "決": 2459,
      "汽": 2460,
      "汾": 2461,
      "沂": 2462,
      "沃": 2463,
      "沆": 2464,
      "沈": 2465,
      "沐": 2466,
      "沒": 2467,
      "沓": 2468,
      "沔": 2469,
      "沖": 2470,
      "沘": 2471,
      "沙": 2472,
      "沛": 2473,
      "沢": 2474,
      "沣": 2475,
      "沪": 2476,
      "沫": 2477,
      "河": 2478,
      "沸": 2479,
      "油": 2480,
      "治": 2481,
      "沼": 2482,
      "沿": 2483,
      "況": 2484,
      "泄": 2485,
      "泉": 2486,
      "泊": 2487,
      "泓": 2488,
      "法": 2489,
      "泗": 2490,
      "泛": 2491,
      "泡": 2492,
      "波": 2493,
      "泣": 2494,
      "泥": 2495,
      "注": 2496,
      "泫": 2497,
      "泰": 2498,
      "泳": 2499,
      "洁": 2500,
      "洄": 2501,
      "洋": 2502,
      "洌": 2503,
      "洑": 2504,
      "洗": 2505,
      "洙": 2506,
      "洛": 2507,
      "洞": 2508,
      "津": 2509,
      "洪": 2510,
      "洱": 2511,
      "洲": 2512,
      "活": 2513,
      "洽": 2514,
      "派": 2515,
      "流": 2516,
      "济": 2517,
      "浙": 2518,
      "浚": 2519,
      "浜": 2520,
      "浣": 2521,
      "浦": 2522,
      "浩": 2523,
      "浪": 2524,
      "浮": 2525,
      "浴": 2526,
      "海": 2527,
      "浸": 2528,
      "浿": 2529,
      "涅": 2530,
      "消": 2531,
      "涉": 2532,
      "涌": 2533,
      "涓": 2534,
      "涖": 2535,
      "涡": 2536,
      "涨": 2537,
      "涯": 2538,
      "液": 2539,
      "涵": 2540,
      "淀": 2541,
      "淄": 2542,
      "淇": 2543,
      "淋": 2544,
      "淑": 2545,
      "淘": 2546,
      "淡": 2547,
      "淨": 2548,
      "淩": 2549,
      "淮": 2550,
      "深": 2551,
      "淳": 2552,
      "淵": 2553,
      "混": 2554,
      "淸": 2555,
      "淹": 2556,
      "淺": 2557,
      "添": 2558,
      "清": 2559,
      "済": 2560,
      "渔": 2561,
      "渕": 2562,
      "渚": 2563,
      "減": 2564,
      "渠": 2565,
      "渡": 2566,
      "渤": 2567,
      "渥": 2568,
      "渦": 2569,
      "温": 2570,
      "渫": 2571,
      "測": 2572,
      "渭": 2573,
      "港": 2574,
      "渴": 2575,
      "游": 2576,
      "渺": 2577,
      "渼": 2578,
      "渾": 2579,
      "湃": 2580,
      "湍": 2581,
      "湖": 2582,
      "湘": 2583,
      "湛": 2584,
      "湜": 2585,
      "湧": 2586,
      "湫": 2587,
      "湯": 2588,
      "湾": 2589,
      "源": 2590,
      "準": 2591,
      "溜": 2592,
      "溝": 2593,
      "溟": 2594,
      "溢": 2595,
      "溧": 2596,
      "溪": 2597,
      "溫": 2598,
      "溶": 2599,
      "溺": 2600,
      "滄": 2601,
      "滅": 2602,
      "滉": 2603,
      "滋": 2604,
      "滑": 2605,
      "滓": 2606,
      "滔": 2607,
      "滕": 2608,
      "滚": 2609,
      "滞": 2610,
      "满": 2611,
      "滨": 2612,
      "滬": 2613,
      "滯": 2614,
      "滴": 2615,
      "滿": 2616,
      "漁": 2617,
      "漂": 2618,
      "漆": 2619,
      "漏": 2620,
      "漑": 2621,
      "演": 2622,
      "漕": 2623,
      "漠": 2624,
      "漢": 2625,
      "漩": 2626,
      "漫": 2627,
      "漬": 2628,
      "漱": 2629,
      "漸": 2630,
      "漾": 2631,
      "漿": 2632,
      "潁": 2633,
      "潑": 2634,
      "潔": 2635,
      "潗": 2636,
      "潘": 2637,
      "潛": 2638,
      "潞": 2639,
      "潟": 2640,
      "潢": 2641,
      "潤": 2642,
      "潭": 2643,
      "潮": 2644,
      "澁": 2645,
      "澄": 2646,
      "澇": 2647,
      "澈": 2648,
      "澍": 2649,
      "澎": 2650,
      "澐": 2651,
      "澗": 2652,
      "澣": 2653,
      "澤": 2654,
      "澮": 2655,
      "澱": 2656,
      "澳": 2657,
      "澹": 2658,
      "激": 2659,
      "濁": 2660,
      "濃": 2661,
      "濕": 2662,
      "濞": 2663,
      "濟": 2664,
      "濠": 2665,
      "濡": 2666,
      "濤": 2667,
      "濩": 2668,
      "濫": 2669,
      "濬": 2670,
      "濮": 2671,
      "濰": 2672,
      "濱": 2673,
      "濾": 2674,
      "瀆": 2675,
      "瀋": 2676,
      "瀑": 2677,
      "瀕": 2678,
      "瀘": 2679,
      "瀚": 2680,
      "瀛": 2681,
      "瀝": 2682,
      "瀟": 2683,
      "瀧": 2684,
      "瀨": 2685,
      "瀬": 2686,
      "瀷": 2687,
      "瀾": 2688,
      "灌": 2689,
      "灑": 2690,
      "灘": 2691,
      "灝": 2692,
      "灠": 2693,
      "灣": 2694,
      "火": 2695,
      "灰": 2696,
      "灸": 2697,
      "灼": 2698,
      "災": 2699,
      "炎": 2700,
      "炒": 2701,
      "炙": 2702,
      "炫": 2703,
      "炬": 2704,
      "炭": 2705,
      "炮": 2706,
      "炯": 2707,
      "炳": 2708,
      "炸": 2709,
      "点": 2710,
      "為": 2711,
      "烈": 2712,
      "烏": 2713,
      "烙": 2714,
      "烟": 2715,
      "烯": 2716,
      "烹": 2717,
      "烽": 2718,
      "焉": 2719,
      "焕": 2720,
      "焚": 2721,
      "無": 2722,
      "焦": 2723,
      "然": 2724,
      "焼": 2725,
      "煉": 2726,
      "煌": 2727,
      "煎": 2728,
      "煒": 2729,
      "煙": 2730,
      "煜": 2731,
      "煤": 2732,
      "煥": 2733,
      "照": 2734,
      "煩": 2735,
      "煮": 2736,
      "熄": 2737,
      "熊": 2738,
      "熏": 2739,
      "熔": 2740,
      "熙": 2741,
      "熟": 2742,
      "熱": 2743,
      "熹": 2744,
      "燃": 2745,
      "燈": 2746,
      "燐": 2747,
      "燒": 2748,
      "燕": 2749,
      "營": 2750,
      "燦": 2751,
      "燧": 2752,
      "燭": 2753,
      "燮": 2754,
      "燻": 2755,
      "爆": 2756,
      "爐": 2757,
      "爛": 2758,
      "爪": 2759,
      "爭": 2760,
      "爱": 2761,
      "爲": 2762,
      "爵": 2763,
      "父": 2764,
      "爸": 2765,
      "爽": 2766,
      "爾": 2767,
      "牀": 2768,
      "牆": 2769,
      "片": 2770,
      "版": 2771,
      "牌": 2772,
      "牒": 2773,
      "牘": 2774,
      "牙": 2775,
      "牛": 2776,
      "牟": 2777,
      "牡": 2778,
      "牧": 2779,
      "物": 2780,
      "牲": 2781,
      "特": 2782,
      "牽": 2783,
      "犀": 2784,
      "犁": 2785,
      "犧": 2786,
      "犬": 2787,
      "犯": 2788,
      "狀": 2789,
      "狂": 2790,
      "狄": 2791,
      "狐": 2792,
      "狗": 2793,
      "狩": 2794,
      "独": 2795,
      "狱": 2796,
      "狸": 2797,
      "狹": 2798,
      "狼": 2799,
      "猊": 2800,
      "猛": 2801,
      "猜": 2802,
      "猩": 2803,
      "猪": 2804,
      "猫": 2805,
      "献": 2806,
      "猴": 2807,
      "猶": 2808,
      "猿": 2809,
      "獄": 2810,
      "獅": 2811,
      "獐": 2812,
      "獒": 2813,
      "獨": 2814,
      "獲": 2815,
      "獵": 2816,
      "獸": 2817,
      "獻": 2818,
      "玄": 2819,
      "玆": 2820,
      "率": 2821,
      "玉": 2822,
      "王": 2823,
      "玖": 2824,
      "玠": 2825,
      "玩": 2826,
      "环": 2827,
      "现": 2828,
      "玲": 2829,
      "玳": 2830,
      "玻": 2831,
      "珀": 2832,
      "珂": 2833,
      "珊": 2834,
      "珍": 2835,
      "珠": 2836,
      "珥": 2837,
      "班": 2838,
      "珽": 2839,
      "現": 2840,
      "球": 2841,
      "理": 2842,
      "琉": 2843,
      "琢": 2844,
      "琦": 2845,
      "琨": 2846,
      "琪": 2847,
      "琫": 2848,
      "琳": 2849,
      "琴": 2850,
      "琼": 2851,
      "瑀": 2852,
      "瑁": 2853,
      "瑋": 2854,
      "瑙": 2855,
      "瑚": 2856,
      "瑜": 2857,
      "瑞": 2858,
      "瑟": 2859,
      "瑣": 2860,
      "瑤": 2861,
      "瑩": 2862,
      "瑪": 2863,
      "璃": 2864,
      "璋": 2865,
      "璘": 2866,
      "璞": 2867,
      "璧": 2868,
      "環": 2869,
      "璽": 2870,
      "璿": 2871,
      "瓊": 2872,
      "瓚": 2873,
      "瓜": 2874,
      "瓠": 2875,
      "瓣": 2876,
      "瓦": 2877,
      "瓷": 2878,
      "甁": 2879,
      "甄": 2880,
      "甑": 2881,
      "甘": 2882,
      "甚": 2883,
      "甛": 2884,
      "甜": 2885,
      "生": 2886,
      "產": 2887,
      "産": 2888,
      "甦": 2889,
      "用": 2890,
      "甫": 2891,
      "甬": 2892,
      "甯": 2893,
      "田": 2894,
      "由": 2895,
      "甲": 2896,
      "申": 2897,
      "电": 2898,
      "男": 2899,
      "甸": 2900,
      "町": 2901,
      "画": 2902,
      "畅": 2903,
      "界": 2904,
      "畏": 2905,
      "畑": 2906,
      "畓": 2907,
      "留": 2908,
      "畜": 2909,
      "畝": 2910,
      "畢": 2911,
      "略": 2912,
      "番": 2913,
      "畫": 2914,
      "異": 2915,
      "畵": 2916,
      "當": 2917,
      "畿": 2918,
      "疆": 2919,
      "疊": 2920,
      "疎": 2921,
      "疏": 2922,
      "疑": 2923,
      "疫": 2924,
      "疱": 2925,
      "疲": 2926,
      "疹": 2927,
      "疽": 2928,
      "疾": 2929,
      "病": 2930,
      "症": 2931,
      "痍": 2932,
      "痒": 2933,
      "痔": 2934,
      "痕": 2935,
      "痘": 2936,
      "痛": 2937,
      "痢": 2938,
      "痰": 2939,
      "痲": 2940,
      "痴": 2941,
      "痺": 2942,
      "瘀": 2943,
      "瘡": 2944,
      "瘤": 2945,
      "瘪": 2946,
      "瘻": 2947,
      "癀": 2948,
      "療": 2949,
      "癌": 2950,
      "癎": 2951,
      "癒": 2952,
      "癖": 2953,
      "癘": 2954,
      "癡": 2955,
      "癬": 2956,
      "癸": 2957,
      "登": 2958,
      "發": 2959,
      "白": 2960,
      "百": 2961,
      "的": 2962,
      "皆": 2963,
      "皇": 2964,
      "皐": 2965,
      "皓": 2966,
      "皮": 2967,
      "盃": 2968,
      "盆": 2969,
      "盈": 2970,
      "益": 2971,
      "盐": 2972,
      "盒": 2973,
      "盘": 2974,
      "盛": 2975,
      "盜": 2976,
      "盟": 2977,
      "盡": 2978,
      "監": 2979,
      "盤": 2980,
      "盧": 2981,
      "目": 2982,
      "盲": 2983,
      "直": 2984,
      "相": 2985,
      "盾": 2986,
      "省": 2987,
      "眄": 2988,
      "眈": 2989,
      "眉": 2990,
      "看": 2991,
      "県": 2992,
      "眞": 2993,
      "真": 2994,
      "眠": 2995,
      "眭": 2996,
      "眯": 2997,
      "眼": 2998,
      "眾": 2999,
      "着": 3000,
      "睒": 3001,
      "睛": 3002,
      "睡": 3003,
      "督": 3004,
      "睦": 3005,
      "睫": 3006,
      "睿": 3007,
      "瞬": 3008,
      "瞭": 3009,
      "瞰": 3010,
      "瞳": 3011,
      "瞻": 3012,
      "矗": 3013,
      "矛": 3014,
      "矢": 3015,
      "矣": 3016,
      "知": 3017,
      "矩": 3018,
      "短": 3019,
      "矯": 3020,
      "石": 3021,
      "矽": 3022,
      "砂": 3023,
      "研": 3024,
      "砥": 3025,
      "砲": 3026,
      "破": 3027,
      "硅": 3028,
      "硏": 3029,
      "硫": 3030,
      "硬": 3031,
      "硯": 3032,
      "碁": 3033,
      "碍": 3034,
      "碎": 3035,
      "碑": 3036,
      "碗": 3037,
      "碡": 3038,
      "碣": 3039,
      "碧": 3040,
      "碩": 3041,
      "碰": 3042,
      "碳": 3043,
      "確": 3044,
      "碼": 3045,
      "磁": 3046,
      "磊": 3047,
      "磋": 3048,
      "磎": 3049,
      "磐": 3050,
      "磚": 3051,
      "磨": 3052,
      "磬": 3053,
      "磯": 3054,
      "磻": 3055,
      "礁": 3056,
      "礎": 3057,
      "礙": 3058,
      "礦": 3059,
      "示": 3060,
      "社": 3061,
      "祀": 3062,
      "祁": 3063,
      "祇": 3064,
      "祈": 3065,
      "祐": 3066,
      "祕": 3067,
      "祖": 3068,
      "祚": 3069,
      "祜": 3070,
      "祝": 3071,
      "神": 3072,
      "祠": 3073,
      "祥": 3074,
      "祧": 3075,
      "票": 3076,
      "祭": 3077,
      "祺": 3078,
      "祿": 3079,
      "禁": 3080,
      "禍": 3081,
      "禎": 3082,
      "福": 3083,
      "禦": 3084,
      "禧": 3085,
      "禪": 3086,
      "禮": 3087,
      "禱": 3088,
      "禳": 3089,
      "禹": 3090,
      "禽": 3091,
      "禾": 3092,
      "秀": 3093,
      "私": 3094,
      "秉": 3095,
      "秊": 3096,
      "秋": 3097,
      "科": 3098,
      "秒": 3099,
      "秘": 3100,
      "租": 3101,
      "秤": 3102,
      "秦": 3103,
      "秧": 3104,
      "秩": 3105,
      "积": 3106,
      "移": 3107,
      "稀": 3108,
      "稅": 3109,
      "程": 3110,
      "稔": 3111,
      "稚": 3112,
      "種": 3113,
      "稱": 3114,
      "稲": 3115,
      "稷": 3116,
      "稻": 3117,
      "稽": 3118,
      "稿": 3119,
      "穀": 3120,
      "穆": 3121,
      "積": 3122,
      "穎": 3123,
      "穗": 3124,
      "穡": 3125,
      "穩": 3126,
      "穴": 3127,
      "究": 3128,
      "穹": 3129,
      "空": 3130,
      "穿": 3131,
      "突": 3132,
      "窒": 3133,
      "窓": 3134,
      "窖": 3135,
      "窝": 3136,
      "窟": 3137,
      "窩": 3138,
      "窮": 3139,
      "窯": 3140,
      "立": 3141,
      "站": 3142,
      "竝": 3143,
      "竟": 3144,
      "章": 3145,
      "竣": 3146,
      "童": 3147,
      "竪": 3148,
      "端": 3149,
      "競": 3150,
      "竹": 3151,
      "竺": 3152,
      "竿": 3153,
      "笏": 3154,
      "笑": 3155,
      "笛": 3156,
      "笞": 3157,
      "笠": 3158,
      "符": 3159,
      "第": 3160,
      "笭": 3161,
      "笹": 3162,
      "筆": 3163,
      "等": 3164,
      "筋": 3165,
      "筍": 3166,
      "筑": 3167,
      "筒": 3168,
      "答": 3169,
      "策": 3170,
      "筠": 3171,
      "筵": 3172,
      "筷": 3173,
      "箇": 3174,
      "箋": 3175,
      "箍": 3176,
      "箔": 3177,
      "箕": 3178,
      "算": 3179,
      "箚": 3180,
      "管": 3181,
      "箭": 3182,
      "箱": 3183,
      "箴": 3184,
      "節": 3185,
      "範": 3186,
      "篆": 3187,
      "篇": 3188,
      "築": 3189,
      "篠": 3190,
      "篤": 3191,
      "篦": 3192,
      "篪": 3193,
      "簒": 3194,
      "簡": 3195,
      "簪": 3196,
      "簾": 3197,
      "簿": 3198,
      "籌": 3199,
      "籍": 3200,
      "籠": 3201,
      "籬": 3202,
      "米": 3203,
      "粉": 3204,
      "粕": 3205,
      "粗": 3206,
      "粘": 3207,
      "粤": 3208,
      "粥": 3209,
      "粧": 3210,
      "粪": 3211,
      "粮": 3212,
      "粱": 3213,
      "粵": 3214,
      "粽": 3215,
      "精": 3216,
      "糊": 3217,
      "糕": 3218,
      "糖": 3219,
      "糞": 3220,
      "糠": 3221,
      "糧": 3222,
      "系": 3223,
      "紀": 3224,
      "約": 3225,
      "紅": 3226,
      "紋": 3227,
      "納": 3228,
      "紐": 3229,
      "純": 3230,
      "紗": 3231,
      "紘": 3232,
      "紙": 3233,
      "級": 3234,
      "紛": 3235,
      "素": 3236,
      "紡": 3237,
      "索": 3238,
      "紫": 3239,
      "紬": 3240,
      "紮": 3241,
      "累": 3242,
      "細": 3243,
      "紳": 3244,
      "紹": 3245,
      "終": 3246,
      "絃": 3247,
      "組": 3248,
      "絆": 3249,
      "経": 3250,
      "結": 3251,
      "絕": 3252,
      "絡": 3253,
      "給": 3254,
      "絨": 3255,
      "統": 3256,
      "絲": 3257,
      "絵": 3258,
      "絶": 3259,
      "絹": 3260,
      "絿": 3261,
      "綃": 3262,
      "綏": 3263,
      "經": 3264,
      "継": 3265,
      "続": 3266,
      "綜": 3267,
      "綠": 3268,
      "綬": 3269,
      "維": 3270,
      "綱": 3271,
      "網": 3272,
      "綴": 3273,
      "綵": 3274,
      "綸": 3275,
      "綺": 3276,
      "綾": 3277,
      "綿": 3278,
      "緊": 3279,
      "緋": 3280,
      "総": 3281,
      "緖": 3282,
      "線": 3283,
      "締": 3284,
      "緣": 3285,
      "編": 3286,
      "緩": 3287,
      "緯": 3288,
      "練": 3289,
      "緻": 3290,
      "縄": 3291,
      "縣": 3292,
      "縫": 3293,
      "縮": 3294,
      "縱": 3295,
      "總": 3296,
      "績": 3297,
      "繁": 3298,
      "繆": 3299,
      "織": 3300,
      "繕": 3301,
      "繚": 3302,
      "繞": 3303,
      "繡": 3304,
      "繩": 3305,
      "繪": 3306,
      "繫": 3307,
      "繼": 3308,
      "繽": 3309,
      "纂": 3310,
      "續": 3311,
      "纛": 3312,
      "红": 3313,
      "级": 3314,
      "纬": 3315,
      "纳": 3316,
      "纸": 3317,
      "组": 3318,
      "经": 3319,
      "络": 3320,
      "继": 3321,
      "维": 3322,
      "绿": 3323,
      "缺": 3324,
      "网": 3325,
      "罔": 3326,
      "罪": 3327,
      "置": 3328,
      "罰": 3329,
      "署": 3330,
      "罷": 3331,
      "羅": 3332,
      "羈": 3333,
      "羊": 3334,
      "美": 3335,
      "羚": 3336,
      "羞": 3337,
      "群": 3338,
      "羨": 3339,
      "義": 3340,
      "羲": 3341,
      "羹": 3342,
      "羽": 3343,
      "翁": 3344,
      "翅": 3345,
      "翊": 3346,
      "翌": 3347,
      "翎": 3348,
      "習": 3349,
      "翔": 3350,
      "翟": 3351,
      "翠": 3352,
      "翥": 3353,
      "翰": 3354,
      "翹": 3355,
      "翻": 3356,
      "翼": 3357,
      "耀": 3358,
      "老": 3359,
      "考": 3360,
      "者": 3361,
      "耆": 3362,
      "而": 3363,
      "耐": 3364,
      "耕": 3365,
      "耗": 3366,
      "耘": 3367,
      "耳": 3368,
      "耶": 3369,
      "耽": 3370,
      "耿": 3371,
      "聂": 3372,
      "聃": 3373,
      "职": 3374,
      "联": 3375,
      "聖": 3376,
      "聘": 3377,
      "聚": 3378,
      "聞": 3379,
      "聯": 3380,
      "聰": 3381,
      "聲": 3382,
      "聶": 3383,
      "職": 3384,
      "聽": 3385,
      "聾": 3386,
      "肅": 3387,
      "肇": 3388,
      "肉": 3389,
      "肋": 3390,
      "肌": 3391,
      "肖": 3392,
      "肛": 3393,
      "肝": 3394,
      "股": 3395,
      "肢": 3396,
      "肥": 3397,
      "肩": 3398,
      "育": 3399,
      "肺": 3400,
      "胃": 3401,
      "胄": 3402,
      "背": 3403,
      "胎": 3404,
      "胖": 3405,
      "胜": 3406,
      "胞": 3407,
      "胡": 3408,
      "胤": 3409,
      "胥": 3410,
      "胸": 3411,
      "能": 3412,
      "脂": 3413,
      "脆": 3414,
      "脇": 3415,
      "脈": 3416,
      "脉": 3417,
      "脊": 3418,
      "脚": 3419,
      "脣": 3420,
      "脩": 3421,
      "脫": 3422,
      "脯": 3423,
      "脾": 3424,
      "腋": 3425,
      "腎": 3426,
      "腐": 3427,
      "腑": 3428,
      "腔": 3429,
      "腕": 3430,
      "腦": 3431,
      "腫": 3432,
      "腸": 3433,
      "腹": 3434,
      "腺": 3435,
      "腾": 3436,
      "腿": 3437,
      "膏": 3438,
      "膜": 3439,
      "膝": 3440,
      "膠": 3441,
      "膣": 3442,
      "膳": 3443,
      "膺": 3444,
      "膽": 3445,
      "膾": 3446,
      "臆": 3447,
      "臘": 3448,
      "臟": 3449,
      "臣": 3450,
      "臥": 3451,
      "臨": 3452,
      "自": 3453,
      "臭": 3454,
      "至": 3455,
      "致": 3456,
      "臺": 3457,
      "臼": 3458,
      "與": 3459,
      "興": 3460,
      "舊": 3461,
      "舌": 3462,
      "舍": 3463,
      "舎": 3464,
      "舒": 3465,
      "舛": 3466,
      "舜": 3467,
      "舞": 3468,
      "舟": 3469,
      "航": 3470,
      "般": 3471,
      "舵": 3472,
      "舶": 3473,
      "舷": 3474,
      "船": 3475,
      "艀": 3476,
      "艇": 3477,
      "艙": 3478,
      "艦": 3479,
      "艮": 3480,
      "良": 3481,
      "艱": 3482,
      "色": 3483,
      "艶": 3484,
      "艸": 3485,
      "艺": 3486,
      "艾": 3487,
      "节": 3488,
      "芒": 3489,
      "芙": 3490,
      "芚": 3491,
      "芜": 3492,
      "芝": 3493,
      "芬": 3494,
      "芭": 3495,
      "芮": 3496,
      "芯": 3497,
      "花": 3498,
      "芳": 3499,
      "芷": 3500,
      "芸": 3501,
      "芹": 3502,
      "芻": 3503,
      "芽": 3504,
      "苏": 3505,
      "苑": 3506,
      "苔": 3507,
      "苕": 3508,
      "苗": 3509,
      "苛": 3510,
      "苞": 3511,
      "苟": 3512,
      "若": 3513,
      "苦": 3514,
      "英": 3515,
      "茂": 3516,
      "范": 3517,
      "茅": 3518,
      "茨": 3519,
      "茫": 3520,
      "茯": 3521,
      "茶": 3522,
      "茸": 3523,
      "荀": 3524,
      "荆": 3525,
      "草": 3526,
      "荊": 3527,
      "荒": 3528,
      "荔": 3529,
      "荣": 3530,
      "药": 3531,
      "荷": 3532,
      "荻": 3533,
      "莉": 3534,
      "莊": 3535,
      "莎": 3536,
      "莒": 3537,
      "莖": 3538,
      "莞": 3539,
      "莫": 3540,
      "莱": 3541,
      "菁": 3542,
      "菅": 3543,
      "菊": 3544,
      "菌": 3545,
      "菓": 3546,
      "菖": 3547,
      "菜": 3548,
      "菩": 3549,
      "華": 3550,
      "菱": 3551,
      "菲": 3552,
      "菴": 3553,
      "萁": 3554,
      "萄": 3555,
      "萊": 3556,
      "萌": 3557,
      "萍": 3558,
      "萩": 3559,
      "萬": 3560,
      "萱": 3561,
      "萸": 3562,
      "落": 3563,
      "葆": 3564,
      "葉": 3565,
      "著": 3566,
      "葛": 3567,
      "葡": 3568,
      "董": 3569,
      "葦": 3570,
      "葬": 3571,
      "葯": 3572,
      "葱": 3573,
      "蒂": 3574,
      "蒔": 3575,
      "蒙": 3576,
      "蒜": 3577,
      "蒲": 3578,
      "蒸": 3579,
      "蒼": 3580,
      "蓄": 3581,
      "蓉": 3582,
      "蓋": 3583,
      "蓑": 3584,
      "蓝": 3585,
      "蓬": 3586,
      "蓮": 3587,
      "蓴": 3588,
      "蓼": 3589,
      "蔓": 3590,
      "蔔": 3591,
      "蔘": 3592,
      "蔚": 3593,
      "蔡": 3594,
      "蔣": 3595,
      "蔬": 3596,
      "蔵": 3597,
      "蔽": 3598,
      "蔿": 3599,
      "蕃": 3600,
      "蕉": 3601,
      "蕓": 3602,
      "蕙": 3603,
      "蕩": 3604,
      "蕪": 3605,
      "蕭": 3606,
      "蕾": 3607,
      "薄": 3608,
      "薇": 3609,
      "薑": 3610,
      "薛": 3611,
      "薦": 3612,
      "薩": 3613,
      "薪": 3614,
      "藁": 3615,
      "藉": 3616,
      "藍": 3617,
      "藏": 3618,
      "藕": 3619,
      "藜": 3620,
      "藝": 3621,
      "藤": 3622,
      "藥": 3623,
      "藩": 3624,
      "藪": 3625,
      "藻": 3626,
      "蘆": 3627,
      "蘇": 3628,
      "蘊": 3629,
      "蘋": 3630,
      "蘭": 3631,
      "蘿": 3632,
      "虎": 3633,
      "處": 3634,
      "虛": 3635,
      "虜": 3636,
      "虞": 3637,
      "號": 3638,
      "虫": 3639,
      "虹": 3640,
      "蚊": 3641,
      "蚌": 3642,
      "蚤": 3643,
      "蛇": 3644,
      "蛋": 3645,
      "蛙": 3646,
      "蛛": 3647,
      "蛟": 3648,
      "蜀": 3649,
      "蜂": 3650,
      "蜓": 3651,
      "蜘": 3652,
      "蜜": 3653,
      "蜻": 3654,
      "蝕": 3655,
      "蝟": 3656,
      "蝦": 3657,
      "蝶": 3658,
      "蝸": 3659,
      "螂": 3660,
      "螄": 3661,
      "融": 3662,
      "螢": 3663,
      "螳": 3664,
      "螺": 3665,
      "蟄": 3666,
      "蟬": 3667,
      "蟲": 3668,
      "蟹": 3669,
      "蟾": 3670,
      "蠅": 3671,
      "蠟": 3672,
      "蠶": 3673,
      "蠻": 3674,
      "血": 3675,
      "衆": 3676,
      "行": 3677,
      "衍": 3678,
      "術": 3679,
      "街": 3680,
      "衙": 3681,
      "衛": 3682,
      "衝": 3683,
      "衡": 3684,
      "衢": 3685,
      "衣": 3686,
      "表": 3687,
      "衫": 3688,
      "衰": 3689,
      "衲": 3690,
      "衷": 3691,
      "袁": 3692,
      "袋": 3693,
      "袍": 3694,
      "袖": 3695,
      "袗": 3696,
      "被": 3697,
      "袴": 3698,
      "裁": 3699,
      "裂": 3700,
      "装": 3701,
      "裏": 3702,
      "裕": 3703,
      "補": 3704,
      "裝": 3705,
      "裡": 3706,
      "裳": 3707,
      "裵": 3708,
      "裸": 3709,
      "製": 3710,
      "複": 3711,
      "褐": 3712,
      "褒": 3713,
      "褙": 3714,
      "褚": 3715,
      "褶": 3716,
      "襄": 3717,
      "襟": 3718,
      "襲": 3719,
      "西": 3720,
      "要": 3721,
      "覃": 3722,
      "覆": 3723,
      "覇": 3724,
      "見": 3725,
      "規": 3726,
      "覓": 3727,
      "視": 3728,
      "親": 3729,
      "覲": 3730,
      "覺": 3731,
      "覽": 3732,
      "觀": 3733,
      "见": 3734,
      "观": 3735,
      "视": 3736,
      "角": 3737,
      "解": 3738,
      "觴": 3739,
      "觸": 3740,
      "言": 3741,
      "訂": 3742,
      "訃": 3743,
      "計": 3744,
      "訊": 3745,
      "訌": 3746,
      "討": 3747,
      "訓": 3748,
      "託": 3749,
      "記": 3750,
      "訟": 3751,
      "訣": 3752,
      "訥": 3753,
      "訪": 3754,
      "設": 3755,
      "許": 3756,
      "訴": 3757,
      "訶": 3758,
      "診": 3759,
      "註": 3760,
      "詐": 3761,
      "詔": 3762,
      "評": 3763,
      "詞": 3764,
      "詠": 3765,
      "詢": 3766,
      "試": 3767,
      "詩": 3768,
      "詮": 3769,
      "話": 3770,
      "詳": 3771,
      "詵": 3772,
      "誅": 3773,
      "誇": 3774,
      "誌": 3775,
      "認": 3776,
      "誕": 3777,
      "誘": 3778,
      "語": 3779,
      "誠": 3780,
      "誡": 3781,
      "誣": 3782,
      "誤": 3783,
      "誥": 3784,
      "誦": 3785,
      "誨": 3786,
      "說": 3787,
      "読": 3788,
      "誰": 3789,
      "課": 3790,
      "誼": 3791,
      "調": 3792,
      "談": 3793,
      "請": 3794,
      "諍": 3795,
      "諏": 3796,
      "論": 3797,
      "諜": 3798,
      "諡": 3799,
      "諧": 3800,
      "諭": 3801,
      "諮": 3802,
      "諱": 3803,
      "諷": 3804,
      "諸": 3805,
      "諺": 3806,
      "諾": 3807,
      "謀": 3808,
      "謂": 3809,
      "謄": 3810,
      "謇": 3811,
      "謔": 3812,
      "謖": 3813,
      "謗": 3814,
      "謙": 3815,
      "講": 3816,
      "謝": 3817,
      "謠": 3818,
      "謨": 3819,
      "謫": 3820,
      "謬": 3821,
      "謹": 3822,
      "證": 3823,
      "識": 3824,
      "譚": 3825,
      "譜": 3826,
      "警": 3827,
      "譫": 3828,
      "譬": 3829,
      "譯": 3830,
      "議": 3831,
      "護": 3832,
      "譽": 3833,
      "讀": 3834,
      "變": 3835,
      "讐": 3836,
      "讓": 3837,
      "讚": 3838,
      "训": 3839,
      "议": 3840,
      "讯": 3841,
      "记": 3842,
      "证": 3843,
      "说": 3844,
      "课": 3845,
      "谁": 3846,
      "谢": 3847,
      "谷": 3848,
      "谿": 3849,
      "豁": 3850,
      "豆": 3851,
      "豊": 3852,
      "豐": 3853,
      "豕": 3854,
      "豚": 3855,
      "象": 3856,
      "豪": 3857,
      "豫": 3858,
      "豹": 3859,
      "貌": 3860,
      "貍": 3861,
      "貓": 3862,
      "貝": 3863,
      "貞": 3864,
      "負": 3865,
      "財": 3866,
      "貢": 3867,
      "貧": 3868,
      "貨": 3869,
      "販": 3870,
      "貪": 3871,
      "貫": 3872,
      "責": 3873,
      "貯": 3874,
      "貰": 3875,
      "貴": 3876,
      "買": 3877,
      "貸": 3878,
      "費": 3879,
      "貼": 3880,
      "貿": 3881,
      "賀": 3882,
      "賁": 3883,
      "賂": 3884,
      "賃": 3885,
      "資": 3886,
      "賈": 3887,
      "賊": 3888,
      "賑": 3889,
      "賓": 3890,
      "賜": 3891,
      "賞": 3892,
      "賢": 3893,
      "賣": 3894,
      "賤": 3895,
      "賦": 3896,
      "質": 3897,
      "賴": 3898,
      "賻": 3899,
      "購": 3900,
      "賽": 3901,
      "賾": 3902,
      "贄": 3903,
      "贊": 3904,
      "贓": 3905,
      "贛": 3906,
      "贝": 3907,
      "财": 3908,
      "贤": 3909,
      "货": 3910,
      "贵": 3911,
      "贸": 3912,
      "贾": 3913,
      "资": 3914,
      "赣": 3915,
      "赤": 3916,
      "赦": 3917,
      "赫": 3918,
      "走": 3919,
      "赴": 3920,
      "起": 3921,
      "超": 3922,
      "越": 3923,
      "趙": 3924,
      "趣": 3925,
      "足": 3926,
      "趾": 3927,
      "跋": 3928,
      "跌": 3929,
      "跏": 3930,
      "跑": 3931,
      "距": 3932,
      "跟": 3933,
      "跡": 3934,
      "跨": 3935,
      "路": 3936,
      "跳": 3937,
      "踏": 3938,
      "踐": 3939,
      "踰": 3940,
      "蹄": 3941,
      "蹊": 3942,
      "蹟": 3943,
      "躍": 3944,
      "身": 3945,
      "躬": 3946,
      "躭": 3947,
      "躺": 3948,
      "軀": 3949,
      "車": 3950,
      "軌": 3951,
      "軍": 3952,
      "軒": 3953,
      "軟": 3954,
      "軫": 3955,
      "軸": 3956,
      "軾": 3957,
      "輅": 3958,
      "載": 3959,
      "輓": 3960,
      "輔": 3961,
      "輕": 3962,
      "輝": 3963,
      "輦": 3964,
      "輩": 3965,
      "輪": 3966,
      "輸": 3967,
      "輿": 3968,
      "轉": 3969,
      "轍": 3970,
      "轟": 3971,
      "车": 3972,
      "软": 3973,
      "辅": 3974,
      "辛": 3975,
      "辟": 3976,
      "辣": 3977,
      "辦": 3978,
      "辨": 3979,
      "辭": 3980,
      "辯": 3981,
      "辰": 3982,
      "辱": 3983,
      "農": 3984,
      "边": 3985,
      "辺": 3986,
      "达": 3987,
      "迂": 3988,
      "迅": 3989,
      "过": 3990,
      "迎": 3991,
      "运": 3992,
      "近": 3993,
      "返": 3994,
      "进": 3995,
      "远": 3996,
      "连": 3997,
      "迦": 3998,
      "迪": 3999,
      "迫": 4000,
      "述": 4001,
      "迷": 4002,
      "迹": 4003,
      "追": 4004,
      "退": 4005,
      "送": 4006,
      "逆": 4007,
      "选": 4008,
      "逍": 4009,
      "透": 4010,
      "逐": 4011,
      "逑": 4012,
      "途": 4013,
      "逕": 4014,
      "逗": 4015,
      "通": 4016,
      "逝": 4017,
      "速": 4018,
      "造": 4019,
      "逢": 4020,
      "連": 4021,
      "週": 4022,
      "進": 4023,
      "逵": 4024,
      "逸": 4025,
      "逼": 4026,
      "逾": 4027,
      "遁": 4028,
      "遂": 4029,
      "遇": 4030,
      "遊": 4031,
      "運": 4032,
      "過": 4033,
      "道": 4034,
      "達": 4035,
      "違": 4036,
      "遙": 4037,
      "遜": 4038,
      "遝": 4039,
      "遞": 4040,
      "遠": 4041,
      "遡": 4042,
      "遣": 4043,
      "適": 4044,
      "遭": 4045,
      "遮": 4046,
      "遲": 4047,
      "遵": 4048,
      "遷": 4049,
      "選": 4050,
      "遺": 4051,
      "遼": 4052,
      "避": 4053,
      "邁": 4054,
      "還": 4055,
      "邊": 4056,
      "邏": 4057,
      "邑": 4058,
      "邕": 4059,
      "邢": 4060,
      "那": 4061,
      "邦": 4062,
      "邪": 4063,
      "邮": 4064,
      "邱": 4065,
      "邵": 4066,
      "邸": 4067,
      "郁": 4068,
      "郊": 4069,
      "郎": 4070,
      "郞": 4071,
      "郡": 4072,
      "部": 4073,
      "郭": 4074,
      "郵": 4075,
      "都": 4076,
      "鄂": 4077,
      "鄉": 4078,
      "鄒": 4079,
      "鄕": 4080,
      "鄧": 4081,
      "鄭": 4082,
      "鄰": 4083,
      "酉": 4084,
      "酌": 4085,
      "配": 4086,
      "酎": 4087,
      "酒": 4088,
      "酥": 4089,
      "酪": 4090,
      "酬": 4091,
      "酵": 4092,
      "酷": 4093,
      "酸": 4094,
      "酺": 4095,
      "醉": 4096,
      "醋": 4097,
      "醒": 4098,
      "醜": 4099,
      "醞": 4100,
      "醪": 4101,
      "醫": 4102,
      "醬": 4103,
      "醮": 4104,
      "醯": 4105,
      "醱": 4106,
      "醴": 4107,
      "釀": 4108,
      "采": 4109,
      "釉": 4110,
      "釋": 4111,
      "里": 4112,
      "重": 4113,
      "野": 4114,
      "量": 4115,
      "釐": 4116,
      "金": 4117,
      "釗": 4118,
      "釘": 4119,
      "釜": 4120,
      "針": 4121,
      "釣": 4122,
      "釩": 4123,
      "鈄": 4124,
      "鈍": 4125,
      "鈕": 4126,
      "鈞": 4127,
      "鈦": 4128,
      "鈴": 4129,
      "鈷": 4130,
      "鈺": 4131,
      "鈿": 4132,
      "鉄": 4133,
      "鉅": 4134,
      "鉉": 4135,
      "鉛": 4136,
      "鉢": 4137,
      "鉤": 4138,
      "鉦": 4139,
      "銀": 4140,
      "銃": 4141,
      "銅": 4142,
      "銑": 4143,
      "銓": 4144,
      "銘": 4145,
      "銜": 4146,
      "銳": 4147,
      "銷": 4148,
      "鋌": 4149,
      "鋒": 4150,
      "鋪": 4151,
      "鋰": 4152,
      "鋼": 4153,
      "錄": 4154,
      "錐": 4155,
      "錘": 4156,
      "錚": 4157,
      "錠": 4158,
      "錢": 4159,
      "錤": 4160,
      "錦": 4161,
      "錨": 4162,
      "錫": 4163,
      "錮": 4164,
      "錯": 4165,
      "鍊": 4166,
      "鍋": 4167,
      "鍛": 4168,
      "鍮": 4169,
      "鍵": 4170,
      "鍼": 4171,
      "鍾": 4172,
      "鎔": 4173,
      "鎖": 4174,
      "鎬": 4175,
      "鎭": 4176,
      "鎰": 4177,
      "鏃": 4178,
      "鏈": 4179,
      "鏞": 4180,
      "鏟": 4181,
      "鏡": 4182,
      "鐘": 4183,
      "鐵": 4184,
      "鐸": 4185,
      "鑄": 4186,
      "鑑": 4187,
      "鑛": 4188,
      "鑫": 4189,
      "鑰": 4190,
      "鑴": 4191,
      "鑾": 4192,
      "鑿": 4193,
      "钛": 4194,
      "钟": 4195,
      "钢": 4196,
      "钰": 4197,
      "钼": 4198,
      "铭": 4199,
      "银": 4200,
      "铺": 4201,
      "链": 4202,
      "锅": 4203,
      "锋": 4204,
      "锐": 4205,
      "镇": 4206,
      "長": 4207,
      "門": 4208,
      "閃": 4209,
      "閉": 4210,
      "開": 4211,
      "閑": 4212,
      "閒": 4213,
      "間": 4214,
      "閔": 4215,
      "関": 4216,
      "閣": 4217,
      "閤": 4218,
      "閥": 4219,
      "閨": 4220,
      "閩": 4221,
      "閭": 4222,
      "閱": 4223,
      "閻": 4224,
      "闊": 4225,
      "闕": 4226,
      "關": 4227,
      "闡": 4228,
      "闢": 4229,
      "门": 4230,
      "闫": 4231,
      "问": 4232,
      "闻": 4233,
      "阜": 4234,
      "阪": 4235,
      "阮": 4236,
      "防": 4237,
      "阳": 4238,
      "阿": 4239,
      "陀": 4240,
      "附": 4241,
      "际": 4242,
      "陈": 4243,
      "降": 4244,
      "限": 4245,
      "陕": 4246,
      "陛": 4247,
      "陜": 4248,
      "陝": 4249,
      "陞": 4250,
      "陟": 4251,
      "院": 4252,
      "陣": 4253,
      "除": 4254,
      "陪": 4255,
      "陰": 4256,
      "陳": 4257,
      "陵": 4258,
      "陶": 4259,
      "陸": 4260,
      "陽": 4261,
      "隅": 4262,
      "隆": 4263,
      "隊": 4264,
      "隋": 4265,
      "隍": 4266,
      "階": 4267,
      "隔": 4268,
      "際": 4269,
      "障": 4270,
      "隣": 4271,
      "隧": 4272,
      "隨": 4273,
      "險": 4274,
      "隱": 4275,
      "隷": 4276,
      "隻": 4277,
      "雀": 4278,
      "雁": 4279,
      "雄": 4280,
      "雅": 4281,
      "集": 4282,
      "雉": 4283,
      "雌": 4284,
      "雍": 4285,
      "雕": 4286,
      "雖": 4287,
      "雙": 4288,
      "雛": 4289,
      "雜": 4290,
      "雞": 4291,
      "離": 4292,
      "難": 4293,
      "雨": 4294,
      "雪": 4295,
      "雯": 4296,
      "雲": 4297,
      "雴": 4298,
      "零": 4299,
      "雷": 4300,
      "雹": 4301,
      "電": 4302,
      "需": 4303,
      "霄": 4304,
      "霆": 4305,
      "震": 4306,
      "霓": 4307,
      "霖": 4308,
      "霜": 4309,
      "霞": 4310,
      "霧": 4311,
      "露": 4312,
      "霸": 4313,
      "霽": 4314,
      "靈": 4315,
      "靑": 4316,
      "青": 4317,
      "靖": 4318,
      "静": 4319,
      "靚": 4320,
      "靜": 4321,
      "非": 4322,
      "靠": 4323,
      "面": 4324,
      "革": 4325,
      "靭": 4326,
      "靴": 4327,
      "鞋": 4328,
      "鞍": 4329,
      "鞏": 4330,
      "鞘": 4331,
      "鞠": 4332,
      "鞫": 4333,
      "鞭": 4334,
      "韋": 4335,
      "韓": 4336,
      "韜": 4337,
      "韦": 4338,
      "韩": 4339,
      "音": 4340,
      "韶": 4341,
      "韻": 4342,
      "響": 4343,
      "頂": 4344,
      "頃": 4345,
      "項": 4346,
      "順": 4347,
      "須": 4348,
      "頌": 4349,
      "頑": 4350,
      "頓": 4351,
      "領": 4352,
      "頤": 4353,
      "頭": 4354,
      "頸": 4355,
      "頻": 4356,
      "題": 4357,
      "額": 4358,
      "顏": 4359,
      "顔": 4360,
      "願": 4361,
      "顚": 4362,
      "類": 4363,
      "顧": 4364,
      "顫": 4365,
      "顯": 4366,
      "领": 4367,
      "频": 4368,
      "風": 4369,
      "飄": 4370,
      "风": 4371,
      "飛": 4372,
      "飜": 4373,
      "飞": 4374,
      "食": 4375,
      "飢": 4376,
      "飮": 4377,
      "飯": 4378,
      "飲": 4379,
      "飼": 4380,
      "飾": 4381,
      "餃": 4382,
      "餉": 4383,
      "養": 4384,
      "餐": 4385,
      "餒": 4386,
      "餓": 4387,
      "餘": 4388,
      "餠": 4389,
      "餧": 4390,
      "館": 4391,
      "饅": 4392,
      "饌": 4393,
      "饒": 4394,
      "饗": 4395,
      "首": 4396,
      "香": 4397,
      "馥": 4398,
      "馨": 4399,
      "馬": 4400,
      "馮": 4401,
      "馳": 4402,
      "馴": 4403,
      "駅": 4404,
      "駐": 4405,
      "駑": 4406,
      "駒": 4407,
      "駕": 4408,
      "駙": 4409,
      "駝": 4410,
      "駭": 4411,
      "駱": 4412,
      "駿": 4413,
      "騎": 4414,
      "騰": 4415,
      "騷": 4416,
      "驅": 4417,
      "驗": 4418,
      "驚": 4419,
      "驛": 4420,
      "驢": 4421,
      "驤": 4422,
      "驪": 4423,
      "马": 4424,
      "驼": 4425,
      "驾": 4426,
      "骆": 4427,
      "骟": 4428,
      "骨": 4429,
      "骸": 4430,
      "髓": 4431,
      "體": 4432,
      "高": 4433,
      "髙": 4434,
      "髢": 4435,
      "髮": 4436,
      "鬥": 4437,
      "鬪": 4438,
      "鬱": 4439,
      "鬼": 4440,
      "魁": 4441,
      "魂": 4442,
      "魅": 4443,
      "魏": 4444,
      "魔": 4445,
      "魚": 4446,
      "魯": 4447,
      "鮭": 4448,
      "鮮": 4449,
      "鯤": 4450,
      "鯨": 4451,
      "鰒": 4452,
      "鰲": 4453,
      "鱗": 4454,
      "鱼": 4455,
      "鱿": 4456,
      "鲁": 4457,
      "鲜": 4458,
      "鲨": 4459,
      "鲲": 4460,
      "鳥": 4461,
      "鳩": 4462,
      "鳳": 4463,
      "鳴": 4464,
      "鳶": 4465,
      "鴈": 4466,
      "鴉": 4467,
      "鴟": 4468,
      "鴨": 4469,
      "鴻": 4470,
      "鵝": 4471,
      "鵠": 4472,
      "鵬": 4473,
      "鵲": 4474,
      "鶯": 4475,
      "鶴": 4476,
      "鷄": 4477,
      "鷗": 4478,
      "鷲": 4479,
      "鷹": 4480,
      "鷺": 4481,
      "鸞": 4482,
      "鸟": 4483,
      "鸡": 4484,
      "鸿": 4485,
      "鹏": 4486,
      "鹽": 4487,
      "鹿": 4488,
      "麒": 4489,
      "麓": 4490,
      "麗": 4491,
      "麝": 4492,
      "麟": 4493,
      "麥": 4494,
      "麯": 4495,
      "麴": 4496,
      "麵": 4497,
      "麻": 4498,
      "麼": 4499,
      "麽": 4500,
      "黃": 4501,
      "黄": 4502,
      "黎": 4503,
      "黑": 4504,
      "黒": 4505,
      "黔": 4506,
      "默": 4507,
      "黙": 4508,
      "黛": 4509,
      "黜": 4510,
      "點": 4511,
      "黨": 4512,
      "鼈": 4513,
      "鼎": 4514,
      "鼓": 4515,
      "鼠": 4516,
      "鼻": 4517,
      "齊": 4518,
      "齋": 4519,
      "齎": 4520,
      "齒": 4521,
      "齡": 4522,
      "龍": 4523,
      "龐": 4524,
      "龔": 4525,
      "龕": 4526,
      "龙": 4527,
      "龚": 4528,
      "龜": 4529,
      "가": 4530,
      "각": 4531,
      "갂": 4532,
      "간": 4533,
      "갇": 4534,
      "갈": 4535,
      "갉": 4536,
      "감": 4537,
      "갑": 4538,
      "값": 4539,
      "갓": 4540,
      "갔": 4541,
      "강": 4542,
      "갖": 4543,
      "갗": 4544,
      "같": 4545,
      "갚": 4546,
      "갛": 4547,
      "개": 4548,
      "객": 4549,
      "갠": 4550,
      "갤": 4551,
      "갬": 4552,
      "갭": 4553,
      "갯": 4554,
      "갰": 4555,
      "갱": 4556,
      "갸": 4557,
      "갹": 4558,
      "갼": 4559,
      "걀": 4560,
      "걍": 4561,
      "걔": 4562,
      "거": 4563,
      "걱": 4564,
      "건": 4565,
      "걷": 4566,
      "걸": 4567,
      "검": 4568,
      "겁": 4569,
      "것": 4570,
      "겄": 4571,
      "겅": 4572,
      "겆": 4573,
      "겉": 4574,
      "겊": 4575,
      "겋": 4576,
      "게": 4577,
      "겍": 4578,
      "겐": 4579,
      "겔": 4580,
      "겜": 4581,
      "겟": 4582,
      "겠": 4583,
      "겡": 4584,
      "겨": 4585,
      "격": 4586,
      "겪": 4587,
      "견": 4588,
      "겯": 4589,
      "결": 4590,
      "겸": 4591,
      "겹": 4592,
      "겻": 4593,
      "겼": 4594,
      "경": 4595,
      "곁": 4596,
      "계": 4597,
      "곈": 4598,
      "곗": 4599,
      "고": 4600,
      "곡": 4601,
      "곤": 4602,
      "곧": 4603,
      "골": 4604,
      "곪": 4605,
      "곬": 4606,
      "곯": 4607,
      "곰": 4608,
      "곱": 4609,
      "곳": 4610,
      "공": 4611,
      "곶": 4612,
      "과": 4613,
      "곽": 4614,
      "관": 4615,
      "괄": 4616,
      "괌": 4617,
      "괏": 4618,
      "광": 4619,
      "괘": 4620,
      "괜": 4621,
      "괭": 4622,
      "괴": 4623,
      "괵": 4624,
      "괸": 4625,
      "굄": 4626,
      "굉": 4627,
      "교": 4628,
      "굣": 4629,
      "구": 4630,
      "국": 4631,
      "군": 4632,
      "굳": 4633,
      "굴": 4634,
      "굵": 4635,
      "굶": 4636,
      "굼": 4637,
      "굽": 4638,
      "굿": 4639,
      "궁": 4640,
      "궂": 4641,
      "궈": 4642,
      "궉": 4643,
      "권": 4644,
      "궐": 4645,
      "궘": 4646,
      "궜": 4647,
      "궝": 4648,
      "궤": 4649,
      "귀": 4650,
      "귄": 4651,
      "귈": 4652,
      "귐": 4653,
      "귑": 4654,
      "귓": 4655,
      "규": 4656,
      "귝": 4657,
      "균": 4658,
      "귤": 4659,
      "그": 4660,
      "극": 4661,
      "근": 4662,
      "귿": 4663,
      "글": 4664,
      "긁": 4665,
      "금": 4666,
      "급": 4667,
      "긋": 4668,
      "긍": 4669,
      "긑": 4670,
      "긔": 4671,
      "기": 4672,
      "긱": 4673,
      "긴": 4674,
      "긷": 4675,
      "길": 4676,
      "김": 4677,
      "깁": 4678,
      "깃": 4679,
      "깄": 4680,
      "깅": 4681,
      "깊": 4682,
      "까": 4683,
      "깍": 4684,
      "깎": 4685,
      "깐": 4686,
      "깔": 4687,
      "깜": 4688,
      "깝": 4689,
      "깟": 4690,
      "깠": 4691,
      "깡": 4692,
      "깥": 4693,
      "깨": 4694,
      "깬": 4695,
      "깰": 4696,
      "깸": 4697,
      "깻": 4698,
      "깼": 4699,
      "깽": 4700,
      "꺄": 4701,
      "꺅": 4702,
      "꺠": 4703,
      "꺼": 4704,
      "꺽": 4705,
      "꺾": 4706,
      "껀": 4707,
      "껄": 4708,
      "껌": 4709,
      "껍": 4710,
      "껏": 4711,
      "껐": 4712,
      "껑": 4713,
      "께": 4714,
      "껜": 4715,
      "껨": 4716,
      "껫": 4717,
      "껴": 4718,
      "껶": 4719,
      "껸": 4720,
      "꼈": 4721,
      "꼍": 4722,
      "꼬": 4723,
      "꼭": 4724,
      "꼰": 4725,
      "꼴": 4726,
      "꼼": 4727,
      "꼽": 4728,
      "꼿": 4729,
      "꽁": 4730,
      "꽂": 4731,
      "꽃": 4732,
      "꽈": 4733,
      "꽉": 4734,
      "꽌": 4735,
      "꽐": 4736,
      "꽜": 4737,
      "꽝": 4738,
      "꽤": 4739,
      "꽥": 4740,
      "꽹": 4741,
      "꾀": 4742,
      "꾄": 4743,
      "꾐": 4744,
      "꾸": 4745,
      "꾹": 4746,
      "꾼": 4747,
      "꿀": 4748,
      "꿇": 4749,
      "꿈": 4750,
      "꿉": 4751,
      "꿋": 4752,
      "꿌": 4753,
      "꿍": 4754,
      "꿎": 4755,
      "꿏": 4756,
      "꿔": 4757,
      "꿕": 4758,
      "꿘": 4759,
      "꿨": 4760,
      "꿩": 4761,
      "꿰": 4762,
      "꿴": 4763,
      "꿸": 4764,
      "뀄": 4765,
      "뀌": 4766,
      "뀐": 4767,
      "뀔": 4768,
      "뀜": 4769,
      "뀝": 4770,
      "뀨": 4771,
      "끄": 4772,
      "끅": 4773,
      "끈": 4774,
      "끊": 4775,
      "끌": 4776,
      "끎": 4777,
      "끓": 4778,
      "끔": 4779,
      "끕": 4780,
      "끗": 4781,
      "끙": 4782,
      "끛": 4783,
      "끝": 4784,
      "끼": 4785,
      "끽": 4786,
      "낀": 4787,
      "낄": 4788,
      "낌": 4789,
      "낍": 4790,
      "낏": 4791,
      "낑": 4792,
      "나": 4793,
      "낙": 4794,
      "낚": 4795,
      "난": 4796,
      "낟": 4797,
      "날": 4798,
      "낡": 4799,
      "남": 4800,
      "납": 4801,
      "낫": 4802,
      "났": 4803,
      "낭": 4804,
      "낮": 4805,
      "낯": 4806,
      "낱": 4807,
      "낳": 4808,
      "내": 4809,
      "낵": 4810,
      "낸": 4811,
      "낼": 4812,
      "냄": 4813,
      "냅": 4814,
      "냇": 4815,
      "냈": 4816,
      "냉": 4817,
      "냐": 4818,
      "냑": 4819,
      "냔": 4820,
      "냘": 4821,
      "냠": 4822,
      "냣": 4823,
      "냥": 4824,
      "너": 4825,
      "넉": 4826,
      "넋": 4827,
      "넌": 4828,
      "널": 4829,
      "넒": 4830,
      "넓": 4831,
      "넘": 4832,
      "넙": 4833,
      "넛": 4834,
      "넜": 4835,
      "넝": 4836,
      "넣": 4837,
      "네": 4838,
      "넥": 4839,
      "넨": 4840,
      "넬": 4841,
      "넴": 4842,
      "넵": 4843,
      "넷": 4844,
      "넸": 4845,
      "넹": 4846,
      "녀": 4847,
      "녁": 4848,
      "년": 4849,
      "념": 4850,
      "녓": 4851,
      "녔": 4852,
      "녕": 4853,
      "녘": 4854,
      "녜": 4855,
      "녝": 4856,
      "녠": 4857,
      "녭": 4858,
      "노": 4859,
      "녹": 4860,
      "논": 4861,
      "놀": 4862,
      "놂": 4863,
      "놈": 4864,
      "놉": 4865,
      "놋": 4866,
      "농": 4867,
      "높": 4868,
      "놓": 4869,
      "놔": 4870,
      "놨": 4871,
      "뇌": 4872,
      "뇐": 4873,
      "뇔": 4874,
      "뇝": 4875,
      "뇨": 4876,
      "뇰": 4877,
      "뇽": 4878,
      "눂": 4879,
      "누": 4880,
      "눅": 4881,
      "눈": 4882,
      "눌": 4883,
      "눔": 4884,
      "눕": 4885,
      "눗": 4886,
      "눙": 4887,
      "눞": 4888,
      "눠": 4889,
      "눴": 4890,
      "눼": 4891,
      "뉘": 4892,
      "뉙": 4893,
      "뉜": 4894,
      "뉠": 4895,
      "뉨": 4896,
      "뉩": 4897,
      "뉴": 4898,
      "뉵": 4899,
      "뉸": 4900,
      "뉼": 4901,
      "늄": 4902,
      "늉": 4903,
      "느": 4904,
      "늑": 4905,
      "는": 4906,
      "늘": 4907,
      "늙": 4908,
      "늚": 4909,
      "늠": 4910,
      "늡": 4911,
      "능": 4912,
      "늦": 4913,
      "늧": 4914,
      "늪": 4915,
      "늬": 4916,
      "늴": 4917,
      "늿": 4918,
      "니": 4919,
      "닉": 4920,
      "닌": 4921,
      "닐": 4922,
      "님": 4923,
      "닙": 4924,
      "닛": 4925,
      "닝": 4926,
      "닢": 4927,
      "다": 4928,
      "닥": 4929,
      "닦": 4930,
      "단": 4931,
      "닪": 4932,
      "닫": 4933,
      "달": 4934,
      "닭": 4935,
      "닮": 4936,
      "닯": 4937,
      "닳": 4938,
      "담": 4939,
      "답": 4940,
      "닷": 4941,
      "당": 4942,
      "닺": 4943,
      "닻": 4944,
      "닿": 4945,
      "대": 4946,
      "댁": 4947,
      "댄": 4948,
      "댈": 4949,
      "댐": 4950,
      "댑": 4951,
      "댓": 4952,
      "댔": 4953,
      "댕": 4954,
      "댜": 4955,
      "댸": 4956,
      "더": 4957,
      "덕": 4958,
      "덖": 4959,
      "던": 4960,
      "덜": 4961,
      "덟": 4962,
      "덤": 4963,
      "덥": 4964,
      "덧": 4965,
      "덩": 4966,
      "덫": 4967,
      "덮": 4968,
      "데": 4969,
      "덱": 4970,
      "덴": 4971,
      "델": 4972,
      "뎀": 4973,
      "뎁": 4974,
      "뎃": 4975,
      "뎅": 4976,
      "뎌": 4977,
      "뎐": 4978,
      "뎠": 4979,
      "뎡": 4980,
      "뎨": 4981,
      "뎬": 4982,
      "도": 4983,
      "독": 4984,
      "돈": 4985,
      "돋": 4986,
      "돌": 4987,
      "돎": 4988,
      "돐": 4989,
      "돔": 4990,
      "돕": 4991,
      "돗": 4992,
      "동": 4993,
      "돛": 4994,
      "돝": 4995,
      "돠": 4996,
      "돤": 4997,
      "돼": 4998,
      "됐": 4999,
      "되": 5000,
      "된": 5001,
      "될": 5002,
      "됨": 5003,
      "됩": 5004,
      "됫": 5005,
      "됴": 5006,
      "두": 5007,
      "둑": 5008,
      "둔": 5009,
      "둘": 5010,
      "둠": 5011,
      "둡": 5012,
      "둣": 5013,
      "둥": 5014,
      "둬": 5015,
      "뒀": 5016,
      "뒈": 5017,
      "뒐": 5018,
      "뒤": 5019,
      "뒨": 5020,
      "뒷": 5021,
      "뒹": 5022,
      "듀": 5023,
      "듄": 5024,
      "듈": 5025,
      "듐": 5026,
      "듑": 5027,
      "드": 5028,
      "득": 5029,
      "든": 5030,
      "듣": 5031,
      "들": 5032,
      "듦": 5033,
      "듬": 5034,
      "듭": 5035,
      "듯": 5036,
      "등": 5037,
      "듸": 5038,
      "디": 5039,
      "딕": 5040,
      "딘": 5041,
      "딛": 5042,
      "딜": 5043,
      "딤": 5044,
      "딥": 5045,
      "딧": 5046,
      "딨": 5047,
      "딩": 5048,
      "딪": 5049,
      "딭": 5050,
      "따": 5051,
      "딱": 5052,
      "딴": 5053,
      "딸": 5054,
      "딹": 5055,
      "땀": 5056,
      "땃": 5057,
      "땄": 5058,
      "땅": 5059,
      "땋": 5060,
      "때": 5061,
      "땐": 5062,
      "땔": 5063,
      "땜": 5064,
      "땟": 5065,
      "땠": 5066,
      "땡": 5067,
      "땳": 5068,
      "땽": 5069,
      "떄": 5070,
      "떙": 5071,
      "떠": 5072,
      "떡": 5073,
      "떤": 5074,
      "떨": 5075,
      "떫": 5076,
      "떰": 5077,
      "떳": 5078,
      "떴": 5079,
      "떵": 5080,
      "떻": 5081,
      "떼": 5082,
      "떽": 5083,
      "뗀": 5084,
      "뗄": 5085,
      "뗌": 5086,
      "뗏": 5087,
      "뗐": 5088,
      "뗑": 5089,
      "뗬": 5090,
      "뗴": 5091,
      "또": 5092,
      "똑": 5093,
      "똔": 5094,
      "똘": 5095,
      "똠": 5096,
      "똣": 5097,
      "똥": 5098,
      "똬": 5099,
      "똭": 5100,
      "뙈": 5101,
      "뙤": 5102,
      "뚜": 5103,
      "뚝": 5104,
      "뚠": 5105,
      "뚤": 5106,
      "뚫": 5107,
      "뚬": 5108,
      "뚱": 5109,
      "뛰": 5110,
      "뛴": 5111,
      "뛸": 5112,
      "뜀": 5113,
      "뜁": 5114,
      "뜃": 5115,
      "뜨": 5116,
      "뜩": 5117,
      "뜬": 5118,
      "뜯": 5119,
      "뜰": 5120,
      "뜷": 5121,
      "뜸": 5122,
      "뜹": 5123,
      "뜻": 5124,
      "뜽": 5125,
      "띄": 5126,
      "띈": 5127,
      "띌": 5128,
      "띔": 5129,
      "띕": 5130,
      "띠": 5131,
      "띡": 5132,
      "띤": 5133,
      "띨": 5134,
      "띰": 5135,
      "띱": 5136,
      "띳": 5137,
      "띵": 5138,
      "라": 5139,
      "락": 5140,
      "란": 5141,
      "랄": 5142,
      "람": 5143,
      "랍": 5144,
      "랏": 5145,
      "랐": 5146,
      "랑": 5147,
      "랖": 5148,
      "랗": 5149,
      "래": 5150,
      "랙": 5151,
      "랜": 5152,
      "랠": 5153,
      "램": 5154,
      "랩": 5155,
      "랫": 5156,
      "랬": 5157,
      "랭": 5158,
      "랲": 5159,
      "랴": 5160,
      "략": 5161,
      "랸": 5162,
      "량": 5163,
      "러": 5164,
      "럭": 5165,
      "런": 5166,
      "럴": 5167,
      "럼": 5168,
      "럽": 5169,
      "럿": 5170,
      "렀": 5171,
      "렁": 5172,
      "렇": 5173,
      "레": 5174,
      "렉": 5175,
      "렌": 5176,
      "렐": 5177,
      "렘": 5178,
      "렙": 5179,
      "렛": 5180,
      "렜": 5181,
      "렝": 5182,
      "려": 5183,
      "력": 5184,
      "련": 5185,
      "렬": 5186,
      "렴": 5187,
      "렵": 5188,
      "렷": 5189,
      "렸": 5190,
      "령": 5191,
      "례": 5192,
      "롄": 5193,
      "롓": 5194,
      "로": 5195,
      "록": 5196,
      "론": 5197,
      "롤": 5198,
      "롬": 5199,
      "롭": 5200,
      "롯": 5201,
      "롱": 5202,
      "롸": 5203,
      "롼": 5204,
      "뢰": 5205,
      "뢴": 5206,
      "뢸": 5207,
      "룀": 5208,
      "료": 5209,
      "룐": 5210,
      "룔": 5211,
      "룟": 5212,
      "룡": 5213,
      "루": 5214,
      "룩": 5215,
      "룬": 5216,
      "룰": 5217,
      "룸": 5218,
      "룹": 5219,
      "룻": 5220,
      "룽": 5221,
      "뤄": 5222,
      "뤌": 5223,
      "뤘": 5224,
      "뤠": 5225,
      "뤼": 5226,
      "뤽": 5227,
      "륀": 5228,
      "륄": 5229,
      "륏": 5230,
      "륑": 5231,
      "류": 5232,
      "륙": 5233,
      "륜": 5234,
      "률": 5235,
      "륨": 5236,
      "륫": 5237,
      "륭": 5238,
      "르": 5239,
      "륵": 5240,
      "른": 5241,
      "를": 5242,
      "름": 5243,
      "릅": 5244,
      "릇": 5245,
      "릉": 5246,
      "릎": 5247,
      "릏": 5248,
      "릔": 5249,
      "리": 5250,
      "릭": 5251,
      "린": 5252,
      "릳": 5253,
      "릴": 5254,
      "림": 5255,
      "립": 5256,
      "릿": 5257,
      "링": 5258,
      "마": 5259,
      "막": 5260,
      "만": 5261,
      "많": 5262,
      "맏": 5263,
      "말": 5264,
      "맑": 5265,
      "맗": 5266,
      "맘": 5267,
      "맙": 5268,
      "맛": 5269,
      "망": 5270,
      "맞": 5271,
      "맟": 5272,
      "맡": 5273,
      "맣": 5274,
      "매": 5275,
      "맥": 5276,
      "맨": 5277,
      "맬": 5278,
      "맴": 5279,
      "맵": 5280,
      "맷": 5281,
      "맸": 5282,
      "맹": 5283,
      "맺": 5284,
      "먀": 5285,
      "먄": 5286,
      "먈": 5287,
      "먐": 5288,
      "먓": 5289,
      "먕": 5290,
      "머": 5291,
      "먹": 5292,
      "먼": 5293,
      "멀": 5294,
      "멈": 5295,
      "멉": 5296,
      "멋": 5297,
      "멍": 5298,
      "멎": 5299,
      "멓": 5300,
      "메": 5301,
      "멕": 5302,
      "멘": 5303,
      "멜": 5304,
      "멤": 5305,
      "멥": 5306,
      "멧": 5307,
      "멨": 5308,
      "멩": 5309,
      "멬": 5310,
      "멮": 5311,
      "며": 5312,
      "멱": 5313,
      "면": 5314,
      "멸": 5315,
      "몃": 5316,
      "몄": 5317,
      "명": 5318,
      "몇": 5319,
      "몈": 5320,
      "몌": 5321,
      "몐": 5322,
      "몔": 5323,
      "모": 5324,
      "목": 5325,
      "몫": 5326,
      "몬": 5327,
      "몰": 5328,
      "몸": 5329,
      "몹": 5330,
      "못": 5331,
      "몽": 5332,
      "뫼": 5333,
      "묀": 5334,
      "묄": 5335,
      "묏": 5336,
      "묘": 5337,
      "묜": 5338,
      "묠": 5339,
      "묫": 5340,
      "묭": 5341,
      "무": 5342,
      "묵": 5343,
      "묶": 5344,
      "묷": 5345,
      "문": 5346,
      "묻": 5347,
      "물": 5348,
      "묽": 5349,
      "묾": 5350,
      "뭄": 5351,
      "뭅": 5352,
      "뭇": 5353,
      "뭉": 5354,
      "뭍": 5355,
      "뭐": 5356,
      "뭔": 5357,
      "뭘": 5358,
      "뭡": 5359,
      "뭣": 5360,
      "뭥": 5361,
      "뭬": 5362,
      "뮈": 5363,
      "뮌": 5364,
      "뮐": 5365,
      "뮤": 5366,
      "뮨": 5367,
      "뮬": 5368,
      "뮴": 5369,
      "므": 5370,
      "믄": 5371,
      "믈": 5372,
      "믐": 5373,
      "믓": 5374,
      "미": 5375,
      "믹": 5376,
      "민": 5377,
      "믿": 5378,
      "밀": 5379,
      "밈": 5380,
      "밉": 5381,
      "밋": 5382,
      "밌": 5383,
      "밍": 5384,
      "및": 5385,
      "밑": 5386,
      "밒": 5387,
      "바": 5388,
      "박": 5389,
      "밖": 5390,
      "반": 5391,
      "받": 5392,
      "발": 5393,
      "밝": 5394,
      "밟": 5395,
      "밤": 5396,
      "밥": 5397,
      "밧": 5398,
      "방": 5399,
      "밭": 5400,
      "밮": 5401,
      "배": 5402,
      "백": 5403,
      "밴": 5404,
      "밸": 5405,
      "뱀": 5406,
      "뱁": 5407,
      "뱃": 5408,
      "뱄": 5409,
      "뱅": 5410,
      "뱉": 5411,
      "뱌": 5412,
      "뱐": 5413,
      "버": 5414,
      "벅": 5415,
      "번": 5416,
      "벋": 5417,
      "벌": 5418,
      "범": 5419,
      "법": 5420,
      "벗": 5421,
      "벙": 5422,
      "벚": 5423,
      "벛": 5424,
      "베": 5425,
      "벡": 5426,
      "벤": 5427,
      "벧": 5428,
      "벨": 5429,
      "벰": 5430,
      "벱": 5431,
      "벳": 5432,
      "벴": 5433,
      "벵": 5434,
      "벼": 5435,
      "벽": 5436,
      "변": 5437,
      "별": 5438,
      "볍": 5439,
      "볏": 5440,
      "볐": 5441,
      "병": 5442,
      "볕": 5443,
      "볘": 5444,
      "볜": 5445,
      "보": 5446,
      "복": 5447,
      "볶": 5448,
      "본": 5449,
      "볼": 5450,
      "봄": 5451,
      "봅": 5452,
      "봇": 5453,
      "봉": 5454,
      "봐": 5455,
      "봘": 5456,
      "봤": 5457,
      "봬": 5458,
      "뵀": 5459,
      "뵈": 5460,
      "뵉": 5461,
      "뵌": 5462,
      "뵐": 5463,
      "뵘": 5464,
      "뵙": 5465,
      "뵤": 5466,
      "뵨": 5467,
      "부": 5468,
      "북": 5469,
      "분": 5470,
      "붇": 5471,
      "불": 5472,
      "붉": 5473,
      "붐": 5474,
      "붑": 5475,
      "붓": 5476,
      "붕": 5477,
      "붙": 5478,
      "붬": 5479,
      "붱": 5480,
      "붸": 5481,
      "뷔": 5482,
      "뷘": 5483,
      "뷜": 5484,
      "뷩": 5485,
      "뷰": 5486,
      "뷴": 5487,
      "뷸": 5488,
      "븀": 5489,
      "븅": 5490,
      "브": 5491,
      "븐": 5492,
      "블": 5493,
      "븟": 5494,
      "븡": 5495,
      "븨": 5496,
      "비": 5497,
      "빅": 5498,
      "빈": 5499,
      "빋": 5500,
      "빌": 5501,
      "빎": 5502,
      "빔": 5503,
      "빕": 5504,
      "빗": 5505,
      "빙": 5506,
      "빚": 5507,
      "빛": 5508,
      "빠": 5509,
      "빡": 5510,
      "빤": 5511,
      "빨": 5512,
      "빰": 5513,
      "빱": 5514,
      "빳": 5515,
      "빴": 5516,
      "빵": 5517,
      "빻": 5518,
      "빼": 5519,
      "빽": 5520,
      "뺀": 5521,
      "뺄": 5522,
      "뺌": 5523,
      "뺍": 5524,
      "뺏": 5525,
      "뺐": 5526,
      "뺑": 5527,
      "뺨": 5528,
      "뺴": 5529,
      "뻐": 5530,
      "뻑": 5531,
      "뻔": 5532,
      "뻗": 5533,
      "뻘": 5534,
      "뻣": 5535,
      "뻤": 5536,
      "뻥": 5537,
      "뻬": 5538,
      "뻰": 5539,
      "뻿": 5540,
      "뼁": 5541,
      "뼈": 5542,
      "뼉": 5543,
      "뼘": 5544,
      "뼛": 5545,
      "뼝": 5546,
      "뽀": 5547,
      "뽁": 5548,
      "뽄": 5549,
      "뽈": 5550,
      "뽐": 5551,
      "뽑": 5552,
      "뽕": 5553,
      "뽜": 5554,
      "뾰": 5555,
      "뿅": 5556,
      "뿌": 5557,
      "뿍": 5558,
      "뿐": 5559,
      "뿔": 5560,
      "뿜": 5561,
      "뿟": 5562,
      "뿡": 5563,
      "쀼": 5564,
      "쁘": 5565,
      "쁜": 5566,
      "쁠": 5567,
      "쁨": 5568,
      "쁩": 5569,
      "삐": 5570,
      "삑": 5571,
      "삔": 5572,
      "삘": 5573,
      "삠": 5574,
      "삡": 5575,
      "삥": 5576,
      "사": 5577,
      "삭": 5578,
      "삯": 5579,
      "산": 5580,
      "살": 5581,
      "삵": 5582,
      "삶": 5583,
      "삼": 5584,
      "삽": 5585,
      "삿": 5586,
      "샀": 5587,
      "상": 5588,
      "샅": 5589,
      "새": 5590,
      "색": 5591,
      "샌": 5592,
      "샐": 5593,
      "샒": 5594,
      "샘": 5595,
      "샙": 5596,
      "샛": 5597,
      "샜": 5598,
      "생": 5599,
      "샤": 5600,
      "샥": 5601,
      "샨": 5602,
      "샬": 5603,
      "샴": 5604,
      "샵": 5605,
      "샷": 5606,
      "샹": 5607,
      "샾": 5608,
      "섀": 5609,
      "섈": 5610,
      "섐": 5611,
      "섑": 5612,
      "섕": 5613,
      "서": 5614,
      "석": 5615,
      "섞": 5616,
      "선": 5617,
      "섣": 5618,
      "설": 5619,
      "섥": 5620,
      "섦": 5621,
      "섬": 5622,
      "섭": 5623,
      "섯": 5624,
      "섰": 5625,
      "성": 5626,
      "섶": 5627,
      "세": 5628,
      "섹": 5629,
      "센": 5630,
      "셀": 5631,
      "셈": 5632,
      "셉": 5633,
      "셋": 5634,
      "셌": 5635,
      "셍": 5636,
      "셒": 5637,
      "셔": 5638,
      "셕": 5639,
      "션": 5640,
      "셜": 5641,
      "셤": 5642,
      "셥": 5643,
      "셧": 5644,
      "셨": 5645,
      "셩": 5646,
      "셰": 5647,
      "셱": 5648,
      "셴": 5649,
      "셸": 5650,
      "솀": 5651,
      "솁": 5652,
      "솃": 5653,
      "솅": 5654,
      "소": 5655,
      "속": 5656,
      "솎": 5657,
      "손": 5658,
      "솔": 5659,
      "솜": 5660,
      "솝": 5661,
      "솟": 5662,
      "송": 5663,
      "솥": 5664,
      "솦": 5665,
      "솨": 5666,
      "솽": 5667,
      "쇄": 5668,
      "쇗": 5669,
      "쇘": 5670,
      "쇠": 5671,
      "쇤": 5672,
      "쇨": 5673,
      "쇳": 5674,
      "쇼": 5675,
      "쇽": 5676,
      "숀": 5677,
      "숄": 5678,
      "숍": 5679,
      "숏": 5680,
      "숑": 5681,
      "숖": 5682,
      "수": 5683,
      "숙": 5684,
      "순": 5685,
      "숟": 5686,
      "술": 5687,
      "숨": 5688,
      "숩": 5689,
      "숫": 5690,
      "숭": 5691,
      "숯": 5692,
      "숱": 5693,
      "숲": 5694,
      "숴": 5695,
      "쉅": 5696,
      "쉈": 5697,
      "쉐": 5698,
      "쉑": 5699,
      "쉔": 5700,
      "쉘": 5701,
      "쉥": 5702,
      "쉬": 5703,
      "쉭": 5704,
      "쉰": 5705,
      "쉴": 5706,
      "쉼": 5707,
      "쉽": 5708,
      "쉿": 5709,
      "슁": 5710,
      "슈": 5711,
      "슉": 5712,
      "슌": 5713,
      "슐": 5714,
      "슘": 5715,
      "슙": 5716,
      "슛": 5717,
      "슝": 5718,
      "슢": 5719,
      "스": 5720,
      "슥": 5721,
      "슨": 5722,
      "슬": 5723,
      "슭": 5724,
      "슴": 5725,
      "습": 5726,
      "슷": 5727,
      "승": 5728,
      "슼": 5729,
      "슽": 5730,
      "슾": 5731,
      "시": 5732,
      "식": 5733,
      "신": 5734,
      "싣": 5735,
      "실": 5736,
      "싫": 5737,
      "심": 5738,
      "십": 5739,
      "싯": 5740,
      "싱": 5741,
      "싶": 5742,
      "싸": 5743,
      "싹": 5744,
      "싼": 5745,
      "쌀": 5746,
      "쌈": 5747,
      "쌉": 5748,
      "쌌": 5749,
      "쌍": 5750,
      "쌓": 5751,
      "쌔": 5752,
      "쌕": 5753,
      "쌘": 5754,
      "쌤": 5755,
      "쌥": 5756,
      "쌨": 5757,
      "쌩": 5758,
      "쌰": 5759,
      "썅": 5760,
      "써": 5761,
      "썩": 5762,
      "썪": 5763,
      "썬": 5764,
      "썰": 5765,
      "썸": 5766,
      "썹": 5767,
      "썻": 5768,
      "썼": 5769,
      "썽": 5770,
      "쎄": 5771,
      "쎅": 5772,
      "쎈": 5773,
      "쎌": 5774,
      "쎔": 5775,
      "쎕": 5776,
      "쏘": 5777,
      "쏙": 5778,
      "쏜": 5779,
      "쏟": 5780,
      "쏠": 5781,
      "쏨": 5782,
      "쏩": 5783,
      "쏭": 5784,
      "쏴": 5785,
      "쏵": 5786,
      "쏸": 5787,
      "쐈": 5788,
      "쐐": 5789,
      "쐬": 5790,
      "쐰": 5791,
      "쐴": 5792,
      "쑈": 5793,
      "쑤": 5794,
      "쑥": 5795,
      "쑨": 5796,
      "쑬": 5797,
      "쑴": 5798,
      "쑹": 5799,
      "쒀": 5800,
      "쒔": 5801,
      "쒼": 5802,
      "쓔": 5803,
      "쓩": 5804,
      "쓰": 5805,
      "쓱": 5806,
      "쓴": 5807,
      "쓷": 5808,
      "쓸": 5809,
      "씀": 5810,
      "씁": 5811,
      "씌": 5812,
      "씐": 5813,
      "씨": 5814,
      "씩": 5815,
      "씬": 5816,
      "씰": 5817,
      "씸": 5818,
      "씹": 5819,
      "씻": 5820,
      "씽": 5821,
      "아": 5822,
      "악": 5823,
      "안": 5824,
      "앉": 5825,
      "않": 5826,
      "알": 5827,
      "앎": 5828,
      "앓": 5829,
      "암": 5830,
      "압": 5831,
      "앗": 5832,
      "았": 5833,
      "앙": 5834,
      "앚": 5835,
      "앞": 5836,
      "애": 5837,
      "액": 5838,
      "앤": 5839,
      "앨": 5840,
      "앰": 5841,
      "앱": 5842,
      "앳": 5843,
      "앴": 5844,
      "앵": 5845,
      "야": 5846,
      "약": 5847,
      "얀": 5848,
      "얄": 5849,
      "얇": 5850,
      "얌": 5851,
      "얍": 5852,
      "얏": 5853,
      "양": 5854,
      "얕": 5855,
      "얗": 5856,
      "얘": 5857,
      "얜": 5858,
      "얭": 5859,
      "어": 5860,
      "억": 5861,
      "언": 5862,
      "얹": 5863,
      "얻": 5864,
      "얼": 5865,
      "얽": 5866,
      "엄": 5867,
      "업": 5868,
      "없": 5869,
      "엇": 5870,
      "었": 5871,
      "엉": 5872,
      "엊": 5873,
      "엌": 5874,
      "엎": 5875,
      "에": 5876,
      "엑": 5877,
      "엔": 5878,
      "엘": 5879,
      "엠": 5880,
      "엡": 5881,
      "엣": 5882,
      "엥": 5883,
      "엪": 5884,
      "여": 5885,
      "역": 5886,
      "엮": 5887,
      "엯": 5888,
      "연": 5889,
      "열": 5890,
      "엶": 5891,
      "엷": 5892,
      "염": 5893,
      "엽": 5894,
      "엾": 5895,
      "엿": 5896,
      "였": 5897,
      "영": 5898,
      "옅": 5899,
      "옆": 5900,
      "옇": 5901,
      "예": 5902,
      "옌": 5903,
      "옐": 5904,
      "옘": 5905,
      "옙": 5906,
      "옛": 5907,
      "옜": 5908,
      "옞": 5909,
      "오": 5910,
      "옥": 5911,
      "온": 5912,
      "올": 5913,
      "옭": 5914,
      "옮": 5915,
      "옳": 5916,
      "옴": 5917,
      "옵": 5918,
      "옷": 5919,
      "옹": 5920,
      "옻": 5921,
      "와": 5922,
      "왁": 5923,
      "완": 5924,
      "왈": 5925,
      "왐": 5926,
      "왑": 5927,
      "왓": 5928,
      "왔": 5929,
      "왕": 5930,
      "왘": 5931,
      "왜": 5932,
      "왝": 5933,
      "왠": 5934,
      "왤": 5935,
      "왬": 5936,
      "왱": 5937,
      "외": 5938,
      "왼": 5939,
      "욀": 5940,
      "욋": 5941,
      "요": 5942,
      "욕": 5943,
      "욘": 5944,
      "욜": 5945,
      "욤": 5946,
      "욥": 5947,
      "욧": 5948,
      "용": 5949,
      "우": 5950,
      "욱": 5951,
      "운": 5952,
      "울": 5953,
      "움": 5954,
      "웁": 5955,
      "웃": 5956,
      "웅": 5957,
      "워": 5958,
      "웍": 5959,
      "원": 5960,
      "웓": 5961,
      "월": 5962,
      "웜": 5963,
      "웝": 5964,
      "웟": 5965,
      "웠": 5966,
      "웡": 5967,
      "웨": 5968,
      "웩": 5969,
      "웬": 5970,
      "웰": 5971,
      "웸": 5972,
      "웹": 5973,
      "웻": 5974,
      "웽": 5975,
      "위": 5976,
      "윅": 5977,
      "윈": 5978,
      "윌": 5979,
      "윔": 5980,
      "윕": 5981,
      "윗": 5982,
      "윙": 5983,
      "유": 5984,
      "육": 5985,
      "윤": 5986,
      "율": 5987,
      "윰": 5988,
      "윱": 5989,
      "윳": 5990,
      "융": 5991,
      "윷": 5992,
      "으": 5993,
      "윽": 5994,
      "윾": 5995,
      "은": 5996,
      "을": 5997,
      "읊": 5998,
      "음": 5999,
      "읍": 6000,
      "읏": 6001,
      "응": 6002,
      "읒": 6003,
      "읓": 6004,
      "읕": 6005,
      "읗": 6006,
      "의": 6007,
      "읜": 6008,
      "읳": 6009,
      "이": 6010,
      "익": 6011,
      "인": 6012,
      "읺": 6013,
      "읻": 6014,
      "일": 6015,
      "읽": 6016,
      "잃": 6017,
      "임": 6018,
      "입": 6019,
      "잇": 6020,
      "있": 6021,
      "잉": 6022,
      "잊": 6023,
      "잌": 6024,
      "잍": 6025,
      "잎": 6026,
      "자": 6027,
      "작": 6028,
      "잔": 6029,
      "잖": 6030,
      "잗": 6031,
      "잘": 6032,
      "잠": 6033,
      "잡": 6034,
      "잣": 6035,
      "잤": 6036,
      "장": 6037,
      "잦": 6038,
      "재": 6039,
      "잭": 6040,
      "잰": 6041,
      "잴": 6042,
      "잼": 6043,
      "잽": 6044,
      "잿": 6045,
      "쟀": 6046,
      "쟁": 6047,
      "쟂": 6048,
      "쟈": 6049,
      "쟉": 6050,
      "쟌": 6051,
      "쟝": 6052,
      "쟤": 6053,
      "쟨": 6054,
      "저": 6055,
      "적": 6056,
      "전": 6057,
      "절": 6058,
      "젊": 6059,
      "젋": 6060,
      "점": 6061,
      "접": 6062,
      "젓": 6063,
      "정": 6064,
      "젖": 6065,
      "제": 6066,
      "젝": 6067,
      "젠": 6068,
      "젤": 6069,
      "젬": 6070,
      "젭": 6071,
      "젯": 6072,
      "젱": 6073,
      "젶": 6074,
      "져": 6075,
      "젹": 6076,
      "젼": 6077,
      "졌": 6078,
      "졍": 6079,
      "졔": 6080,
      "졘": 6081,
      "조": 6082,
      "족": 6083,
      "존": 6084,
      "졸": 6085,
      "좀": 6086,
      "좁": 6087,
      "좃": 6088,
      "종": 6089,
      "좇": 6090,
      "좋": 6091,
      "좌": 6092,
      "좐": 6093,
      "좔": 6094,
      "좡": 6095,
      "좨": 6096,
      "좼": 6097,
      "죄": 6098,
      "죈": 6099,
      "죌": 6100,
      "죔": 6101,
      "죗": 6102,
      "죠": 6103,
      "죤": 6104,
      "죵": 6105,
      "주": 6106,
      "죽": 6107,
      "준": 6108,
      "줄": 6109,
      "줌": 6110,
      "줍": 6111,
      "줏": 6112,
      "중": 6113,
      "줖": 6114,
      "줘": 6115,
      "줜": 6116,
      "줬": 6117,
      "줴": 6118,
      "줸": 6119,
      "쥐": 6120,
      "쥑": 6121,
      "쥔": 6122,
      "쥘": 6123,
      "쥠": 6124,
      "쥬": 6125,
      "쥰": 6126,
      "쥴": 6127,
      "쥼": 6128,
      "즈": 6129,
      "즉": 6130,
      "즌": 6131,
      "즐": 6132,
      "즘": 6133,
      "즙": 6134,
      "즛": 6135,
      "증": 6136,
      "즤": 6137,
      "지": 6138,
      "직": 6139,
      "진": 6140,
      "짅": 6141,
      "짇": 6142,
      "질": 6143,
      "짊": 6144,
      "짐": 6145,
      "집": 6146,
      "짓": 6147,
      "징": 6148,
      "짖": 6149,
      "짙": 6150,
      "짚": 6151,
      "짜": 6152,
      "짝": 6153,
      "짠": 6154,
      "짢": 6155,
      "짤": 6156,
      "짧": 6157,
      "짬": 6158,
      "짭": 6159,
      "짯": 6160,
      "짰": 6161,
      "짱": 6162,
      "째": 6163,
      "짹": 6164,
      "짼": 6165,
      "쨈": 6166,
      "쨉": 6167,
      "쨋": 6168,
      "쨌": 6169,
      "쨍": 6170,
      "쨔": 6171,
      "쨕": 6172,
      "쨩": 6173,
      "쨰": 6174,
      "쩌": 6175,
      "쩍": 6176,
      "쩐": 6177,
      "쩔": 6178,
      "쩜": 6179,
      "쩝": 6180,
      "쩠": 6181,
      "쩡": 6182,
      "쩨": 6183,
      "쩬": 6184,
      "쪄": 6185,
      "쪘": 6186,
      "쪙": 6187,
      "쪼": 6188,
      "쪽": 6189,
      "쫀": 6190,
      "쫄": 6191,
      "쫌": 6192,
      "쫑": 6193,
      "쫒": 6194,
      "쫓": 6195,
      "쫘": 6196,
      "쫙": 6197,
      "쬈": 6198,
      "쬐": 6199,
      "쬔": 6200,
      "쬘": 6201,
      "쭈": 6202,
      "쭉": 6203,
      "쭌": 6204,
      "쭐": 6205,
      "쭘": 6206,
      "쭙": 6207,
      "쭝": 6208,
      "쭤": 6209,
      "쭸": 6210,
      "쮸": 6211,
      "쯔": 6212,
      "쯘": 6213,
      "쯤": 6214,
      "쯧": 6215,
      "쯩": 6216,
      "찌": 6217,
      "찍": 6218,
      "찐": 6219,
      "찔": 6220,
      "찜": 6221,
      "찝": 6222,
      "찟": 6223,
      "찡": 6224,
      "찢": 6225,
      "찧": 6226,
      "차": 6227,
      "착": 6228,
      "찬": 6229,
      "찮": 6230,
      "찯": 6231,
      "찰": 6232,
      "참": 6233,
      "찹": 6234,
      "찻": 6235,
      "찼": 6236,
      "창": 6237,
      "찾": 6238,
      "찿": 6239,
      "챂": 6240,
      "채": 6241,
      "책": 6242,
      "챈": 6243,
      "챌": 6244,
      "챔": 6245,
      "챕": 6246,
      "챗": 6247,
      "챘": 6248,
      "챙": 6249,
      "챜": 6250,
      "챠": 6251,
      "챤": 6252,
      "처": 6253,
      "척": 6254,
      "천": 6255,
      "철": 6256,
      "첨": 6257,
      "첩": 6258,
      "첫": 6259,
      "첬": 6260,
      "청": 6261,
      "체": 6262,
      "첵": 6263,
      "첸": 6264,
      "첼": 6265,
      "쳄": 6266,
      "쳅": 6267,
      "쳇": 6268,
      "쳉": 6269,
      "쳌": 6270,
      "쳏": 6271,
      "쳐": 6272,
      "쳔": 6273,
      "쳘": 6274,
      "쳤": 6275,
      "쳥": 6276,
      "쳬": 6277,
      "쳰": 6278,
      "초": 6279,
      "촉": 6280,
      "촌": 6281,
      "촐": 6282,
      "촘": 6283,
      "촙": 6284,
      "촛": 6285,
      "총": 6286,
      "촞": 6287,
      "촤": 6288,
      "촨": 6289,
      "촬": 6290,
      "촹": 6291,
      "최": 6292,
      "쵝": 6293,
      "쵠": 6294,
      "쵸": 6295,
      "춈": 6296,
      "추": 6297,
      "축": 6298,
      "춘": 6299,
      "출": 6300,
      "춤": 6301,
      "춥": 6302,
      "춧": 6303,
      "충": 6304,
      "춰": 6305,
      "췄": 6306,
      "췌": 6307,
      "췐": 6308,
      "취": 6309,
      "췬": 6310,
      "췰": 6311,
      "츄": 6312,
      "츈": 6313,
      "츌": 6314,
      "츔": 6315,
      "츕": 6316,
      "츙": 6317,
      "츠": 6318,
      "측": 6319,
      "츤": 6320,
      "츨": 6321,
      "츰": 6322,
      "층": 6323,
      "치": 6324,
      "칙": 6325,
      "친": 6326,
      "칠": 6327,
      "칡": 6328,
      "침": 6329,
      "칩": 6330,
      "칫": 6331,
      "칭": 6332,
      "칲": 6333,
      "카": 6334,
      "칵": 6335,
      "칸": 6336,
      "칼": 6337,
      "캄": 6338,
      "캅": 6339,
      "캇": 6340,
      "캉": 6341,
      "캍": 6342,
      "캐": 6343,
      "캑": 6344,
      "캔": 6345,
      "캘": 6346,
      "캠": 6347,
      "캡": 6348,
      "캣": 6349,
      "캤": 6350,
      "캥": 6351,
      "캨": 6352,
      "캬": 6353,
      "커": 6354,
      "컥": 6355,
      "컨": 6356,
      "컫": 6357,
      "컬": 6358,
      "컴": 6359,
      "컵": 6360,
      "컷": 6361,
      "컸": 6362,
      "컹": 6363,
      "케": 6364,
      "켁": 6365,
      "켄": 6366,
      "켈": 6367,
      "켐": 6368,
      "켑": 6369,
      "켓": 6370,
      "켕": 6371,
      "켙": 6372,
      "켜": 6373,
      "켠": 6374,
      "켤": 6375,
      "켬": 6376,
      "켭": 6377,
      "켰": 6378,
      "코": 6379,
      "콕": 6380,
      "콘": 6381,
      "콜": 6382,
      "콤": 6383,
      "콥": 6384,
      "콧": 6385,
      "콩": 6386,
      "콬": 6387,
      "콰": 6388,
      "콱": 6389,
      "콴": 6390,
      "콸": 6391,
      "쾁": 6392,
      "쾃": 6393,
      "쾅": 6394,
      "쾌": 6395,
      "쾡": 6396,
      "쾨": 6397,
      "쾰": 6398,
      "쾹": 6399,
      "쿄": 6400,
      "쿈": 6401,
      "쿠": 6402,
      "쿡": 6403,
      "쿤": 6404,
      "쿧": 6405,
      "쿨": 6406,
      "쿰": 6407,
      "쿱": 6408,
      "쿳": 6409,
      "쿵": 6410,
      "쿼": 6411,
      "쿽": 6412,
      "퀀": 6413,
      "퀄": 6414,
      "퀌": 6415,
      "퀏": 6416,
      "퀑": 6417,
      "퀘": 6418,
      "퀜": 6419,
      "퀩": 6420,
      "퀫": 6421,
      "퀭": 6422,
      "퀴": 6423,
      "퀵": 6424,
      "퀸": 6425,
      "퀼": 6426,
      "큅": 6427,
      "큇": 6428,
      "큉": 6429,
      "큐": 6430,
      "큔": 6431,
      "큘": 6432,
      "큠": 6433,
      "큥": 6434,
      "크": 6435,
      "큭": 6436,
      "큰": 6437,
      "클": 6438,
      "큼": 6439,
      "큽": 6440,
      "큿": 6441,
      "킁": 6442,
      "키": 6443,
      "킥": 6444,
      "킨": 6445,
      "킬": 6446,
      "킴": 6447,
      "킵": 6448,
      "킷": 6449,
      "킹": 6450,
      "타": 6451,
      "탁": 6452,
      "탄": 6453,
      "탈": 6454,
      "탉": 6455,
      "탐": 6456,
      "탑": 6457,
      "탓": 6458,
      "탔": 6459,
      "탕": 6460,
      "태": 6461,
      "택": 6462,
      "탠": 6463,
      "탤": 6464,
      "탬": 6465,
      "탭": 6466,
      "탯": 6467,
      "탰": 6468,
      "탱": 6469,
      "탸": 6470,
      "터": 6471,
      "턱": 6472,
      "턴": 6473,
      "털": 6474,
      "텀": 6475,
      "텁": 6476,
      "텃": 6477,
      "텄": 6478,
      "텅": 6479,
      "테": 6480,
      "텍": 6481,
      "텐": 6482,
      "텔": 6483,
      "템": 6484,
      "텝": 6485,
      "텟": 6486,
      "텡": 6487,
      "텥": 6488,
      "텨": 6489,
      "텼": 6490,
      "톄": 6491,
      "톈": 6492,
      "토": 6493,
      "톡": 6494,
      "톤": 6495,
      "톧": 6496,
      "톨": 6497,
      "톰": 6498,
      "톱": 6499,
      "톳": 6500,
      "통": 6501,
      "톺": 6502,
      "퇀": 6503,
      "퇘": 6504,
      "퇴": 6505,
      "툇": 6506,
      "툠": 6507,
      "투": 6508,
      "툭": 6509,
      "툰": 6510,
      "툴": 6511,
      "툼": 6512,
      "툽": 6513,
      "툿": 6514,
      "퉁": 6515,
      "퉈": 6516,
      "퉜": 6517,
      "퉤": 6518,
      "튀": 6519,
      "튄": 6520,
      "튈": 6521,
      "튐": 6522,
      "튕": 6523,
      "튜": 6524,
      "튠": 6525,
      "튤": 6526,
      "튬": 6527,
      "트": 6528,
      "특": 6529,
      "튼": 6530,
      "튿": 6531,
      "틀": 6532,
      "틁": 6533,
      "틂": 6534,
      "틈": 6535,
      "틉": 6536,
      "틋": 6537,
      "틔": 6538,
      "틜": 6539,
      "티": 6540,
      "틱": 6541,
      "틴": 6542,
      "틸": 6543,
      "팀": 6544,
      "팁": 6545,
      "팃": 6546,
      "팅": 6547,
      "파": 6548,
      "팍": 6549,
      "팎": 6550,
      "판": 6551,
      "팔": 6552,
      "팜": 6553,
      "팝": 6554,
      "팟": 6555,
      "팠": 6556,
      "팡": 6557,
      "팥": 6558,
      "패": 6559,
      "팩": 6560,
      "팬": 6561,
      "팰": 6562,
      "팸": 6563,
      "팹": 6564,
      "팻": 6565,
      "팼": 6566,
      "팽": 6567,
      "퍄": 6568,
      "퍅": 6569,
      "퍼": 6570,
      "퍽": 6571,
      "펀": 6572,
      "펄": 6573,
      "펌": 6574,
      "펍": 6575,
      "펏": 6576,
      "펐": 6577,
      "펑": 6578,
      "페": 6579,
      "펙": 6580,
      "펜": 6581,
      "펠": 6582,
      "펨": 6583,
      "펩": 6584,
      "펫": 6585,
      "펭": 6586,
      "펴": 6587,
      "편": 6588,
      "펼": 6589,
      "폄": 6590,
      "폈": 6591,
      "평": 6592,
      "폐": 6593,
      "폔": 6594,
      "포": 6595,
      "폭": 6596,
      "폰": 6597,
      "폴": 6598,
      "폼": 6599,
      "폽": 6600,
      "폿": 6601,
      "퐁": 6602,
      "퐈": 6603,
      "퐝": 6604,
      "푀": 6605,
      "푄": 6606,
      "표": 6607,
      "푠": 6608,
      "푯": 6609,
      "푱": 6610,
      "푸": 6611,
      "푹": 6612,
      "푼": 6613,
      "풀": 6614,
      "풂": 6615,
      "품": 6616,
      "풉": 6617,
      "풋": 6618,
      "풍": 6619,
      "퓌": 6620,
      "퓔": 6621,
      "퓨": 6622,
      "퓩": 6623,
      "퓬": 6624,
      "퓰": 6625,
      "퓸": 6626,
      "프": 6627,
      "픈": 6628,
      "플": 6629,
      "픎": 6630,
      "픔": 6631,
      "픕": 6632,
      "픗": 6633,
      "피": 6634,
      "픽": 6635,
      "핀": 6636,
      "필": 6637,
      "핌": 6638,
      "핍": 6639,
      "핏": 6640,
      "핑": 6641,
      "하": 6642,
      "학": 6643,
      "한": 6644,
      "할": 6645,
      "핡": 6646,
      "핥": 6647,
      "함": 6648,
      "합": 6649,
      "핫": 6650,
      "항": 6651,
      "핲": 6652,
      "해": 6653,
      "핵": 6654,
      "핸": 6655,
      "핼": 6656,
      "햄": 6657,
      "햅": 6658,
      "햇": 6659,
      "했": 6660,
      "행": 6661,
      "햐": 6662,
      "향": 6663,
      "허": 6664,
      "헉": 6665,
      "헌": 6666,
      "헐": 6667,
      "험": 6668,
      "헙": 6669,
      "헛": 6670,
      "헝": 6671,
      "헤": 6672,
      "헥": 6673,
      "헨": 6674,
      "헬": 6675,
      "헴": 6676,
      "헵": 6677,
      "헷": 6678,
      "헸": 6679,
      "헹": 6680,
      "혀": 6681,
      "혁": 6682,
      "현": 6683,
      "혈": 6684,
      "혐": 6685,
      "협": 6686,
      "혓": 6687,
      "혔": 6688,
      "형": 6689,
      "혜": 6690,
      "혬": 6691,
      "호": 6692,
      "혹": 6693,
      "혼": 6694,
      "홀": 6695,
      "홈": 6696,
      "홉": 6697,
      "홋": 6698,
      "홍": 6699,
      "홑": 6700,
      "화": 6701,
      "확": 6702,
      "환": 6703,
      "활": 6704,
      "홤": 6705,
      "홧": 6706,
      "황": 6707,
      "홰": 6708,
      "홱": 6709,
      "횃": 6710,
      "회": 6711,
      "획": 6712,
      "횓": 6713,
      "횔": 6714,
      "횟": 6715,
      "횡": 6716,
      "효": 6717,
      "횬": 6718,
      "횰": 6719,
      "횻": 6720,
      "후": 6721,
      "훅": 6722,
      "훈": 6723,
      "훌": 6724,
      "훑": 6725,
      "훔": 6726,
      "훕": 6727,
      "훗": 6728,
      "훙": 6729,
      "훜": 6730,
      "훠": 6731,
      "훤": 6732,
      "훨": 6733,
      "훼": 6734,
      "휀": 6735,
      "휑": 6736,
      "휘": 6737,
      "휙": 6738,
      "휜": 6739,
      "휠": 6740,
      "휨": 6741,
      "휩": 6742,
      "휫": 6743,
      "휭": 6744,
      "휴": 6745,
      "휸": 6746,
      "휼": 6747,
      "흄": 6748,
      "흉": 6749,
      "흐": 6750,
      "흑": 6751,
      "흔": 6752,
      "흗": 6753,
      "흘": 6754,
      "흙": 6755,
      "흠": 6756,
      "흡": 6757,
      "흣": 6758,
      "흥": 6759,
      "흩": 6760,
      "희": 6761,
      "흰": 6762,
      "흴": 6763,
      "히": 6764,
      "힉": 6765,
      "힌": 6766,
      "힐": 6767,
      "힘": 6768,
      "힙": 6769,
      "힛": 6770,
      "힝": 6771,
      "更": 6772,
      "滑": 6773,
      "龜": 6774,
      "金": 6775,
      "羅": 6776,
      "樂": 6777,
      "洛": 6778,
      "落": 6779,
      "亂": 6780,
      "卵": 6781,
      "蘭": 6782,
      "藍": 6783,
      "來": 6784,
      "冷": 6785,
      "勞": 6786,
      "爐": 6787,
      "盧": 6788,
      "老": 6789,
      "蘆": 6790,
      "露": 6791,
      "魯": 6792,
      "祿": 6793,
      "綠": 6794,
      "錄": 6795,
      "鹿": 6796,
      "弄": 6797,
      "雷": 6798,
      "樓": 6799,
      "漏": 6800,
      "勒": 6801,
      "綾": 6802,
      "陵": 6803,
      "樂": 6804,
      "丹": 6805,
      "寧": 6806,
      "便": 6807,
      "不": 6808,
      "參": 6809,
      "沈": 6810,
      "若": 6811,
      "略": 6812,
      "亮": 6813,
      "兩": 6814,
      "凉": 6815,
      "梁": 6816,
      "呂": 6817,
      "女": 6818,
      "旅": 6819,
      "礪": 6820,
      "驪": 6821,
      "麗": 6822,
      "黎": 6823,
      "力": 6824,
      "曆": 6825,
      "歷": 6826,
      "年": 6827,
      "戀": 6828,
      "聯": 6829,
      "蓮": 6830,
      "連": 6831,
      "鍊": 6832,
      "烈": 6833,
      "裂": 6834,
      "說": 6835,
      "廉": 6836,
      "念": 6837,
      "捻": 6838,
      "寧": 6839,
      "嶺": 6840,
      "瑩": 6841,
      "零": 6842,
      "靈": 6843,
      "例": 6844,
      "禮": 6845,
      "隸": 6846,
      "了": 6847,
      "尿": 6848,
      "樂": 6849,
      "遼": 6850,
      "龍": 6851,
      "劉": 6852,
      "柳": 6853,
      "流": 6854,
      "六": 6855,
      "陸": 6856,
      "輪": 6857,
      "律": 6858,
      "栗": 6859,
      "率": 6860,
      "隆": 6861,
      "利": 6862,
      "易": 6863,
      "李": 6864,
      "梨": 6865,
      "泥": 6866,
      "理": 6867,
      "溺": 6868,
      "燐": 6869,
      "隣": 6870,
      "麟": 6871,
      "林": 6872,
      "臨": 6873,
      "立": 6874,
      "狀": 6875,
      "炙": 6876,
      "茶": 6877,
      "宅": 6878,
      "福": 6879,
      "！": 6880,
      "＃": 6881,
      "＄": 6882,
      "％": 6883,
      "＆": 6884,
      "＋": 6885,
      "－": 6886,
      "６": 6887,
      "＜": 6888,
      "＝": 6889,
      "＞": 6890,
      "？": 6891,
      "Ｘ": 6892,
      "［": 6893,
      "］": 6894,
      "ｇ": 6895,
      "ｍ": 6896,
      "～": 6897,
      "￡": 6898,
      "￦": 6899,
      "￫": 6900,
      "으로": 6901,
      "했다": 6902,
      "에서": 6903,
      "하는": 6904,
      "있다": 6905,
      "하고": 6906,
      "이다": 6907,
      "20": 6908,
      "한다": 6909,
      "00": 6910,
      "지난": 6911,
      "사업": 6912,
      "19": 6913,
      "이라": 6914,
      "까지": 6915,
      "지원": 6916,
      "있는": 6917,
      "지역": 6918,
      "로나": 6919,
      "코로나": 6920,
      "부터": 6921,
      "위해": 6922,
      "면서": 6923,
      "대한": 6924,
      "됐다": 6925,
      "혔다": 6926,
      "것으로": 6927,
      "통해": 6928,
      "10": 6929,
      "된다": 6930,
      "기업": 6931,
      "밝혔다": 6932,
      "말했다": 6933,
      "적으로": 6934,
      "코로나19": 6935,
      "시장": 6936,
      "적인": 6937,
      "에게": 6938,
      "겠다": 6939,
      "지만": 6940,
      "하기": 6941,
      "었다": 6942,
      "이어": 6943,
      "들이": 6944,
      "이번": 6945,
      "교육": 6946,
      "이라고": 6947,
      "정부": 6948,
      "한국": 6949,
      "자는": 6950,
      "에는": 6951,
      "계획": 6952,
      "관련": 6953,
      "위원": 6954,
      "대표": 6955,
      "위한": 6956,
      "장은": 6957,
      "진행": 6958,
      "대해": 6959,
      "도록": 6960,
      "서울": 6961,
      "국민": 6962,
      "하게": 6963,
      "들의": 6964,
      "개발": 6965,
      "가능": 6966,
      "대상": 6967,
      "억원": 6968,
      "지난해": 6969,
      "등을": 6970,
      "관계": 6971,
      "사회": 6972,
      "추진": 6973,
      "운영": 6974,
      "의원": 6975,
      "하다": 6976,
      "투자": 6977,
      "올해": 6978,
      "았다": 6979,
      "12": 6980,
      "경기": 6981,
      "이상": 6982,
      "함께": 6983,
      "30": 6984,
      "이날": 6985,
      "조사": 6986,
      "연구": 6987,
      "기술": 6988,
      "11": 6989,
      "예정": 6990,
      "확진": 6991,
      "환경": 6992,
      "보다": 6993,
      "산업": 6994,
      "시간": 6995,
      "000": 6996,
      "비스": 6997,
      "후보": 6998,
      "하며": 6999,
      "안전": 7000,
      "에도": 7001,
      "되는": 7002,
      "미국": 7003,
      "접종": 7004,
      "15": 7005,
      "관리": 7006,
      "르면": 7007,
      "21": 7008,
      "센터": 7009,
      "시설": 7010,
      "서비스": 7011,
      "백신": 7012,
      "18": 7013,
      "상황": 7014,
      "),": 7015,
      "문화": 7016,
      "하겠다": 7017,
      "따르면": 7018,
      "이후": 7019,
      "경제": 7020,
      "따라": 7021,
      "국내": 7022,
      "학교": 7023,
      "하지": 7024,
      "자가": 7025,
      "기관": 7026,
      "프로": 7027,
      "경우": 7028,
      "기준": 7029,
      "참여": 7030,
      "들은": 7031,
      "바이": 7032,
      "정책": 7033,
      "으며": 7034,
      "졌다": 7035,
      "만원": 7036,
      "장을": 7037,
      "에서는": 7038,
      "사를": 7039,
      "발생": 7040,
      "최근": 7041,
      "금융": 7042,
      "도시": 7043,
      "이용": 7044,
      "증가": 7045,
      "였다": 7046,
      "필요": 7047,
      "규모": 7048,
      "다양": 7049,
      "결과": 7050,
      "평가": 7051,
      "경찰": 7052,
      "성을": 7053,
      "라인": 7054,
      "제공": 7055,
      "있도록": 7056,
      "전문": 7057,
      "해야": 7058,
      "통령": 7059,
      "현재": 7060,
      "세계": 7061,
      "17": 7062,
      "대통령": 7063,
      "문제": 7064,
      "민주": 7065,
      "우리": 7066,
      "부산": 7067,
      "시민": 7068,
      "16": 7069,
      "감염": 7070,
      "라고": 7071,
      "오는": 7072,
      "25": 7073,
      "하면": 7074,
      "활동": 7075,
      "력을": 7076,
      "사용": 7077,
      "중국": 7078,
      "들어": 7079,
      "14": 7080,
      "다양한": 7081,
      "아니": 7082,
      "위원회": 7083,
      "명이": 7084,
      "확대": 7085,
      "활용": 7086,
      "주택": 7087,
      "기를": 7088,
      "강화": 7089,
      "같은": 7090,
      "기록": 7091,
      "정보": 7092,
      "특히": 7093,
      "시작": 7094,
      "시는": 7095,
      "13": 7096,
      "대비": 7097,
      "피해": 7098,
      "지를": 7099,
      "학생": 7100,
      "주민": 7101,
      "국가": 7102,
      "50": 7103,
      "사는": 7104,
      "설명": 7105,
      "거래": 7106,
      "예정이다": 7107,
      "확인": 7108,
      "정을": 7109,
      "방역": 7110,
      "추가": 7111,
      "22": 7112,
      "회의": 7113,
      "스트": 7114,
      "이에": 7115,
      "관계자는": 7116,
      "자리": 7117,
      "지속": 7118,
      "기대": 7119,
      "선정": 7120,
      "되고": 7121,
      "대로": 7122,
      "개선": 7123,
      "상승": 7124,
      "이라며": 7125,
      "모두": 7126,
      "이는": 7127,
      "발표": 7128,
      "기간": 7129,
      "발전": 7130,
      "전국": 7131,
      "때문": 7132,
      "하면서": 7133,
      "생산": 7134,
      "%)": 7135,
      "했다고": 7136,
      "제품": 7137,
      "수는": 7138,
      "24": 7139,
      "이를": 7140,
      "은행": 7141,
      "마련": 7142,
      "들을": 7143,
      "공급": 7144,
      "리는": 7145,
      "판매": 7146,
      "성장": 7147,
      "분야": 7148,
      "계획이다": 7149,
      "신청": 7150,
      "공동": 7151,
      "가장": 7152,
      "성이": 7153,
      "전망": 7154,
      "없다": 7155,
      "민주당": 7156,
      "국민의": 7157,
      "것이": 7158,
      "일부터": 7159,
      "대구": 7160,
      "지는": 7161,
      "생활": 7162,
      "한편": 7163,
      "광주": 7164,
      "서는": 7165,
      "최대": 7166,
      "100": 7167,
      "업체": 7168,
      "자의": 7169,
      "23": 7170,
      "원을": 7171,
      "수도": 7172,
      "가격": 7173,
      "온라인": 7174,
      "보고": 7175,
      "수사": 7176,
      "어려": 7177,
      "가운": 7178,
      "장이": 7179,
      "동안": 7180,
      "협력": 7181,
      "적극": 7182,
      "공개": 7183,
      "등의": 7184,
      "조성": 7185,
      "도로": 7186,
      "왔다": 7187,
      "고객": 7188,
      "분석": 7189,
      "일까지": 7190,
      "가운데": 7191,
      "대응": 7192,
      "구축": 7193,
      "시스": 7194,
      "강조": 7195,
      "해당": 7196,
      "관광": 7197,
      "그는": 7198,
      "그램": 7199,
      "포함": 7200,
      "많은": 7201,
      "성과": 7202,
      "행정": 7203,
      "글로": 7204,
      "상품": 7205,
      "상을": 7206,
      "라는": 7207,
      "확보": 7208,
      "삼성": 7209,
      "복지": 7210,
      "아이": 7211,
      "마트": 7212,
      "사람": 7213,
      "확산": 7214,
      "대상으로": 7215,
      "2021": 7216,
      "공공": 7217,
      "거리": 7218,
      "등이": 7219,
      "최고": 7220,
      "26": 7221,
      "그러": 7222,
      "들에게": 7223,
      "러스": 7224,
      "공사": 7225,
      "40": 7226,
      "예방": 7227,
      "다른": 7228,
      "기에": 7229,
      "부는": 7230,
      "있어": 7231,
      "직원": 7232,
      "수준": 7233,
      "나타": 7234,
      "시행": 7235,
      "레이": 7236,
      "교통": 7237,
      "적용": 7238,
      "영업": 7239,
      "기존": 7240,
      "업무": 7241,
      "인천": 7242,
      "씨는": 7243,
      "글로벌": 7244,
      "현장": 7245,
      "치를": 7246,
      "단체": 7247,
      "내용": 7248,
      "한다고": 7249,
      "소비": 7250,
      "것이다": 7251,
      "명을": 7252,
      "청년": 7253,
      "이나": 7254,
      "페이": 7255,
      "경영": 7256,
      "혐의": 7257,
      "이고": 7258,
      "주요": 7259,
      "사실": 7260,
      "200": 7261,
      "신규": 7262,
      "의회": 7263,
      "에서도": 7264,
      "로운": 7265,
      "달러": 7266,
      "중심": 7267,
      "과정": 7268,
      "단계": 7269,
      "화를": 7270,
      "앞서": 7271,
      "설명했다": 7272,
      "프로그램": 7273,
      "원은": 7274,
      "의료": 7275,
      "장관": 7276,
      "미래": 7277,
      "랜드": 7278,
      "지방": 7279,
      "것은": 7280,
      "매출": 7281,
      "이라는": 7282,
      "오후": 7283,
      "사건": 7284,
      "지고": 7285,
      "특별": 7286,
      "자체": 7287,
      "건설": 7288,
      "방안": 7289,
      "는다": 7290,
      "자를": 7291,
      "28": 7292,
      "지적": 7293,
      "이터": 7294,
      "점을": 7295,
      "27": 7296,
      "검찰": 7297,
      "결정": 7298,
      "국제": 7299,
      "구성": 7300,
      "시스템": 7301,
      "개최": 7302,
      "앞으로": 7303,
      "검사": 7304,
      "경쟁": 7305,
      "보인": 7306,
      "대학": 7307,
      "실시": 7308,
      "방문": 7309,
      "개월": 7310,
      "등에": 7311,
      "분기": 7312,
      "하지만": 7313,
      "내년": 7314,
      "났다": 7315,
      "없는": 7316,
      "파트": 7317,
      "보호": 7318,
      "’,": 7319,
      "만큼": 7320,
      "가는": 7321,
      "혁신": 7322,
      "2019": 7323,
      "한다는": 7324,
      "건강": 7325,
      "지급": 7326,
      "없이": 7327,
      "29": 7328,
      "병원": 7329,
      "기반": 7330,
      "선거": 7331,
      "사업을": 7332,
      "스타": 7333,
      "국민의힘": 7334,
      "것을": 7335,
      "도를": 7336,
      "가족": 7337,
      "지난달": 7338,
      "회사": 7339,
      "예산": 7340,
      "했고": 7341,
      "현대": 7342,
      "전자": 7343,
      "2019년": 7344,
      "또한": 7345,
      "대출": 7346,
      "일본": 7347,
      "전체": 7348,
      "사이": 7349,
      "거나": 7350,
      "대책": 7351,
      "준비": 7352,
      "강조했다": 7353,
      "예상": 7354,
      "국회": 7355,
      "그룹": 7356,
      "효과": 7357,
      "중앙": 7358,
      "개인": 7359,
      "대전": 7360,
      "치료": 7361,
      "다는": 7362,
      "전기": 7363,
      "설치": 7364,
      "가구": 7365,
      "자동": 7366,
      "부동": 7367,
      "높은": 7368,
      "리를": 7369,
      "명의": 7370,
      "사고": 7371,
      "받았다": 7372,
      "보험": 7373,
      "영향": 7374,
      "의원은": 7375,
      "우려": 7376,
      "받아": 7377,
      "일부": 7378,
      "목표": 7379,
      "수요": 7380,
      "전했다": 7381,
      "선을": 7382,
      "받은": 7383,
      "직접": 7384,
      "플랫": 7385,
      "해외": 7386,
      "따른": 7387,
      "업계": 7388,
      "감소": 7389,
      "라이": 7390,
      "우수": 7391,
      "공간": 7392,
      "플랫폼": 7393,
      "경기도": 7394,
      "부동산": 7395,
      "자신": 7396,
      "확진자": 7397,
      "당시": 7398,
      "세대": 7399,
      "60": 7400,
      "회를": 7401,
      "정치": 7402,
      "너지": 7403,
      "두고": 7404,
      "스마트": 7405,
      "노력": 7406,
      "의견": 7407,
      ")’": 7408,
      "제로": 7409,
      "생각": 7410,
      "소득": 7411,
      "하나": 7412,
      "지지": 7413,
      "알려": 7414,
      "모든": 7415,
      "계약": 7416,
      "전남": 7417,
      "보인다": 7418,
      "이익": 7419,
      "있다는": 7420,
      "새로운": 7421,
      "들과": 7422,
      "다시": 7423,
      "평균": 7424,
      "위를": 7425,
      "불어": 7426,
      "증권": 7427,
      "방식": 7428,
      "여성": 7429,
      "금을": 7430,
      "유지": 7431,
      "본부": 7432,
      "신고": 7433,
      "아니라": 7434,
      "종합": 7435,
      "회복": 7436,
      "방송": 7437,
      "수가": 7438,
      "주장": 7439,
      "중소": 7440,
      "제한": 7441,
      "부분": 7442,
      "시에": 7443,
      "전략": 7444,
      "만에": 7445,
      "활성": 7446,
      "리고": 7447,
      "하여": 7448,
      "자산": 7449,
      "늘어": 7450,
      "도입": 7451,
      "반도": 7452,
      "시아": 7453,
      "디지": 7454,
      "요구": 7455,
      "는데": 7456,
      "%,": 7457,
      "행사": 7458,
      "라며": 7459,
      "소년": 7460,
      "렸다": 7461,
      "노동": 7462,
      "각각": 7463,
      "이뤄": 7464,
      "관심": 7465,
      "안정": 7466,
      "협약": 7467,
      "디지털": 7468,
      "SK": 7469,
      "상태": 7470,
      "원이": 7471,
      "공모": 7472,
      "차량": 7473,
      "에너지": 7474,
      "데이터": 7475,
      "1일": 7476,
      "책임": 7477,
      "받고": 7478,
      "..": 7479,
      "등으로": 7480,
      "비롯": 7481,
      "했던": 7482,
      "으나": 7483,
      "통신": 7484,
      "이유": 7485,
      "역시": 7486,
      "전환": 7487,
      "보건": 7488,
      "사회적": 7489,
      "기가": 7490,
      "검토": 7491,
      "사례": 7492,
      "명으로": 7493,
      "집중": 7494,
      "때문에": 7495,
      "수출": 7496,
      "3월": 7497,
      "아파트": 7498,
      "대표는": 7499,
      "대회": 7500,
      "마을": 7501,
      "반기": 7502,
      "고려": 7503,
      "감사": 7504,
      "장애": 7505,
      "제도": 7506,
      "오전": 7507,
      "주의": 7508,
      "더불어": 7509,
      "체계": 7510,
      "논의": 7511,
      "1년": 7512,
      "자인": 7513,
      "수도권": 7514,
      "스크": 7515,
      "의혹": 7516,
      "현지": 7517,
      "아동": 7518,
      "다음": 7519,
      "더욱": 7520,
      "당국": 7521,
      "기로": 7522,
      "일반": 7523,
      "인트": 7524,
      "원의": 7525,
      "사가": 7526,
      "6월": 7527,
      "점검": 7528,
      "열린": 7529,
      "대선": 7530,
      "장기": 7531,
      "선수": 7532,
      "70": 7533,
      "LG": 7534,
      "조치": 7535,
      "중요": 7536,
      "출시": 7537,
      "버스": 7538,
      "반영": 7539,
      "부담": 7540,
      "이며": 7541,
      "구조": 7542,
      "세를": 7543,
      "%),": 7544,
      "중인": 7545,
      "전년": 7546,
      "경북": 7547,
      "변화": 7548,
      "있을": 7549,
      "다만": 7550,
      "자치": 7551,
      "이하": 7552,
      "시가": 7553,
      "기본": 7554,
      "공인": 7555,
      "판단": 7556,
      "2020": 7557,
      "회장": 7558,
      "되지": 7559,
      "일자리": 7560,
      "1만": 7561,
      "바이러스": 7562,
      "역할": 7563,
      "7월": 7564,
      "단지": 7565,
      "브랜드": 7566,
      "80": 7567,
      "전문가": 7568,
      "처음": 7569,
      "하기로": 7570,
      "공정": 7571,
      "대를": 7572,
      "도가": 7573,
      "실적": 7574,
      "재판": 7575,
      "소재": 7576,
      "영상": 7577,
      "4월": 7578,
      "움을": 7579,
      "최초": 7580,
      "주는": 7581,
      "방침": 7582,
      "텐츠": 7583,
      "고용": 7584,
      "AI": 7585,
      "식을": 7586,
      "제작": 7587,
      "기획": 7588,
      "이미": 7589,
      "포인트": 7590,
      "이전": 7591,
      "중이다": 7592,
      "군은": 7593,
      "않은": 7594,
      "사전": 7595,
      "대면": 7596,
      "부문": 7597,
      "외국": 7598,
      "인이": 7599,
      "수를": 7600,
      "제를": 7601,
      "자동차": 7602,
      "모델": 7603,
      "참석": 7604,
      "5월": 7605,
      "자로": 7606,
      "12월": 7607,
      "인은": 7608,
      "만들": 7609,
      "감독": 7610,
      "콘텐츠": 7611,
      "정상": 7612,
      "탄소": 7613,
      "위험": 7614,
      "통합": 7615,
      "어린": 7616,
      "인터": 7617,
      "않고": 7618,
      "서비스를": 7619,
      "향후": 7620,
      "체육": 7621,
      "성공": 7622,
      "이재": 7623,
      "식품": 7624,
      "2021년": 7625,
      "도는": 7626,
      "농업": 7627,
      "카드": 7628,
      "협의": 7629,
      "구매": 7630,
      "9월": 7631,
      "사항": 7632,
      "본격": 7633,
      "전날": 7634,
      "있다고": 7635,
      "나온": 7636,
      "이자": 7637,
      "최종": 7638,
      "청소년": 7639,
      "핵심": 7640,
      "우선": 7641,
      "경남": 7642,
      "지정": 7643,
      "2차": 7644,
      "필요한": 7645,
      "사망": 7646,
      "위반": 7647,
      "개정": 7648,
      "반도체": 7649,
      "통한": 7650,
      "1명": 7651,
      "1월": 7652,
      "조정": 7653,
      "받을": 7654,
      "창업": 7655,
      "인정": 7656,
      "운동": 7657,
      "처리": 7658,
      "이었다": 7659,
      "않았다": 7660,
      "전달": 7661,
      "지구": 7662,
      "별로": 7663,
      "주시": 7664,
      "계속": 7665,
      "기도": 7666,
      "시장은": 7667,
      "범죄": 7668,
      "인을": 7669,
      "여러": 7670,
      "붙였다": 7671,
      "과학": 7672,
      "지도": 7673,
      "홍보": 7674,
      "나타났다": 7675,
      "8월": 7676,
      "예술": 7677,
      "사의": 7678,
      "A씨": 7679,
      "10월": 7680,
      "2018": 7681,
      "관련해": 7682,
      "기능": 7683,
      "자료": 7684,
      "친환경": 7685,
      "처럼": 7686,
      "주가": 7687,
      "지금": 7688,
      "게임": 7689,
      "민간": 7690,
      "바이오": 7691,
      "모습": 7692,
      "상공인": 7693,
      "년간": 7694,
      "충북": 7695,
      "가능한": 7696,
      "기자": 7697,
      "덧붙였다": 7698,
      "또는": 7699,
      "완료": 7700,
      "11월": 7701,
      "등록": 7702,
      "했지만": 7703,
      "원에": 7704,
      "보유": 7705,
      "있으며": 7706,
      "가지": 7707,
      "활성화": 7708,
      "해결": 7709,
      "여부": 7710,
      "다고": 7711,
      "크게": 7712,
      "제기": 7713,
      "제시": 7714,
      "감을": 7715,
      "체험": 7716,
      "정부는": 7717,
      "소상공인": 7718,
      "위기": 7719,
      "서를": 7720,
      "500": 7721,
      "의미": 7722,
      "이동": 7723,
      "수익": 7724,
      "정부가": 7725,
      "TV": 7726,
      "2018년": 7727,
      "되면": 7728,
      "원으로": 7729,
      "찾아": 7730,
      "비판": 7731,
      "인증": 7732,
      "리가": 7733,
      "제출": 7734,
      "인해": 7735,
      "조직": 7736,
      "절차": 7737,
      "소를": 7738,
      "나라": 7739,
      "이달": 7740,
      "량을": 7741,
      "2월": 7742,
      "사무": 7743,
      "리아": 7744,
      "공무": 7745,
      "희망": 7746,
      "재난": 7747,
      "번째": 7748,
      "코로나19로": 7749,
      "안을": 7750,
      "시험": 7751,
      "진단": 7752,
      "유치": 7753,
      "인구": 7754,
      "SG": 7755,
      "연계": 7756,
      "2020년": 7757,
      "으면": 7758,
      "금지": 7759,
      "’(": 7760,
      "건축": 7761,
      "물론": 7762,
      "공유": 7763,
      "이와": 7764,
      "중심으로": 7765,
      "자금": 7766,
      "있었다": 7767,
      "냈다": 7768,
      "수상": 7769,
      "논란": 7770,
      "제조": 7771,
      "비용": 7772,
      "충남": 7773,
      "가능하다": 7774,
      "하락": 7775,
      "해서": 7776,
      "했으며": 7777,
      "규제": 7778,
      "인의": 7779,
      "35": 7780,
      "체결": 7781,
      "인한": 7782,
      "부가": 7783,
      "불법": 7784,
      "가입": 7785,
      "소방": 7786,
      "사랑": 7787,
      "권을": 7788,
      "부족": 7789,
      "더불어민주당": 7790,
      "기록했다": 7791,
      "항공": 7792,
      "수소": 7793,
      "하루": 7794,
      "이런": 7795,
      "언론": 7796,
      "활동을": 7797,
      "전시": 7798,
      "과정에서": 7799,
      "임대": 7800,
      "문을": 7801,
      "자원": 7802,
      "요청": 7803,
      "력이": 7804,
      "마음": 7805,
      "지원을": 7806,
      "모집": 7807,
      "장의": 7808,
      "스포": 7809,
      "차지": 7810,
      "공식": 7811,
      "물을": 7812,
      "그러나": 7813,
      "하도록": 7814,
      "협회": 7815,
      "같이": 7816,
      "1차": 7817,
      "인사": 7818,
      "중소기업": 7819,
      "스는": 7820,
      "경험": 7821,
      "보면": 7822,
      "가치": 7823,
      "사태": 7824,
      "시즌": 7825,
      "소통": 7826,
      "란다": 7827,
      "기는": 7828,
      "발굴": 7829,
      "나가": 7830,
      "소비자": 7831,
      "과의": 7832,
      "관한": 7833,
      "정부의": 7834,
      "섰다": 7835,
      "2명": 7836,
      "이사": 7837,
      "상담": 7838,
      "연속": 7839,
      "선택": 7840,
      "전을": 7841,
      "좋은": 7842,
      "넘어": 7843,
      "필요하다": 7844,
      "2년": 7845,
      "환자": 7846,
      "억원을": 7847,
      "합의": 7848,
      "작업": 7849,
      "90": 7850,
      "어린이": 7851,
      "거쳐": 7852,
      "진다": 7853,
      "비대면": 7854,
      "행위": 7855,
      "그러면서": 7856,
      "시대": 7857,
      "입장": 7858,
      "바란다": 7859,
      "분양": 7860,
      "있고": 7861,
      "알려졌다": 7862,
      "만들어": 7863,
      "확진자가": 7864,
      "근로": 7865,
      "취업": 7866,
      "방침이다": 7867,
      "차례": 7868,
      "혐의로": 7869,
      "주식": 7870,
      "소속": 7871,
      "북한": 7872,
      "집단": 7873,
      "수원": 7874,
      "제외": 7875,
      "담당": 7876,
      "린다": 7877,
      "주거": 7878,
      "많이": 7879,
      "작품": 7880,
      "지에": 7881,
      "해양": 7882,
      "제주": 7883,
      "되면서": 7884,
      "최소": 7885,
      "확정": 7886,
      "있게": 7887,
      "홈페이": 7888,
      "조합": 7889,
      "금리": 7890,
      "지자체": 7891,
      "유통": 7892,
      "정비": 7893,
      "카카": 7894,
      "세종": 7895,
      "대형": 7896,
      "보여": 7897,
      "공연": 7898,
      "투입": 7899,
      "거리두": 7900,
      "인력": 7901,
      "국토": 7902,
      "아닌": 7903,
      "인상": 7904,
      "보도": 7905,
      "프리": 7906,
      "유럽": 7907,
      "여행": 7908,
      "설립": 7909,
      "드러": 7910,
      "했다는": 7911,
      "하이": 7912,
      "재단": 7913,
      "에선": 7914,
      "방안을": 7915,
      "디어": 7916,
      "역할을": 7917,
      "시키": 7918,
      "달라": 7919,
      "어려운": 7920,
      "었던": 7921,
      "강원": 7922,
      "34": 7923,
      "가능성이": 7924,
      "케이": 7925,
      "방법": 7926,
      "접촉": 7927,
      "누적": 7928,
      "36": 7929,
      "로부터": 7930,
      "앞으로도": 7931,
      "대통령은": 7932,
      "비율": 7933,
      "2022": 7934,
      "3일": 7935,
      "코스": 7936,
      "지적했다": 7937,
      "영화": 7938,
      "후보는": 7939,
      "카카오": 7940,
      "장과": 7941,
      "최선을": 7942,
      "전북": 7943,
      "움이": 7944,
      "5일": 7945,
      "편의": 7946,
      "나는": 7947,
      "원에서": 7948,
      "기여": 7949,
      "근무": 7950,
      "측은": 7951,
      "트를": 7952,
      "때문이다": 7953,
      "프라": 7954,
      "림픽": 7955,
      "시청": 7956,
      "교수": 7957,
      "부모": 7958,
      "자유": 7959,
      "심사": 7960,
      "3년": 7961,
      "수행": 7962,
      "하려": 7963,
      "교육청": 7964,
      "방향": 7965,
      "받는": 7966,
      "전기차": 7967,
      "가상": 7968,
      "이재명": 7969,
      "드는": 7970,
      "아직": 7971,
      "채용": 7972,
      "되며": 7973,
      "떨어": 7974,
      "심의": 7975,
      "중단": 7976,
      "상당": 7977,
      "롯데": 7978,
      "7일": 7979,
      "전해": 7980,
      "A씨는": 7981,
      "각종": 7982,
      "바이든": 7983,
      "8일": 7984,
      "300": 7985,
      "신속": 7986,
      "양성": 7987,
      "서울시": 7988,
      "인도": 7989,
      "하거나": 7990,
      "배출": 7991,
      "자신의": 7992,
      "파악": 7993,
      "15일": 7994,
      "높아": 7995,
      "구청": 7996,
      "영국": 7997,
      "가스": 7998,
      "장애인": 7999,
      "사진": 8000,
      "재인": 8001,
      "쳤다": 8002,
      "3명": 8003,
      "혜택": 8004,
      "기념": 8005,
      "라도": 8006,
      "민국": 8007,
      "기부": 8008,
      "베이": 8009,
      "생태": 8010,
      "되어": 8011,
      "나온다": 8012,
      "밖에": 8013,
      "지가": 8014,
      "KB": 8015,
      "집계": 8016,
      "세가": 8017,
      "ESG": 8018,
      "의무": 8019,
      "인공": 8020,
      "진출": 8021,
      "법인": 8022,
      "올림픽": 8023,
      "제안": 8024,
      "디자인": 8025,
      "반면": 8026,
      "가정": 8027,
      "맞춤": 8028,
      "1000": 8029,
      "비롯해": 8030,
      "이해": 8031,
      "일상": 8032,
      "금액": 8033,
      "대한민국": 8034,
      "취약": 8035,
      "정도": 8036,
      "나서": 8037,
      "실제": 8038,
      "2일": 8039,
      "외국인": 8040,
      "전망이다": 8041,
      "문재인": 8042,
      "재산": 8043,
      "통과": 8044,
      "사업은": 8045,
      "신용": 8046,
      "나선": 8047,
      "위는": 8048,
      "변이": 8049,
      "학습": 8050,
      "아울": 8051,
      "행복": 8052,
      "자와": 8053,
      "기소": 8054,
      "자연": 8055,
      "참가": 8056,
      "1조": 8057,
      "비교": 8058,
      "울산": 8059,
      "무리": 8060,
      "4일": 8061,
      "그동안": 8062,
      "조선": 8063,
      "리그": 8064,
      "38": 8065,
      "전용": 8066,
      "주장했다": 8067,
      "공항": 8068,
      "재정": 8069,
      "내부": 8070,
      "프로젝": 8071,
      "나갈": 8072,
      "완화": 8073,
      "대학교": 8074,
      "플레이": 8075,
      "지원금": 8076,
      "37": 8077,
      "10일": 8078,
      "선고": 8079,
      "9일": 8080,
      "변경": 8081,
      "3개": 8082,
      "비중": 8083,
      "변호": 8084,
      "창출": 8085,
      "2만": 8086,
      "학과": 8087,
      "달성": 8088,
      "대가": 8089,
      "펀드": 8090,
      "자들이": 8091,
      "26일": 8092,
      "14일": 8093,
      "의견을": 8094,
      "테이": 8095,
      "접수": 8096,
      "르게": 8097,
      "나왔다": 8098,
      "25일": 8099,
      "위에": 8100,
      "대해서는": 8101,
      "인권": 8102,
      "재생": 8103,
      "규모의": 8104,
      "있지만": 8105,
      "장에": 8106,
      "아울러": 8107,
      "구역": 8108,
      "접종을": 8109,
      "않는": 8110,
      "육성": 8111,
      "이벤": 8112,
      "인근": 8113,
      "전히": 8114,
      "45": 8115,
      "치는": 8116,
      "31": 8117,
      "공원": 8118,
      "철도": 8119,
      "비를": 8120,
      "기업의": 8121,
      "기술을": 8122,
      "2017": 8123,
      "복합": 8124,
      "스를": 8125,
      "역사": 8126,
      "토론": 8127,
      "5000": 8128,
      "39": 8129,
      "와의": 8130,
      "돌아": 8131,
      "훈련": 8132,
      "22일": 8133,
      "구체": 8134,
      "조사를": 8135,
      "윤석": 8136,
      "사업에": 8137,
      "목소": 8138,
      "허가": 8139,
      "er": 8140,
      "위치": 8141,
      "영향을": 8142,
      "설계": 8143,
      "2000": 8144,
      "보상": 8145,
      "연결": 8146,
      "주목": 8147,
      "매우": 8148,
      "건의": 8149,
      "30일": 8150,
      "연합": 8151,
      "효율": 8152,
      "구속": 8153,
      "쇼핑": 8154,
      "언급": 8155,
      "당부": 8156,
      "바탕": 8157,
      "이야": 8158,
      "보였다": 8159,
      "65": 8160,
      "18일": 8161,
      "인재": 8162,
      "올랐": 8163,
      "만나": 8164,
      "집행": 8165,
      "산물": 8166,
      "동의": 8167,
      "NS": 8168,
      "6일": 8169,
      "주변": 8170,
      "테크": 8171,
      "수립": 8172,
      "진흥": 8173,
      "기후": 8174,
      "12일": 8175,
      "인프라": 8176,
      "제가": 8177,
      "채널": 8178,
      "자들의": 8179,
      "토지": 8180,
      "일정": 8181,
      "점이": 8182,
      "23일": 8183,
      "수수": 8184,
      "지속적으로": 8185,
      "할인": 8186,
      "17일": 8187,
      "마이": 8188,
      "29일": 8189,
      "위로": 8190,
      "연구원은": 8191,
      "앞두고": 8192,
      "외교": 8193,
      "발견": 8194,
      "아시아": 8195,
      "네이": 8196,
      "거리두기": 8197,
      "청와": 8198,
      "긴급": 8199,
      "윤석열": 8200,
      "관은": 8201,
      "20일": 8202,
      "법무": 8203,
      "지로": 8204,
      "상장": 8205,
      "선발": 8206,
      "배터": 8207,
      "28일": 8208,
      "연장": 8209,
      "운용": 8210,
      "예약": 8211,
      "회장은": 8212,
      "년까지": 8213,
      "거주": 8214,
      "발언": 8215,
      "바일": 8216,
      "지역의": 8217,
      "16일": 8218,
      "방지": 8219,
      "정보를": 8220,
      "서도": 8221,
      "KT": 8222,
      "13일": 8223,
      "운드": 8224,
      "않는다": 8225,
      "안에": 8226,
      "4개": 8227,
      "년부터": 8228,
      "차별": 8229,
      "상이": 8230,
      "올라": 8231,
      "모바일": 8232,
      "해소": 8233,
      "...": 8234,
      "24일": 8235,
      "공무원": 8236,
      "도내": 8237,
      "21일": 8238,
      "배우": 8239,
      "물류": 8240,
      "확진자는": 8241,
      "점에서": 8242,
      "내고": 8243,
      "스포츠": 8244,
      "주도": 8245,
      "바탕으로": 8246,
      "유튜": 8247,
      "늘었다": 8248,
      "어렵": 8249,
      "량이": 8250,
      "롭게": 8251,
      "지능": 8252,
      "대부분": 8253,
      "4명": 8254,
      "스코": 8255,
      "먼저": 8256,
      "바로": 8257,
      "27일": 8258,
      "처벌": 8259,
      "이기": 8260,
      "현실": 8261,
      "니다": 8262,
      "상황에서": 8263,
      "뿐만": 8264,
      "지사": 8265,
      "중립": 8266,
      "결과를": 8267,
      "벤처": 8268,
      "그린": 8269,
      "농가": 8270,
      "누구": 8271,
      "정의": 8272,
      "계획을": 8273,
      "징역": 8274,
      "르는": 8275,
      "신설": 8276,
      "투기": 8277,
      "장관은": 8278,
      "처분": 8279,
      "11일": 8280,
      "다가": 8281,
      "나오": 8282,
      "수입": 8283,
      "19일": 8284,
      "등학교": 8285,
      "5개": 8286,
      "건을": 8287,
      "지역사회": 8288,
      "오른": 8289,
      "종사": 8290,
      "배달": 8291,
      "5년": 8292,
      "페이스": 8293,
      "공직": 8294,
      "상반기": 8295,
      "계층": 8296,
      "주차": 8297,
      "1억": 8298,
      "안내": 8299,
      "씨가": 8300,
      "업종": 8301,
      "맞춤형": 8302,
      "정신": 8303,
      "전통": 8304,
      "하겠다는": 8305,
      "반응": 8306,
      "공장": 8307,
      "검사를": 8308,
      "선언": 8309,
      "들도": 8310,
      "워크": 8311,
      "보장": 8312,
      "인지": 8313,
      "경선": 8314,
      "디오": 8315,
      "모임": 8316,
      "어려움을": 8317,
      "협의회": 8318,
      "스토": 8319,
      "총리": 8320,
      "솔루": 8321,
      "현지시간": 8322,
      "하는데": 8323,
      "상황을": 8324,
      "도서": 8325,
      "음식": 8326,
      "이상의": 8327,
      "법률": 8328,
      "영업이익": 8329,
      "발생한": 8330,
      "위원장": 8331,
      "대에": 8332,
      "작년": 8333,
      "촉구": 8334,
      "대변": 8335,
      "소송": 8336,
      "하기도": 8337,
      "등급": 8338,
      "상생": 8339,
      "기초": 8340,
      "국립": 8341,
      "동물": 8342,
      "예비": 8343,
      "화폐": 8344,
      "성남": 8345,
      "화재": 8346,
      "3만": 8347,
      "교수는": 8348,
      "수칙": 8349,
      "하자": 8350,
      "최초로": 8351,
      "극복": 8352,
      "1천": 8353,
      "대는": 8354,
      "실천": 8355,
      "만원을": 8356,
      "10년": 8357,
      "응답": 8358,
      "프로젝트": 8359,
      "스가": 8360,
      "소개": 8361,
      "신종": 8362,
      "4차": 8363,
      "임상": 8364,
      "보는": 8365,
      "동시에": 8366,
      "전반": 8367,
      "48": 8368,
      "역대": 8369,
      "지하": 8370,
      "주로": 8371,
      "않을": 8372,
      "가능성": 8373,
      "하반기": 8374,
      "봉사": 8375,
      "스터": 8376,
      "여론": 8377,
      "이들": 8378,
      "솔루션": 8379,
      "다하겠다": 8380,
      "투표": 8381,
      "끌어": 8382,
      "자격": 8383,
      "화된": 8384,
      "49": 8385,
      "1인": 8386,
      "in": 8387,
      "규정": 8388,
      "활용해": 8389,
      "증가했다": 8390,
      "신한": 8391,
      "자에게": 8392,
      "과거": 8393,
      "전에": 8394,
      "철저": 8395,
      "마스크": 8396,
      "CC": 8397,
      "반대": 8398,
      "출신": 8399,
      "충분": 8400,
      "입장을": 8401,
      "자율": 8402,
      "문제를": 8403,
      "사과": 8404,
      "부의": 8405,
      "LH": 8406,
      "선도": 8407,
      "우승": 8408,
      "하던": 8409,
      "미술": 8410,
      "음악": 8411,
      "격리": 8412,
      "배터리": 8413,
      "방식으로": 8414,
      "생명": 8415,
      "출연": 8416,
      "상대": 8417,
      "감염증": 8418,
      "매년": 8419,
      "2017년": 8420,
      "오프": 8421,
      "자에": 8422,
      "않아": 8423,
      "SNS": 8424,
      "등은": 8425,
      "보이": 8426,
      "광고": 8427,
      "도움이": 8428,
      "가까": 8429,
      "보증": 8430,
      "마무리": 8431,
      "품질": 8432,
      "문제가": 8433,
      "내용을": 8434,
      "면적": 8435,
      "유튜브": 8436,
      "비해": 8437,
      "마지": 8438,
      "인식": 8439,
      "기회": 8440,
      "맞춰": 8441,
      "나섰다": 8442,
      "총장": 8443,
      "노조": 8444,
      "홈페이지": 8445,
      "기준으로": 8446,
      "일을": 8447,
      "강력": 8448,
      "조금": 8449,
      "2개": 8450,
      "부장": 8451,
      "줄어": 8452,
      "75": 8453,
      "의원이": 8454,
      "캠페": 8455,
      "코로나바이러스": 8456,
      "수급": 8457,
      "수의": 8458,
      "대통령이": 8459,
      "이름": 8460,
      "행을": 8461,
      "업을": 8462,
      "경찰은": 8463,
      "광역": 8464,
      "대규모": 8465,
      "46": 8466,
      "33": 8467,
      "on": 8468,
      "판정을": 8469,
      "화로": 8470,
      "청약": 8471,
      "억원으로": 8472,
      "출범": 8473,
      "마지막": 8474,
      "마다": 8475,
      "공격": 8476,
      "대신": 8477,
      "폭력": 8478,
      "국무": 8479,
      "마케": 8480,
      "균형": 8481,
      "적극적으로": 8482,
      "오늘": 8483,
      "백신을": 8484,
      "공단": 8485,
      "률은": 8486,
      "료를": 8487,
      "리스": 8488,
      "후보가": 8489,
      "신뢰": 8490,
      "장비": 8491,
      "창원": 8492,
      "노인": 8493,
      "플러스": 8494,
      "부정": 8495,
      "실현": 8496,
      "인터넷": 8497,
      "47": 8498,
      "위원장은": 8499,
      "어떤": 8500,
      "골프": 8501,
      "기구": 8502,
      "교체": 8503,
      "향상": 8504,
      "교육을": 8505,
      "그런": 8506,
      "“(": 8507,
      "아니다": 8508,
      "대장": 8509,
      "대화": 8510,
      "조례": 8511,
      "예상된다": 8512,
      "열고": 8513,
      "이들은": 8514,
      "화학": 8515,
      "활용한": 8516,
      "마케팅": 8517,
      "불편": 8518,
      "전력": 8519,
      "호텔": 8520,
      "맞아": 8521,
      "주간": 8522,
      "%(": 8523,
      "비트": 8524,
      "IT": 8525,
      "시도": 8526,
      "지면서": 8527,
      "회원": 8528,
      "치고": 8529,
      "정책을": 8530,
      "2022년": 8531,
      "재해": 8532,
      "55": 8533,
      "특정": 8534,
      "유행": 8535,
      "지사는": 8536,
      "겠다는": 8537,
      "브리": 8538,
      "증가한": 8539,
      "음성": 8540,
      "형태": 8541,
      "연구소": 8542,
      "동기": 8543,
      "협약을": 8544,
      "프로그램을": 8545,
      "스타트": 8546,
      "일이": 8547,
      "결국": 8548,
      "네트": 8549,
      "네이버": 8550,
      "스로": 8551,
      "프트": 8552,
      "차를": 8553,
      "결제": 8554,
      "이벤트": 8555,
      "률이": 8556,
      "역량": 8557,
      "건립": 8558,
      "갖고": 8559,
      "발표했다": 8560,
      "비롯한": 8561,
      "성과를": 8562,
      "장에서": 8563,
      "2016": 8564,
      "학년": 8565,
      "액은": 8566,
      "BC": 8567,
      "손실": 8568,
      "오픈": 8569,
      "올랐다": 8570,
      "미디어": 8571,
      "포함한": 8572,
      "이유로": 8573,
      "달리": 8574,
      "시장의": 8575,
      "대체": 8576,
      "간담": 8577,
      "인공지능": 8578,
      "회는": 8579,
      "못한": 8580,
      "돌파": 8581,
      "연간": 8582,
      "목표로": 8583,
      "3000": 8584,
      "니스": 8585,
      "종목": 8586,
      "CE": 8587,
      "미만": 8588,
      "자세": 8589,
      "대중": 8590,
      "외부": 8591,
      "도와": 8592,
      "정기": 8593,
      "주고": 8594,
      "시장에서": 8595,
      "사로": 8596,
      "시작으로": 8597,
      "내려": 8598,
      "인수": 8599,
      "평화": 8600,
      "꾸준": 8601,
      "취소": 8602,
      "고령": 8603,
      "입주": 8604,
      "포항": 8605,
      "경찰청": 8606,
      "청와대": 8607,
      "조치를": 8608,
      "했으나": 8609,
      "작용": 8610,
      "전면": 8611,
      "거래소": 8612,
      "갔다": 8613,
      "기대한다": 8614,
      "회의를": 8615,
      "드린다": 8616,
      "봤다": 8617,
      "군이": 8618,
      "도의": 8619,
      "이내": 8620,
      "기대된다": 8621,
      "군민": 8622,
      "것도": 8623,
      "1위": 8624,
      "않았": 8625,
      "임시": 8626,
      "률을": 8627,
      "건물": 8628,
      "작가": 8629,
      "같다": 8630,
      "으로써": 8631,
      "뛰어": 8632,
      "추천": 8633,
      "여전히": 8634,
      "고발": 8635,
      "이번에": 8636,
      "추가로": 8637,
      "리지": 8638,
      "당부했다": 8639,
      "었고": 8640,
      "국방": 8641,
      "시간을": 8642,
      "소유": 8643,
      "부과": 8644,
      "힘을": 8645,
      "급증": 8646,
      "이행": 8647,
      "구는": 8648,
      "중요한": 8649,
      "59": 8650,
      "자들은": 8651,
      "약속": 8652,
      "접근": 8653,
      "매수": 8654,
      "부품": 8655,
      "조건": 8656,
      "관을": 8657,
      "사업의": 8658,
      "공약": 8659,
      "작성": 8660,
      "캠프": 8661,
      "사와": 8662,
      "PC": 8663,
      "시티": 8664,
      "공공기관": 8665,
      "통화": 8666,
      "임금": 8667,
      "시범": 8668,
      "없어": 8669,
      "무료": 8670,
      "선물": 8671,
      "표현": 8672,
      "공시": 8673,
      "400": 8674,
      "리에": 8675,
      "씨의": 8676,
      "해도": 8677,
      "정권": 8678,
      "목적": 8679,
      "청구": 8680,
      "우리나라": 8681,
      "질환": 8682,
      "통계": 8683,
      "명에": 8684,
      "도심": 8685,
      "제약": 8686,
      "코리아": 8687,
      "것이라고": 8688,
      "시장이": 8689,
      "가량": 8690,
      "매입": 8691,
      "내는": 8692,
      "이란": 8693,
      "연구원": 8694,
      "개의": 8695,
      "농촌": 8696,
      "조기": 8697,
      "놓고": 8698,
      "탄소중립": 8699,
      "겼다": 8700,
      "부와": 8701,
      "사업으로": 8702,
      "99": 8703,
      "장으로": 8704,
      "자녀": 8705,
      "발표한": 8706,
      "TF": 8707,
      "농협": 8708,
      "것이라는": 8709,
      "법원": 8710,
      "총리는": 8711,
      "하우": 8712,
      "페이스북": 8713,
      "현대차": 8714,
      "최저": 8715,
      "가동": 8716,
      "발행": 8717,
      "진행한다": 8718,
      "판결": 8719,
      "단속": 8720,
      "나무": 8721,
      "인으로": 8722,
      "제공한다": 8723,
      "사업이": 8724,
      "하고자": 8725,
      "더라도": 8726,
      "기회를": 8727,
      "수석": 8728,
      "간의": 8729,
      "형사": 8730,
      "메이": 8731,
      "집계됐다": 8732,
      "들에": 8733,
      "개편": 8734,
      "하겠다고": 8735,
      "평가를": 8736,
      "머니": 8737,
      "티브": 8738,
      ".”": 8739,
      "검증": 8740,
      "부를": 8741,
      "제는": 8742,
      "이로": 8743,
      "준수": 8744,
      "기업이": 8745,
      "전주": 8746,
      "an": 8747,
      "받는다": 8748,
      "서로": 8749,
      "주관": 8750,
      "피해를": 8751,
      "오염": 8752,
      "주문": 8753,
      "수용": 8754,
      "첨단": 8755,
      "상황이": 8756,
      "제대로": 8757,
      "매매": 8758,
      "남성": 8759,
      "삼성전자": 8760,
      "말까지": 8761,
      "고려해": 8762,
      "추정": 8763,
      "주행": 8764,
      "이같이": 8765,
      "허용": 8766,
      "IP": 8767,
      "32": 8768,
      "지수": 8769,
      "물질": 8770,
      "처음으로": 8771,
      "관심을": 8772,
      "라이브": 8773,
      "리티": 8774,
      "적극적인": 8775,
      "명령": 8776,
      "전담": 8777,
      "주제로": 8778,
      "확장": 8779,
      "않다": 8780,
      "의사": 8781,
      "비상": 8782,
      "빠르게": 8783,
      "차단": 8784,
      "쉽게": 8785,
      "고민": 8786,
      "충청": 8787,
      "렇게": 8788,
      "코인": 8789,
      "6명": 8790,
      "4년": 8791,
      "제품을": 8792,
      "뉴딜": 8793,
      "이러": 8794,
      "메시": 8795,
      "노력하겠다": 8796,
      "학대": 8797,
      "만든": 8798,
      "부여": 8799,
      "폭행": 8800,
      "지분": 8801,
      "청주": 8802,
      "드라": 8803,
      "시간이": 8804,
      "상호": 8805,
      "지원하는": 8806,
      "만족": 8807,
      "대표가": 8808,
      "or": 8809,
      "6개": 8810,
      "6개월": 8811,
      "2015": 8812,
      "현황": 8813,
      "1회": 8814,
      "촬영": 8815,
      "등이다": 8816,
      "역을": 8817,
      "부에": 8818,
      "의약": 8819,
      "질문": 8820,
      "경로": 8821,
      "올해는": 8822,
      "사실을": 8823,
      "선보": 8824,
      "충전": 8825,
      "혐의를": 8826,
      "애플": 8827,
      "담은": 8828,
      "시장에": 8829,
      "제공하는": 8830,
      "특수": 8831,
      "5명": 8832,
      "임을": 8833,
      "수요가": 8834,
      "지원한다": 8835,
      "사실상": 8836,
      "음을": 8837,
      "근거": 8838,
      "늘어난": 8839,
      "카페": 8840,
      "공감": 8841,
      "예방접종": 8842,
      "유입": 8843,
      "모습을": 8844,
      "심을": 8845,
      "불과": 8846,
      "운전": 8847,
      "과정을": 8848,
      "심각": 8849,
      "긍정": 8850,
      "여부를": 8851,
      "원하는": 8852,
      "부지": 8853,
      "스의": 8854,
      "시스템을": 8855,
      "정확": 8856,
      "원칙": 8857,
      "효과를": 8858,
      "여름": 8859,
      "4만": 8860,
      "파크": 8861,
      "역량을": 8862,
      "지침": 8863,
      "점으로": 8864,
      "1분기": 8865,
      "회에서": 8866,
      "포함해": 8867,
      "선제": 8868,
      "지켜": 8869,
      "확인할": 8870,
      "68": 8871,
      "라우": 8872,
      "회견": 8873,
      "모니": 8874,
      "어떻": 8875,
      "우려가": 8876,
      "마켓": 8877,
      "기계": 8878,
      "그리고": 8879,
      "당국은": 8880,
      "67": 8881,
      "시의": 8882,
      "해왔다": 8883,
      "성에": 8884,
      "했는데": 8885,
      "al": 8886,
      "에이": 8887,
      "안이": 8888,
      "58": 8889,
      "인과": 8890,
      "2030": 8891,
      "조원": 8892,
      "계약을": 8893,
      "혜택을": 8894,
      "상황이다": 8895,
      "(-": 8896,
      "등에서": 8897,
      "대통령의": 8898,
      "스타트업": 8899,
      "시장을": 8900,
      "관심이": 8901,
      "사상": 8902,
      "단은": 8903,
      "31일": 8904,
      "수산": 8905,
      "구간": 8906,
      "네트워크": 8907,
      "느냐": 8908,
      "프리미": 8909,
      "독립": 8910,
      "행동": 8911,
      "고도": 8912,
      "생각한다": 8913,
      "효과가": 8914,
      "러시아": 8915,
      "환경을": 8916,
      "율이": 8917,
      "관이": 8918,
      "어떻게": 8919,
      "전해졌다": 8920,
      "만의": 8921,
      "57": 8922,
      "시의회": 8923,
      "이틀": 8924,
      "등과": 8925,
      "미세": 8926,
      "고속": 8927,
      "안심": 8928,
      "기금": 8929,
      "외에도": 8930,
      "보급": 8931,
      "통상": 8932,
      "IC": 8933,
      "가를": 8934,
      "BS": 8935,
      "시설을": 8936,
      "재개": 8937,
      "미국의": 8938,
      "경쟁력": 8939,
      "가고": 8940,
      "수업": 8941,
      "이른": 8942,
      "교사": 8943,
      "가진": 8944,
      "산림": 8945,
      "점에": 8946,
      "르고": 8947,
      "케어": 8948,
      "오프라인": 8949,
      "요양": 8950,
      "실질": 8951,
      "라스": 8952,
      "법을": 8953,
      "제네": 8954,
      "이러한": 8955,
      "했을": 8956,
      "메타": 8957,
      "율은": 8958,
      "로봇": 8959,
      "여자": 8960,
      "인데": 8961,
      "이가": 8962,
      "면서도": 8963,
      "가치를": 8964,
      "로서": 8965,
      "지표": 8966,
      "나눔": 8967,
      "회의에서": 8968,
      "화에": 8969,
      "길을": 8970,
      "교류": 8971,
      "돌봄": 8972,
      "상위": 8973,
      "감이": 8974,
      "확인됐다": 8975,
      "누리": 8976,
      "공수": 8977,
      "보수": 8978,
      "44": 8979,
      "남아": 8980,
      "협업": 8981,
      "파트너": 8982,
      "고를": 8983,
      "계를": 8984,
      "승인": 8985,
      "위원회는": 8986,
      "국정": 8987,
      "컨설": 8988,
      "취임": 8989,
      "이트": 8990,
      "원내": 8991,
      "받았": 8992,
      "받지": 8993,
      "관내": 8994,
      "화장": 8995,
      "었지만": 8996,
      "개소": 8997,
      "여야": 8998,
      "노력을": 8999,
      "진행된다": 9000,
      "상의": 9001,
      "완성": 9002,
      "하다는": 9003,
      "운영하는": 9004,
      "선별": 9005,
      "도쿄": 9006,
      "행사를": 9007,
      "낮은": 9008,
      "너무": 9009,
      "도전": 9010,
      "못했다": 9011,
      "시까지": 9012,
      "걸쳐": 9013,
      "기자회견": 9014,
      "시기": 9015,
      "배송": 9016,
      "드시": 9017,
      "물가": 9018,
      "점은": 9019,
      "없었다": 9020,
      "도민": 9021,
      "손해": 9022,
      "부처": 9023,
      "안전한": 9024,
      "인터뷰": 9025,
      "진료": 9026,
      "이루": 9027,
      "실에서": 9028,
      "강남": 9029,
      "적이": 9030,
      "2016년": 9031,
      "시켜": 9032,
      "한미": 9033,
      "가격이": 9034,
      "소프트": 9035,
      "상대로": 9036,
      "무역": 9037,
      "됐고": 9038,
      "취득": 9039,
      "자료를": 9040,
      "폐기": 9041,
      "지역에": 9042,
      "정당": 9043,
      "협조": 9044,
      "시와": 9045,
      "2억": 9046,
      "물량": 9047,
      "절차를": 9048,
      "백화": 9049,
      "상품을": 9050,
      "르신": 9051,
      "3차": 9052,
      "것에": 9053,
      "5만": 9054,
      "서구": 9055,
      "축구": 9056,
      "불가": 9057,
      "어르신": 9058,
      "연금": 9059,
      "과제": 9060,
      "기반으로": 9061,
      "군의": 9062,
      "기다": 9063,
      "출마": 9064,
      "3분기": 9065,
      "삼성전": 9066,
      "연휴": 9067,
      "en": 9068,
      "공동체": 9069,
      "민원": 9070,
      "한화": 9071,
      "주년": 9072,
      "질병": 9073,
      "발전을": 9074,
      "대의": 9075,
      "우주": 9076,
      "30분": 9077,
      "넘는": 9078,
      "곳에": 9079,
      "절반": 9080,
      "방역수칙": 9081,
      "센터는": 9082,
      "능력": 9083,
      "움직": 9084,
      "전화": 9085,
      "실시간": 9086,
      "지나": 9087,
      "지인": 9088,
      "직무": 9089,
      "독일": 9090,
      "단을": 9091,
      "신도시": 9092,
      "피해자": 9093,
      "맞는": 9094,
      "상태다": 9095,
      "누구나": 9096,
      "작은": 9097,
      "표준": 9098,
      "문의": 9099,
      "드라마": 9100,
      "바람": 9101,
      "지역경제": 9102,
      "도에": 9103,
      "상향": 9104,
      "논란이": 9105,
      "정규": 9106,
      "배치": 9107,
      "수치": 9108,
      "됐다고": 9109,
      "컨설팅": 9110,
      "노선": 9111,
      "사업비": 9112,
      "ar": 9113,
      "의심": 9114,
      "에어": 9115,
      "요소": 9116,
      "채권": 9117,
      "꾸준히": 9118,
      "주주": 9119,
      "사장": 9120,
      "공수처": 9121,
      "반드시": 9122,
      "진입": 9123,
      "2023": 9124,
      "친구": 9125,
      "수록": 9126,
      "수술": 9127,
      "자치단체": 9128,
      "69": 9129,
      "선박": 9130,
      "밝힌": 9131,
      "보안": 9132,
      "자기": 9133,
      "협력을": 9134,
      "대기": 9135,
      "축제": 9136,
      "함으로써": 9137,
      "투자를": 9138,
      "체계를": 9139,
      "다운": 9140,
      "않도록": 9141,
      "겪고": 9142,
      "나가겠다": 9143,
      "취약계층": 9144,
      "출입": 9145,
      "at": 9146,
      "명예": 9147,
      "장학": 9148,
      "00만": 9149,
      "유일": 9150,
      "예고": 9151,
      "계열": 9152,
      "무엇": 9153,
      "2분기": 9154,
      "트리": 9155,
      "진을": 9156,
      "개혁": 9157,
      "위해서는": 9158,
      "으로는": 9159,
      "추진하고": 9160,
      "활성화를": 9161,
      "동일": 9162,
      "자문": 9163,
      "시각": 9164,
      "나머": 9165,
      "지속적인": 9166,
      "실내": 9167,
      "들여": 9168,
      "평생": 9169,
      "전지": 9170,
      "고양": 9171,
      "순환": 9172,
      "위가": 9173,
      "지키": 9174,
      "단독": 9175,
      "국토교통": 9176,
      "분의": 9177,
      "합동": 9178,
      "차질": 9179,
      "축소": 9180,
      "88": 9181,
      "제2": 9182,
      "43": 9183,
      "회담": 9184,
      "예측": 9185,
      "2천": 9186,
      "으로부터": 9187,
      "청은": 9188,
      "비판했다": 9189,
      "스마트폰": 9190,
      "중에": 9191,
      "투명": 9192,
      "율을": 9193,
      "주기": 9194,
      "라운드": 9195,
      "7명": 9196,
      "IS": 9197,
      "어느": 9198,
      "여건": 9199,
      "순천": 9200,
      "도서관": 9201,
      "전세": 9202,
      "필수": 9203,
      "4000": 9204,
      "부서": 9205,
      "뉴욕": 9206,
      "현재까지": 9207,
      "단일": 9208,
      "방문해": 9209,
      "초기": 9210,
      "김해": 9211,
      "시부터": 9212,
      "웨어": 9213,
      "총괄": 9214,
      "융합": 9215,
      "있던": 9216,
      "내놓": 9217,
      "56": 9218,
      "착용": 9219,
      "여수": 9220,
      "이웃": 9221,
      "성능": 9222,
      "최소화": 9223,
      "유예": 9224,
      "원과": 9225,
      "적이고": 9226,
      "추석": 9227,
      "20대": 9228,
      "자세한": 9229,
      "종료": 9230,
      "설비": 9231,
      "으로서": 9232,
      "매도": 9233,
      "실을": 9234,
      "투어": 9235,
      "품을": 9236,
      "지역에서": 9237,
      "요금": 9238,
      "특허": 9239,
      "서류": 9240,
      "중증": 9241,
      "자영업": 9242,
      "화이자": 9243,
      "199": 9244,
      "웠다": 9245,
      "위탁": 9246,
      "준다": 9247,
      "유기": 9248,
      "있기": 9249,
      "아가": 9250,
      "GS": 9251,
      "초과": 9252,
      "면역": 9253,
      "연령": 9254,
      "있는데": 9255,
      "새롭게": 9256,
      "이용할": 9257,
      "적절": 9258,
      "게시": 9259,
      "등도": 9260,
      "반발": 9261,
      "모니터": 9262,
      "진행하고": 9263,
      "연기": 9264,
      "직장": 9265,
      "웨이": 9266,
      "분류": 9267,
      "포스코": 9268,
      "동참": 9269,
      "반려": 9270,
      "해석": 9271,
      "식당": 9272,
      "사에": 9273,
      "신문": 9274,
      "프리미엄": 9275,
      "안은": 9276,
      "진행했다": 9277,
      "머스": 9278,
      "대해서도": 9279,
      "78": 9280,
      "분리": 9281,
      "상황에": 9282,
      "심리": 9283,
      "메타버스": 9284,
      "품목": 9285,
      "프랑": 9286,
      "확실": 9287,
      "포럼": 9288,
      "돼야": 9289,
      "정한": 9290,
      "마감": 9291,
      "여기에": 9292,
      "원자": 9293,
      "로는": 9294,
      "드를": 9295,
      "감염병": 9296,
      "여당": 9297,
      "정은": 9298,
      "클럽": 9299,
      "필요가": 9300,
      "형성": 9301,
      "선정된": 9302,
      "트럼": 9303,
      "파이": 9304,
      "아프": 9305,
      "사람이": 9306,
      "나고": 9307,
      "실무": 9308,
      "군수는": 9309,
      "리즈": 9310,
      "총장은": 9311,
      "법에": 9312,
      "대변인은": 9313,
      "가계": 9314,
      "뉴스": 9315,
      "확충": 9316,
      "뮤니": 9317,
      "집단감염": 9318,
      "EU": 9319,
      "지배": 9320,
      "연료": 9321,
      "투자증권": 9322,
      "디스": 9323,
      "보유한": 9324,
      "발의": 9325,
      "커뮤니": 9326,
      "천안": 9327,
      "오미": 9328,
      "열어": 9329,
      "호소": 9330,
      "당초": 9331,
      "답했다": 9332,
      "먼트": 9333,
      "어린이집": 9334,
      "요일": 9335,
      "유도": 9336,
      "매체": 9337,
      "나선다": 9338,
      "월드": 9339,
      "스트라": 9340,
      "장소": 9341,
      "대상은": 9342,
      "안보": 9343,
      "보다는": 9344,
      "대폭": 9345,
      "거듭": 9346,
      "비즈": 9347,
      "센터를": 9348,
      "발생했다": 9349,
      "10만": 9350,
      "원전": 9351,
      "과장은": 9352,
      "동구": 9353,
      "였던": 9354,
      "개발을": 9355,
      "2015년": 9356,
      "회계": 9357,
      "배당": 9358,
      "국회의원": 9359,
      "피고": 9360,
      "제재": 9361,
      "문화재": 9362,
      "의결": 9363,
      "조달": 9364,
      "기울": 9365,
      "법무부": 9366,
      "위기를": 9367,
      "해상": 9368,
      "분야에서": 9369,
      "보이고": 9370,
      "크다": 9371,
      "정해": 9372,
      "개별": 9373,
      "택시": 9374,
      "알고": 9375,
      "함을": 9376,
      "NH": 9377,
      "겨울": 9378,
      "대장동": 9379,
      "변동": 9380,
      "대책을": 9381,
      "야당": 9382,
      "66": 9383,
      "현장에서": 9384,
      "말을": 9385,
      "”…": 9386,
      "기기": 9387,
      "세포": 9388,
      "이제": 9389,
      "출산": 9390,
      "77": 9391,
      "노후": 9392,
      "가능성을": 9393,
      "재판부는": 9394,
      "화상": 9395,
      "150": 9396,
      "빠른": 9397,
      "우수한": 9398,
      "특화": 9399,
      "살펴": 9400,
      "유의": 9401,
      "매각": 9402,
      "흐름": 9403,
      "스스로": 9404,
      "준공": 9405,
      "이용해": 9406,
      "관람": 9407,
      "착수": 9408,
      "지원할": 9409,
      "추진한다": 9410,
      "수밖에": 9411,
      "대만": 9412,
      "6000": 9413,
      "셈이다": 9414,
      "보고서": 9415,
      "실제로": 9416,
      "리기": 9417,
      "감안": 9418,
      "질의": 9419,
      "관련한": 9420,
      "명은": 9421,
      "정도로": 9422,
      "규모로": 9423,
      "84": 9424,
      "지금까지": 9425,
      "선대": 9426,
      "다음달": 9427,
      "만들기": 9428,
      "코스피": 9429,
      "세트": 9430,
      "보니": 9431,
      "보도했다": 9432,
      "갖춘": 9433,
      "책임을": 9434,
      "클라우": 9435,
      "강한": 9436,
      "풀이": 9437,
      "군에": 9438,
      "주일": 9439,
      "초등학교": 9440,
      "태양": 9441,
      "올렸다": 9442,
      "2025": 9443,
      "교회": 9444,
      "관계자": 9445,
      "못하고": 9446,
      "과학기술": 9447,
      "그래": 9448,
      "사법": 9449,
      "수주": 9450,
      "팀은": 9451,
      "부채": 9452,
      "7개": 9453,
      "임직원": 9454,
      "인기": 9455,
      "졸업": 9456,
      "기능을": 9457,
      "지의": 9458,
      "트럼프": 9459,
      "구현": 9460,
      "구성된": 9461,
      "나머지": 9462,
      "계좌": 9463,
      "1개": 9464,
      "화가": 9465,
      "내달": 9466,
      "미세먼": 9467,
      "스럽": 9468,
      "종사자": 9469,
      "5G": 9470,
      "되기": 9471,
      "진행할": 9472,
      "편성": 9473,
      "속에서": 9474,
      "it": 9475,
      "사장은": 9476,
      "ED": 9477,
      "참여한": 9478,
      "블록": 9479,
      "지원사업": 9480,
      "시절": 9481,
      "기준을": 9482,
      "79": 9483,
      "밝히": 9484,
      "추진할": 9485,
      "것과": 9486,
      "운영하고": 9487,
      "살아": 9488,
      "둘러": 9489,
      "내용은": 9490,
      "헬스": 9491,
      "크로": 9492,
      "프레": 9493,
      "안타": 9494,
      "많다": 9495,
      "성장을": 9496,
      "문화예술": 9497,
      "분석했다": 9498,
      "의약품": 9499,
      "특징": 9500,
      "급여": 9501,
      "자본": 9502,
      "CJ": 9503,
      "구입": 9504,
      "화물": 9505,
      "가격은": 9506,
      "가로": 9507,
      "적발": 9508,
      "불안": 9509,
      "지상": 9510,
      "억원의": 9511,
      "곳에서": 9512,
      "비전": 9513,
      "글을": 9514,
      "기타": 9515,
      "모빌": 9516,
      "허위": 9517,
      "산시": 9518,
      "시리즈": 9519,
      "증거": 9520,
      "경쟁력을": 9521,
      "젊은": 9522,
      "스러": 9523,
      "참석한": 9524,
      "유가": 9525,
      "동해": 9526,
      "제공할": 9527,
      "벌어": 9528,
      "에게는": 9529,
      "영역": 9530,
      "됐으며": 9531,
      "수준으로": 9532,
      "재난지원금": 9533,
      "사업자": 9534,
      "권고": 9535,
      "협의체": 9536,
      "높다": 9537,
      "정이": 9538,
      "진행됐다": 9539,
      "주력": 9540,
      "펼쳐": 9541,
      "수사를": 9542,
      "도움을": 9543,
      "통제": 9544,
      "선호": 9545,
      "관측": 9546,
      "중심의": 9547,
      "이드": 9548,
      "보완": 9549,
      "3개월": 9550,
      "쓰레": 9551,
      "성적": 9552,
      "획득": 9553,
      "산업단지": 9554,
      "단순": 9555,
      "없다는": 9556,
      "형을": 9557,
      "트렌": 9558,
      "별로는": 9559,
      "8000": 9560,
      "1호": 9561,
      "공업": 9562,
      "유명": 9563,
      "여론조사": 9564,
      "크론": 9565,
      "국내외": 9566,
      "스티": 9567,
      "지와": 9568,
      "정착": 9569,
      "기업을": 9570,
      "후보의": 9571,
      "잘못": 9572,
      "사건을": 9573,
      "협상": 9574,
      "뱅크": 9575,
      "남북": 9576,
      "감축": 9577,
      "바다": 9578,
      "3억": 9579,
      "정원": 9580,
      "동반": 9581,
      "생태계": 9582,
      "내에": 9583,
      "42": 9584,
      "오피": 9585,
      "7000": 9586,
      "들었다": 9587,
      "치료제": 9588,
      "거부": 9589,
      "현행": 9590,
      "권한": 9591,
      "도약": 9592,
      "어나": 9593,
      "52": 9594,
      "운영을": 9595,
      "측면": 9596,
      "7년": 9597,
      "출발": 9598,
      "평가했다": 9599,
      "“‘": 9600,
      "존재": 9601,
      "건으로": 9602,
      "이탈": 9603,
      "용역": 9604,
      "앞장": 9605,
      "경찰에": 9606,
      "위협": 9607,
      "영상을": 9608,
      "사실이": 9609,
      "입국": 9610,
      "41": 9611,
      "장치": 9612,
      "지검": 9613,
      "NA": 9614,
      "구하고": 9615,
      "업무를": 9616,
      "트로": 9617,
      "노래": 9618,
      "시민들의": 9619,
      "격을": 9620,
      "시상": 9621,
      "선임": 9622,
      "참여해": 9623,
      "백화점": 9624,
      "택배": 9625,
      "보건소": 9626,
      "내에서": 9627,
      "비슷": 9628,
      "지원센터": 9629,
      "개선을": 9630,
      "스와": 9631,
      "시작했다": 9632,
      "TS": 9633,
      "전수": 9634,
      "구체적인": 9635,
      "운행": 9636,
      "하려는": 9637,
      "학부모": 9638,
      "제공하고": 9639,
      "캠페인": 9640,
      "수수료": 9641,
      "메달": 9642,
      "밝혀": 9643,
      "브리핑": 9644,
      "의료기관": 9645,
      "지수는": 9646,
      "강화를": 9647,
      "부담을": 9648,
      "이낙": 9649,
      "EC": 9650,
      "1일부터": 9651,
      "클라우드": 9652,
      "세부": 9653,
      "홍콩": 9654,
      "훼손": 9655,
      "중한": 9656,
      "가지고": 9657,
      "확대해": 9658,
      "발급": 9659,
      "배경": 9660,
      "가해": 9661,
      "베트": 9662,
      "강제": 9663,
      "소식": 9664,
      "이낙연": 9665,
      "김종": 9666,
      "CEO": 9667,
      "개설": 9668,
      "히려": 9669,
      "중대": 9670,
      "화성": 9671,
      "위치한": 9672,
      "액이": 9673,
      "사항을": 9674,
      "본격적인": 9675,
      "침해": 9676,
      "승리": 9677,
      "책을": 9678,
      "차지했다": 9679,
      "씨를": 9680,
      "사에서": 9681,
      "1심": 9682,
      "구를": 9683,
      "수준의": 9684,
      "물이": 9685,
      "모빌리티": 9686,
      "일으": 9687,
      "상환": 9688,
      "얀마": 9689,
      "주를": 9690,
      "량은": 9691,
      "용인": 9692,
      "가맹": 9693,
      "주말": 9694,
      "8명": 9695,
      "당선": 9696,
      "유동": 9697,
      "모니터링": 9698,
      "사용할": 9699,
      "미얀마": 9700,
      "사퇴": 9701,
      "되도록": 9702,
      "중요하다": 9703,
      "박물": 9704,
      "2조": 9705,
      "모아": 9706,
      "과도": 9707,
      "편리": 9708,
      "5천": 9709,
      "이슈": 9710,
      "합리": 9711,
      "권의": 9712,
      "데이": 9713,
      "로드": 9714,
      "참여를": 9715,
      "결혼": 9716,
      "신청을": 9717,
      "오히려": 9718,
      "추진해": 9719,
      "검찰은": 9720,
      "경고": 9721,
      "관련된": 9722,
      "당한": 9723,
      "MO": 9724,
      "공고": 9725,
      "그대로": 9726,
      "이노": 9727,
      "6만": 9728,
      "적합": 9729,
      "의혹을": 9730,
      "기업에": 9731,
      "은행은": 9732,
      "MC": 9733,
      "즐길": 9734,
      "관리를": 9735,
      "비서": 9736,
      "경제적": 9737,
      "89": 9738,
      "공간을": 9739,
      "마음을": 9740,
      "사례가": 9741,
      "54": 9742,
      "보내": 9743,
      "대행": 9744,
      "목소리를": 9745,
      "이준": 9746,
      "향해": 9747,
      "신호": 9748,
      "열리는": 9749,
      "분야의": 9750,
      "국비": 9751,
      "보기": 9752,
      "김영": 9753,
      "션을": 9754,
      "체인": 9755,
      "인하": 9756,
      "관계를": 9757,
      "곳을": 9758,
      "갤럭": 9759,
      "분이": 9760,
      "결합": 9761,
      "드론": 9762,
      "우는": 9763,
      "사회복지": 9764,
      "이스": 9765,
      "후원": 9766,
      "직후": 9767,
      "산업의": 9768,
      "유니": 9769,
      "지원하고": 9770,
      "회에": 9771,
      "새로": 9772,
      "이어질": 9773,
      "이끌": 9774,
      "위안": 9775,
      "모색": 9776,
      "켰다": 9777,
      "기후변화": 9778,
      "더해": 9779,
      "유흥": 9780,
      "가져": 9781,
      "발생하는": 9782,
      "부상": 9783,
      "중국의": 9784,
      "데이터를": 9785,
      "증상": 9786,
      "2014": 9787,
      "재무": 9788,
      "경험을": 9789,
      "하라": 9790,
      "고위": 9791,
      "이렇게": 9792,
      "점유": 9793,
      "부산시": 9794,
      "개를": 9795,
      "재배": 9796,
      "FC": 9797,
      "선정됐다": 9798,
      "명절": 9799,
      "쿠팡": 9800,
      "리더": 9801,
      "법정": 9802,
      "안정적인": 9803,
      "남부": 9804,
      "사인": 9805,
      "업소": 9806,
      "사업이다": 9807,
      "뜻을": 9808,
      "있었": 9809,
      "수로": 9810,
      "베트남": 9811,
      "조사됐다": 9812,
      "폐쇄": 9813,
      "아스트라": 9814,
      "오미크론": 9815,
      "3천": 9816,
      "범위": 9817,
      "농산물": 9818,
      "됐던": 9819,
      "플라스": 9820,
      "으면서": 9821,
      "우리는": 9822,
      "사기": 9823,
      "최대한": 9824,
      "제외한": 9825,
      "얼마": 9826,
      "커뮤니티": 9827,
      "30대": 9828,
      "1명이": 9829,
      "이지만": 9830,
      "지식": 9831,
      "결과가": 9832,
      "만드는": 9833,
      "유산": 9834,
      "64": 9835,
      "제네카": 9836,
      "아트": 9837,
      "금은": 9838,
      "번호": 9839,
      "지시": 9840,
      "시민의": 9841,
      "순으로": 9842,
      "주민들의": 9843,
      "그의": 9844,
      "충분히": 9845,
      "시키는": 9846,
      "법적": 9847,
      "에만": 9848,
      "일환": 9849,
      "리며": 9850,
      "85": 9851,
      "아스트라제네카": 9852,
      "면을": 9853,
      "전파": 9854,
      "최우수": 9855,
      "징계": 9856,
      "비가": 9857,
      "정보통신": 9858,
      "관에서": 9859,
      "분을": 9860,
      "세로": 9861,
      "95": 9862,
      "나와": 9863,
      "고등학교": 9864,
      "접촉자": 9865,
      "단위": 9866,
      "축산": 9867,
      "아이디어": 9868,
      "되길": 9869,
      "관광객": 9870,
      "분명": 9871,
      "시작한": 9872,
      "개방": 9873,
      "1위를": 9874,
      "자리를": 9875,
      "가공": 9876,
      "실태": 9877,
      "PG": 9878,
      "중간": 9879,
      "속도를": 9880,
      "차원에서": 9881,
      "정부와": 9882,
      "여파": 9883,
      "현금": 9884,
      "테마": 9885,
      "600": 9886,
      "다소": 9887,
      "내다": 9888,
      "플라스틱": 9889,
      "이지": 9890,
      "벤처기업": 9891,
      "박람": 9892,
      "야구": 9893,
      "투자자": 9894,
      "많아": 9895,
      "계기로": 9896,
      "어렵다": 9897,
      "석유": 9898,
      "실적을": 9899,
      "사적": 9900,
      "최고의": 9901,
      "다수": 9902,
      "참여할": 9903,
      "패키": 9904,
      "벌금": 9905,
      "부인": 9906,
      "위생": 9907,
      "제정": 9908,
      "권익": 9909,
      "근로자": 9910,
      "증을": 9911,
      "갤럭시": 9912,
      "지역을": 9913,
      "증명": 9914,
      "습니다": 9915,
      "그간": 9916,
      "진은": 9917,
      "기억": 9918,
      "이상이": 9919,
      "간편": 9920,
      "지법": 9921,
      "니어": 9922,
      "전망했다": 9923,
      "본다": 9924,
      "사이트": 9925,
      "겠다고": 9926,
      "경찰서": 9927,
      "진행한": 9928,
      "명이다": 9929,
      "위원회를": 9930,
      "남은": 9931,
      "일대": 9932,
      "콘텐츠를": 9933,
      "문학": 9934,
      "보궐": 9935,
      "전쟁": 9936,
      "ic": 9937,
      "보를": 9938,
      "가속": 9939,
      "급식": 9940,
      "최적": 9941,
      "줄었다": 9942,
      "프랑스": 9943,
      "신세계": 9944,
      "등장": 9945,
      "추진하는": 9946,
      "상임": 9947,
      "유사": 9948,
      "진행된": 9949,
      "지연": 9950,
      "경주": 9951,
      "이야기": 9952,
      "즉시": 9953,
      "전라": 9954,
      "치매": 9955,
      "입법": 9956,
      "재활용": 9957,
      "소화": 9958,
      "납부": 9959,
      "매장": 9960,
      "퇴직": 9961,
      "원활": 9962,
      "잡고": 9963,
      "감소했다": 9964,
      "청렴": 9965,
      "강의": 9966,
      "단이": 9967,
      "마련했다": 9968,
      "임명": 9969,
      "자회사": 9970,
      "후보를": 9971,
      "패션": 9972,
      "불구하고": 9973,
      "강력한": 9974,
      "차세대": 9975,
      "동원": 9976,
      "오르": 9977,
      "달하는": 9978,
      "53": 9979,
      "문제는": 9980,
      "학생들이": 9981,
      "8개": 9982,
      "아름": 9983,
      "설명이다": 9984,
      "델타": 9985,
      "입원": 9986,
      "es": 9987,
      "재건축": 9988,
      "해제": 9989,
      "언제": 9990,
      "의뢰": 9991,
      "푸드": 9992,
      "블랙": 9993,
      "복귀": 9994,
      "일제": 9995,
      "받게": 9996,
      "활발": 9997,
      "촉구했다": 9998,
      "진로": 9999
    },
    "merges": [
      "으 로",
      "했 다",
      "에 서",
      "하 는",
      "있 다",
      "하 고",
      "이 다",
      "2 0",
      "한 다",
      "0 0",
      "지 난",
      "사 업",
      "1 9",
      "이 라",
      "까 지",
      "지 원",
      "있 는",
      "지 역",
      "로 나",
      "코 로나",
      "부 터",
      "위 해",
      "면 서",
      "대 한",
      "됐 다",
      "혔 다",
      "것 으로",
      "통 해",
      "1 0",
      "된 다",
      "기 업",
      "밝 혔다",
      "말 했다",
      "적 으로",
      "코로나 19",
      "시 장",
      "적 인",
      "에 게",
      "겠 다",
      "지 만",
      "하 기",
      "었 다",
      "이 어",
      "들 이",
      "이 번",
      "교 육",
      "이라 고",
      "정 부",
      "한 국",
      "자 는",
      "에 는",
      "계 획",
      "관 련",
      "위 원",
      "대 표",
      "위 한",
      "장 은",
      "진 행",
      "대 해",
      "도 록",
      "서 울",
      "국 민",
      "하 게",
      "들 의",
      "개 발",
      "가 능",
      "대 상",
      "억 원",
      "지난 해",
      "등 을",
      "관 계",
      "사 회",
      "추 진",
      "운 영",
      "의 원",
      "하 다",
      "투 자",
      "올 해",
      "았 다",
      "1 2",
      "경 기",
      "이 상",
      "함 께",
      "3 0",
      "이 날",
      "조 사",
      "연 구",
      "기 술",
      "1 1",
      "예 정",
      "확 진",
      "환 경",
      "보 다",
      "산 업",
      "시 간",
      "00 0",
      "비 스",
      "후 보",
      "하 며",
      "안 전",
      "에 도",
      "되 는",
      "미 국",
      "접 종",
      "1 5",
      "관 리",
      "르 면",
      "2 1",
      "센 터",
      "시 설",
      "서 비스",
      "백 신",
      "1 8",
      "상 황",
      ") ,",
      "문 화",
      "하 겠다",
      "따 르면",
      "이 후",
      "경 제",
      "따 라",
      "국 내",
      "학 교",
      "하 지",
      "자 가",
      "기 관",
      "프 로",
      "경 우",
      "기 준",
      "참 여",
      "들 은",
      "바 이",
      "정 책",
      "으 며",
      "졌 다",
      "만 원",
      "장 을",
      "에서 는",
      "사 를",
      "발 생",
      "최 근",
      "금 융",
      "도 시",
      "이 용",
      "증 가",
      "였 다",
      "필 요",
      "규 모",
      "다 양",
      "결 과",
      "평 가",
      "경 찰",
      "성 을",
      "라 인",
      "제 공",
      "있 도록",
      "전 문",
      "해 야",
      "통 령",
      "현 재",
      "세 계",
      "1 7",
      "대 통령",
      "문 제",
      "민 주",
      "우 리",
      "부 산",
      "시 민",
      "1 6",
      "감 염",
      "라 고",
      "오 는",
      "2 5",
      "하 면",
      "활 동",
      "력 을",
      "사 용",
      "중 국",
      "들 어",
      "1 4",
      "다양 한",
      "아 니",
      "위원 회",
      "명 이",
      "확 대",
      "활 용",
      "주 택",
      "기 를",
      "강 화",
      "같 은",
      "기 록",
      "정 보",
      "특 히",
      "시 작",
      "시 는",
      "1 3",
      "대 비",
      "피 해",
      "지 를",
      "학 생",
      "주 민",
      "국 가",
      "5 0",
      "사 는",
      "설 명",
      "거 래",
      "예정 이다",
      "확 인",
      "정 을",
      "방 역",
      "추 가",
      "2 2",
      "회 의",
      "스 트",
      "이 에",
      "관계 자는",
      "자 리",
      "지 속",
      "기 대",
      "선 정",
      "되 고",
      "대 로",
      "개 선",
      "상 승",
      "이라 며",
      "모 두",
      "이 는",
      "발 표",
      "기 간",
      "발 전",
      "전 국",
      "때 문",
      "하 면서",
      "생 산",
      "% )",
      "했다 고",
      "제 품",
      "수 는",
      "2 4",
      "이 를",
      "은 행",
      "마 련",
      "들 을",
      "공 급",
      "리 는",
      "판 매",
      "성 장",
      "분 야",
      "계획 이다",
      "신 청",
      "공 동",
      "가 장",
      "성 이",
      "전 망",
      "없 다",
      "민주 당",
      "국민 의",
      "것 이",
      "일 부터",
      "대 구",
      "지 는",
      "생 활",
      "한 편",
      "광 주",
      "서 는",
      "최 대",
      "1 00",
      "업 체",
      "자 의",
      "2 3",
      "원 을",
      "수 도",
      "가 격",
      "온 라인",
      "보 고",
      "수 사",
      "어 려",
      "가 운",
      "장 이",
      "동 안",
      "협 력",
      "적 극",
      "공 개",
      "등 의",
      "조 성",
      "도 로",
      "왔 다",
      "고 객",
      "분 석",
      "일 까지",
      "가운 데",
      "대 응",
      "구 축",
      "시 스",
      "강 조",
      "해 당",
      "관 광",
      "그 는",
      "그 램",
      "포 함",
      "많 은",
      "성 과",
      "행 정",
      "글 로",
      "상 품",
      "상 을",
      "라 는",
      "확 보",
      "삼 성",
      "복 지",
      "아 이",
      "마 트",
      "사 람",
      "확 산",
      "대상 으로",
      "20 21",
      "공 공",
      "거 리",
      "등 이",
      "최 고",
      "2 6",
      "그 러",
      "들 에게",
      "러 스",
      "공 사",
      "4 0",
      "예 방",
      "다 른",
      "기 에",
      "부 는",
      "있 어",
      "직 원",
      "수 준",
      "나 타",
      "시 행",
      "레 이",
      "교 통",
      "적 용",
      "영 업",
      "기 존",
      "업 무",
      "인 천",
      "씨 는",
      "글로 벌",
      "현 장",
      "치 를",
      "단 체",
      "내 용",
      "한다 고",
      "소 비",
      "것 이다",
      "명 을",
      "청 년",
      "이 나",
      "페 이",
      "경 영",
      "혐 의",
      "이 고",
      "주 요",
      "사 실",
      "20 0",
      "신 규",
      "의 회",
      "에서 도",
      "로 운",
      "달 러",
      "중 심",
      "과 정",
      "단 계",
      "화 를",
      "앞 서",
      "설명 했다",
      "프로 그램",
      "원 은",
      "의 료",
      "장 관",
      "미 래",
      "랜 드",
      "지 방",
      "것 은",
      "매 출",
      "이라 는",
      "오 후",
      "사 건",
      "지 고",
      "특 별",
      "자 체",
      "건 설",
      "방 안",
      "는 다",
      "자 를",
      "2 8",
      "지 적",
      "이 터",
      "점 을",
      "2 7",
      "검 찰",
      "결 정",
      "국 제",
      "구 성",
      "시스 템",
      "개 최",
      "앞 으로",
      "검 사",
      "경 쟁",
      "보 인",
      "대 학",
      "실 시",
      "방 문",
      "개 월",
      "등 에",
      "분 기",
      "하 지만",
      "내 년",
      "났 다",
      "없 는",
      "파 트",
      "보 호",
      "’ ,",
      "만 큼",
      "가 는",
      "혁 신",
      "20 19",
      "한다 는",
      "건 강",
      "지 급",
      "없 이",
      "2 9",
      "병 원",
      "기 반",
      "선 거",
      "사업 을",
      "스 타",
      "국민의 힘",
      "것 을",
      "도 를",
      "가 족",
      "지난 달",
      "회 사",
      "예 산",
      "했 고",
      "현 대",
      "전 자",
      "2019 년",
      "또 한",
      "대 출",
      "일 본",
      "전 체",
      "사 이",
      "거 나",
      "대 책",
      "준 비",
      "강조 했다",
      "예 상",
      "국 회",
      "그 룹",
      "효 과",
      "중 앙",
      "개 인",
      "대 전",
      "치 료",
      "다 는",
      "전 기",
      "설 치",
      "가 구",
      "자 동",
      "부 동",
      "높 은",
      "리 를",
      "명 의",
      "사 고",
      "받 았다",
      "보 험",
      "영 향",
      "의원 은",
      "우 려",
      "받 아",
      "일 부",
      "목 표",
      "수 요",
      "전 했다",
      "선 을",
      "받 은",
      "직 접",
      "플 랫",
      "해 외",
      "따 른",
      "업 계",
      "감 소",
      "라 이",
      "우 수",
      "공 간",
      "플랫 폼",
      "경기 도",
      "부동 산",
      "자 신",
      "확진 자",
      "당 시",
      "세 대",
      "6 0",
      "회 를",
      "정 치",
      "너 지",
      "두 고",
      "스 마트",
      "노 력",
      "의 견",
      ") ’",
      "제 로",
      "생 각",
      "소 득",
      "하 나",
      "지 지",
      "알 려",
      "모 든",
      "계 약",
      "전 남",
      "보인 다",
      "이 익",
      "있다 는",
      "새 로운",
      "들 과",
      "다 시",
      "평 균",
      "위 를",
      "불 어",
      "증 권",
      "방 식",
      "여 성",
      "금 을",
      "유 지",
      "본 부",
      "신 고",
      "아니 라",
      "종 합",
      "회 복",
      "방 송",
      "수 가",
      "주 장",
      "중 소",
      "제 한",
      "부 분",
      "시 에",
      "전 략",
      "만 에",
      "활 성",
      "리 고",
      "하 여",
      "자 산",
      "늘 어",
      "도 입",
      "반 도",
      "시 아",
      "디 지",
      "요 구",
      "는 데",
      "% ,",
      "행 사",
      "라 며",
      "소 년",
      "렸 다",
      "노 동",
      "각 각",
      "이 뤄",
      "관 심",
      "안 정",
      "협 약",
      "디지 털",
      "S K",
      "상 태",
      "원 이",
      "공 모",
      "차 량",
      "에 너지",
      "데 이터",
      "1 일",
      "책 임",
      "받 고",
      ". .",
      "등 으로",
      "비 롯",
      "했 던",
      "으 나",
      "통 신",
      "이 유",
      "역 시",
      "전 환",
      "보 건",
      "사회 적",
      "기 가",
      "검 토",
      "사 례",
      "명 으로",
      "집 중",
      "때문 에",
      "수 출",
      "3 월",
      "아 파트",
      "대표 는",
      "대 회",
      "마 을",
      "반 기",
      "고 려",
      "감 사",
      "장 애",
      "제 도",
      "오 전",
      "주 의",
      "더 불어",
      "체 계",
      "논 의",
      "1 년",
      "자 인",
      "수도 권",
      "스 크",
      "의 혹",
      "현 지",
      "아 동",
      "다 음",
      "더 욱",
      "당 국",
      "기 로",
      "일 반",
      "인 트",
      "원 의",
      "사 가",
      "6 월",
      "점 검",
      "열 린",
      "대 선",
      "장 기",
      "선 수",
      "7 0",
      "L G",
      "조 치",
      "중 요",
      "출 시",
      "버 스",
      "반 영",
      "부 담",
      "이 며",
      "구 조",
      "세 를",
      "% ),",
      "중 인",
      "전 년",
      "경 북",
      "변 화",
      "있 을",
      "다 만",
      "자 치",
      "이 하",
      "시 가",
      "기 본",
      "공 인",
      "판 단",
      "20 20",
      "회 장",
      "되 지",
      "일 자리",
      "1 만",
      "바이 러스",
      "역 할",
      "7 월",
      "단 지",
      "브 랜드",
      "8 0",
      "전문 가",
      "처 음",
      "하기 로",
      "공 정",
      "대 를",
      "도 가",
      "실 적",
      "재 판",
      "소 재",
      "영 상",
      "4 월",
      "움 을",
      "최 초",
      "주 는",
      "방 침",
      "텐 츠",
      "고 용",
      "A I",
      "식 을",
      "제 작",
      "기 획",
      "이 미",
      "포 인트",
      "이 전",
      "중 이다",
      "군 은",
      "않 은",
      "사 전",
      "대 면",
      "부 문",
      "외 국",
      "인 이",
      "수 를",
      "제 를",
      "자동 차",
      "모 델",
      "참 석",
      "5 월",
      "자 로",
      "12 월",
      "인 은",
      "만 들",
      "감 독",
      "콘 텐츠",
      "정 상",
      "탄 소",
      "위 험",
      "통 합",
      "어 린",
      "인 터",
      "않 고",
      "서비스 를",
      "향 후",
      "체 육",
      "성 공",
      "이 재",
      "식 품",
      "2021 년",
      "도 는",
      "농 업",
      "카 드",
      "협 의",
      "구 매",
      "9 월",
      "사 항",
      "본 격",
      "전 날",
      "있다 고",
      "나 온",
      "이 자",
      "최 종",
      "청 소년",
      "핵 심",
      "우 선",
      "경 남",
      "지 정",
      "2 차",
      "필요 한",
      "사 망",
      "위 반",
      "개 정",
      "반도 체",
      "통 한",
      "1 명",
      "1 월",
      "조 정",
      "받 을",
      "창 업",
      "인 정",
      "운 동",
      "처 리",
      "이 었다",
      "않 았다",
      "전 달",
      "지 구",
      "별 로",
      "주 시",
      "계 속",
      "기 도",
      "시장 은",
      "범 죄",
      "인 을",
      "여 러",
      "붙 였다",
      "과 학",
      "지 도",
      "홍 보",
      "나타 났다",
      "8 월",
      "예 술",
      "사 의",
      "A 씨",
      "10 월",
      "20 18",
      "관련 해",
      "기 능",
      "자 료",
      "친 환경",
      "처 럼",
      "주 가",
      "지 금",
      "게 임",
      "민 간",
      "바이 오",
      "모 습",
      "상 공인",
      "년 간",
      "충 북",
      "가능 한",
      "기 자",
      "덧 붙였다",
      "또 는",
      "완 료",
      "11 월",
      "등 록",
      "했 지만",
      "원 에",
      "보 유",
      "있 으며",
      "가 지",
      "활성 화",
      "해 결",
      "여 부",
      "다 고",
      "크 게",
      "제 기",
      "제 시",
      "감 을",
      "체 험",
      "정부 는",
      "소 상공인",
      "위 기",
      "서 를",
      "5 00",
      "의 미",
      "이 동",
      "수 익",
      "정부 가",
      "T V",
      "2018 년",
      "되 면",
      "원 으로",
      "찾 아",
      "비 판",
      "인 증",
      "리 가",
      "제 출",
      "인 해",
      "조 직",
      "절 차",
      "소 를",
      "나 라",
      "이 달",
      "량 을",
      "2 월",
      "사 무",
      "리 아",
      "공 무",
      "희 망",
      "재 난",
      "번 째",
      "코로나19 로",
      "안 을",
      "시 험",
      "진 단",
      "유 치",
      "인 구",
      "S G",
      "연 계",
      "2020 년",
      "으 면",
      "금 지",
      "’ (",
      "건 축",
      "물 론",
      "공 유",
      "이 와",
      "중심 으로",
      "자 금",
      "있 었다",
      "냈 다",
      "수 상",
      "논 란",
      "제 조",
      "비 용",
      "충 남",
      "가능 하다",
      "하 락",
      "해 서",
      "했 으며",
      "규 제",
      "인 의",
      "3 5",
      "체 결",
      "인 한",
      "부 가",
      "불 법",
      "가 입",
      "소 방",
      "사 랑",
      "권 을",
      "부 족",
      "더불어 민주당",
      "기록 했다",
      "항 공",
      "수 소",
      "하 루",
      "이 런",
      "언 론",
      "활동 을",
      "전 시",
      "과정 에서",
      "임 대",
      "문 을",
      "자 원",
      "요 청",
      "력 이",
      "마 음",
      "지원 을",
      "모 집",
      "장 의",
      "스 포",
      "차 지",
      "공 식",
      "물 을",
      "그러 나",
      "하 도록",
      "협 회",
      "같 이",
      "1 차",
      "인 사",
      "중소 기업",
      "스 는",
      "경 험",
      "보 면",
      "가 치",
      "사 태",
      "시 즌",
      "소 통",
      "란 다",
      "기 는",
      "발 굴",
      "나 가",
      "소비 자",
      "과 의",
      "관 한",
      "정부 의",
      "섰 다",
      "2 명",
      "이 사",
      "상 담",
      "연 속",
      "선 택",
      "전 을",
      "좋 은",
      "넘 어",
      "필요 하다",
      "2 년",
      "환 자",
      "억원 을",
      "합 의",
      "작 업",
      "9 0",
      "어린 이",
      "거 쳐",
      "진 다",
      "비 대면",
      "행 위",
      "그러 면서",
      "시 대",
      "입 장",
      "바 란다",
      "분 양",
      "있 고",
      "알려 졌다",
      "만 들어",
      "확진 자가",
      "근 로",
      "취 업",
      "방침 이다",
      "차 례",
      "혐의 로",
      "주 식",
      "소 속",
      "북 한",
      "집 단",
      "수 원",
      "제 외",
      "담 당",
      "린 다",
      "주 거",
      "많 이",
      "작 품",
      "지 에",
      "해 양",
      "제 주",
      "되 면서",
      "최 소",
      "확 정",
      "있 게",
      "홈 페이",
      "조 합",
      "금 리",
      "지 자체",
      "유 통",
      "정 비",
      "카 카",
      "세 종",
      "대 형",
      "보 여",
      "공 연",
      "투 입",
      "거리 두",
      "인 력",
      "국 토",
      "아 닌",
      "인 상",
      "보 도",
      "프 리",
      "유 럽",
      "여 행",
      "설 립",
      "드 러",
      "했다 는",
      "하 이",
      "재 단",
      "에 선",
      "방안 을",
      "디 어",
      "역할 을",
      "시 키",
      "달 라",
      "어려 운",
      "었 던",
      "강 원",
      "3 4",
      "가능 성이",
      "케 이",
      "방 법",
      "접 촉",
      "누 적",
      "3 6",
      "로 부터",
      "앞으로 도",
      "대통령 은",
      "비 율",
      "20 22",
      "3 일",
      "코 스",
      "지적 했다",
      "영 화",
      "후보 는",
      "카카 오",
      "장 과",
      "최 선을",
      "전 북",
      "움 이",
      "5 일",
      "편 의",
      "나 는",
      "원 에서",
      "기 여",
      "근 무",
      "측 은",
      "트 를",
      "때문 이다",
      "프 라",
      "림 픽",
      "시 청",
      "교 수",
      "부 모",
      "자 유",
      "심 사",
      "3 년",
      "수 행",
      "하 려",
      "교육 청",
      "방 향",
      "받 는",
      "전기 차",
      "가 상",
      "이재 명",
      "드 는",
      "아 직",
      "채 용",
      "되 며",
      "떨 어",
      "심 의",
      "중 단",
      "상 당",
      "롯 데",
      "7 일",
      "전 해",
      "A 씨는",
      "각 종",
      "바이 든",
      "8 일",
      "3 00",
      "신 속",
      "양 성",
      "서울 시",
      "인 도",
      "하 거나",
      "배 출",
      "자신 의",
      "파 악",
      "15 일",
      "높 아",
      "구 청",
      "영 국",
      "가 스",
      "장애 인",
      "사 진",
      "재 인",
      "쳤 다",
      "3 명",
      "혜 택",
      "기 념",
      "라 도",
      "민 국",
      "기 부",
      "베 이",
      "생 태",
      "되 어",
      "나온 다",
      "밖 에",
      "지 가",
      "K B",
      "집 계",
      "세 가",
      "E SG",
      "의 무",
      "인 공",
      "진 출",
      "법 인",
      "올 림픽",
      "제 안",
      "디 자인",
      "반 면",
      "가 정",
      "맞 춤",
      "1 000",
      "비롯 해",
      "이 해",
      "일 상",
      "금 액",
      "대한 민국",
      "취 약",
      "정 도",
      "나 서",
      "실 제",
      "2 일",
      "외국 인",
      "전망 이다",
      "문 재인",
      "재 산",
      "통 과",
      "사업 은",
      "신 용",
      "나 선",
      "위 는",
      "변 이",
      "학 습",
      "아 울",
      "행 복",
      "자 와",
      "기 소",
      "자 연",
      "참 가",
      "1 조",
      "비 교",
      "울 산",
      "무 리",
      "4 일",
      "그 동안",
      "조 선",
      "리 그",
      "3 8",
      "전 용",
      "주장 했다",
      "공 항",
      "재 정",
      "내 부",
      "프로 젝",
      "나 갈",
      "완 화",
      "대 학교",
      "플 레이",
      "지원 금",
      "3 7",
      "10 일",
      "선 고",
      "9 일",
      "변 경",
      "3 개",
      "비 중",
      "변 호",
      "창 출",
      "2 만",
      "학 과",
      "달 성",
      "대 가",
      "펀 드",
      "자 들이",
      "26 일",
      "14 일",
      "의견 을",
      "테 이",
      "접 수",
      "르 게",
      "나 왔다",
      "25 일",
      "위 에",
      "대해 서는",
      "인 권",
      "재 생",
      "규모 의",
      "있 지만",
      "장 에",
      "아울 러",
      "구 역",
      "접종 을",
      "않 는",
      "육 성",
      "이 벤",
      "인 근",
      "전 히",
      "4 5",
      "치 는",
      "3 1",
      "공 원",
      "철 도",
      "비 를",
      "기업 의",
      "기술 을",
      "20 17",
      "복 합",
      "스 를",
      "역 사",
      "토 론",
      "5 000",
      "3 9",
      "와 의",
      "돌 아",
      "훈 련",
      "22 일",
      "구 체",
      "조사 를",
      "윤 석",
      "사업 에",
      "목 소",
      "허 가",
      "e r",
      "위 치",
      "영향 을",
      "설 계",
      "20 00",
      "보 상",
      "연 결",
      "주 목",
      "매 우",
      "건 의",
      "30 일",
      "연 합",
      "효 율",
      "구 속",
      "쇼 핑",
      "언 급",
      "당 부",
      "바 탕",
      "이 야",
      "보 였다",
      "6 5",
      "18 일",
      "인 재",
      "올 랐",
      "만 나",
      "집 행",
      "산 물",
      "동 의",
      "N S",
      "6 일",
      "주 변",
      "테 크",
      "수 립",
      "진 흥",
      "기 후",
      "12 일",
      "인 프라",
      "제 가",
      "채 널",
      "자 들의",
      "토 지",
      "일 정",
      "점 이",
      "23 일",
      "수 수",
      "지속 적으로",
      "할 인",
      "17 일",
      "마 이",
      "29 일",
      "위 로",
      "연구 원은",
      "앞 두고",
      "외 교",
      "발 견",
      "아 시아",
      "네 이",
      "거리두 기",
      "청 와",
      "긴 급",
      "윤석 열",
      "관 은",
      "20 일",
      "법 무",
      "지 로",
      "상 장",
      "선 발",
      "배 터",
      "28 일",
      "연 장",
      "운 용",
      "예 약",
      "회 장은",
      "년 까지",
      "거 주",
      "발 언",
      "바 일",
      "지역 의",
      "16 일",
      "방 지",
      "정보 를",
      "서 도",
      "K T",
      "13 일",
      "운 드",
      "않 는다",
      "안 에",
      "4 개",
      "년 부터",
      "차 별",
      "상 이",
      "올 라",
      "모 바일",
      "해 소",
      ".. .",
      "24 일",
      "공무 원",
      "도 내",
      "21 일",
      "배 우",
      "물 류",
      "확진 자는",
      "점 에서",
      "내 고",
      "스포 츠",
      "주 도",
      "바탕 으로",
      "유 튜",
      "늘 었다",
      "어 렵",
      "량 이",
      "롭 게",
      "지 능",
      "대 부분",
      "4 명",
      "스 코",
      "먼 저",
      "바 로",
      "27 일",
      "처 벌",
      "이 기",
      "현 실",
      "니 다",
      "상황 에서",
      "뿐 만",
      "지 사",
      "중 립",
      "결과 를",
      "벤 처",
      "그 린",
      "농 가",
      "누 구",
      "정 의",
      "계획 을",
      "징 역",
      "르 는",
      "신 설",
      "투 기",
      "장관 은",
      "처 분",
      "11 일",
      "다 가",
      "나 오",
      "수 입",
      "19 일",
      "등 학교",
      "5 개",
      "건 을",
      "지역 사회",
      "오 른",
      "종 사",
      "배 달",
      "5 년",
      "페이 스",
      "공 직",
      "상 반기",
      "계 층",
      "주 차",
      "1 억",
      "안 내",
      "씨 가",
      "업 종",
      "맞춤 형",
      "정 신",
      "전 통",
      "하겠다 는",
      "반 응",
      "공 장",
      "검 사를",
      "선 언",
      "들 도",
      "워 크",
      "보 장",
      "인 지",
      "경 선",
      "디 오",
      "모 임",
      "어려 움을",
      "협 의회",
      "스 토",
      "총 리",
      "솔 루",
      "현지 시간",
      "하는 데",
      "상황 을",
      "도 서",
      "음 식",
      "이상 의",
      "법 률",
      "영업 이익",
      "발생 한",
      "위원 장",
      "대 에",
      "작 년",
      "촉 구",
      "대 변",
      "소 송",
      "하기 도",
      "등 급",
      "상 생",
      "기 초",
      "국 립",
      "동 물",
      "예 비",
      "화 폐",
      "성 남",
      "화 재",
      "3 만",
      "교 수는",
      "수 칙",
      "하 자",
      "최초 로",
      "극 복",
      "1 천",
      "대 는",
      "실 천",
      "만원 을",
      "10 년",
      "응 답",
      "프로젝 트",
      "스 가",
      "소 개",
      "신 종",
      "4 차",
      "임 상",
      "보 는",
      "동 시에",
      "전 반",
      "4 8",
      "역 대",
      "지 하",
      "주 로",
      "않 을",
      "가능 성",
      "하 반기",
      "봉 사",
      "스 터",
      "여 론",
      "이 들",
      "솔루 션",
      "다 하겠다",
      "투 표",
      "끌 어",
      "자 격",
      "화 된",
      "4 9",
      "1 인",
      "i n",
      "규 정",
      "활용 해",
      "증가 했다",
      "신 한",
      "자 에게",
      "과 거",
      "전 에",
      "철 저",
      "마 스크",
      "C C",
      "반 대",
      "출 신",
      "충 분",
      "입 장을",
      "자 율",
      "문제 를",
      "사 과",
      "부 의",
      "L H",
      "선 도",
      "우 승",
      "하 던",
      "미 술",
      "음 악",
      "격 리",
      "배터 리",
      "방식 으로",
      "생 명",
      "출 연",
      "상 대",
      "감염 증",
      "매 년",
      "2017 년",
      "오 프",
      "자 에",
      "않 아",
      "S NS",
      "등 은",
      "보 이",
      "광 고",
      "도 움이",
      "가 까",
      "보 증",
      "마 무리",
      "품 질",
      "문제 가",
      "내용 을",
      "면 적",
      "유튜 브",
      "비 해",
      "마 지",
      "인 식",
      "기 회",
      "맞 춰",
      "나 섰다",
      "총 장",
      "노 조",
      "홈페이 지",
      "기준 으로",
      "일 을",
      "강 력",
      "조 금",
      "2 개",
      "부 장",
      "줄 어",
      "7 5",
      "의원 이",
      "캠 페",
      "코로나 바이러스",
      "수 급",
      "수 의",
      "대통령 이",
      "이 름",
      "행 을",
      "업 을",
      "경찰 은",
      "광 역",
      "대 규모",
      "4 6",
      "3 3",
      "o n",
      "판 정을",
      "화 로",
      "청 약",
      "억원 으로",
      "출 범",
      "마지 막",
      "마 다",
      "공 격",
      "대 신",
      "폭 력",
      "국 무",
      "마 케",
      "균 형",
      "적극 적으로",
      "오 늘",
      "백신 을",
      "공 단",
      "률 은",
      "료 를",
      "리 스",
      "후보 가",
      "신 뢰",
      "장 비",
      "창 원",
      "노 인",
      "플 러스",
      "부 정",
      "실 현",
      "인터 넷",
      "4 7",
      "위원 장은",
      "어 떤",
      "골 프",
      "기 구",
      "교 체",
      "향 상",
      "교육 을",
      "그 런",
      "“ (",
      "아니 다",
      "대 장",
      "대 화",
      "조 례",
      "예상 된다",
      "열 고",
      "이 들은",
      "화 학",
      "활용 한",
      "마케 팅",
      "불 편",
      "전 력",
      "호 텔",
      "맞 아",
      "주 간",
      "% (",
      "비 트",
      "I T",
      "시 도",
      "지 면서",
      "회 원",
      "치 고",
      "정책 을",
      "2022 년",
      "재 해",
      "5 5",
      "특 정",
      "유 행",
      "지 사는",
      "겠다 는",
      "브 리",
      "증가 한",
      "음 성",
      "형 태",
      "연구 소",
      "동 기",
      "협약 을",
      "프로그램 을",
      "스타 트",
      "일 이",
      "결 국",
      "네 트",
      "네이 버",
      "스 로",
      "프 트",
      "차 를",
      "결 제",
      "이벤 트",
      "률 이",
      "역 량",
      "건 립",
      "갖 고",
      "발표 했다",
      "비롯 한",
      "성과 를",
      "장 에서",
      "20 16",
      "학 년",
      "액 은",
      "B C",
      "손 실",
      "오 픈",
      "올랐 다",
      "미 디어",
      "포함 한",
      "이유 로",
      "달 리",
      "시장 의",
      "대 체",
      "간 담",
      "인공 지능",
      "회 는",
      "못 한",
      "돌 파",
      "연 간",
      "목표 로",
      "3 000",
      "니 스",
      "종 목",
      "C E",
      "미 만",
      "자 세",
      "대 중",
      "외 부",
      "도 와",
      "정 기",
      "주 고",
      "시장 에서",
      "사 로",
      "시작 으로",
      "내 려",
      "인 수",
      "평 화",
      "꾸 준",
      "취 소",
      "고 령",
      "입 주",
      "포 항",
      "경찰 청",
      "청와 대",
      "조 치를",
      "했 으나",
      "작 용",
      "전 면",
      "거래 소",
      "갔 다",
      "기대 한다",
      "회의 를",
      "드 린다",
      "봤 다",
      "군 이",
      "도 의",
      "이 내",
      "기대 된다",
      "군 민",
      "것 도",
      "1 위",
      "않 았",
      "임 시",
      "률 을",
      "건 물",
      "작 가",
      "같 다",
      "으로 써",
      "뛰 어",
      "추 천",
      "여 전히",
      "고 발",
      "이번 에",
      "추가 로",
      "리 지",
      "당부 했다",
      "었 고",
      "국 방",
      "시간 을",
      "소 유",
      "부 과",
      "힘 을",
      "급 증",
      "이 행",
      "구 는",
      "중요 한",
      "5 9",
      "자 들은",
      "약 속",
      "접 근",
      "매 수",
      "부 품",
      "조 건",
      "관 을",
      "사업 의",
      "공 약",
      "작 성",
      "캠 프",
      "사 와",
      "P C",
      "시 티",
      "공공 기관",
      "통 화",
      "임 금",
      "시 범",
      "없 어",
      "무 료",
      "선 물",
      "표 현",
      "공 시",
      "4 00",
      "리 에",
      "씨 의",
      "해 도",
      "정 권",
      "목 적",
      "청 구",
      "우리 나라",
      "질 환",
      "통 계",
      "명 에",
      "도 심",
      "제 약",
      "코 리아",
      "것 이라고",
      "시장 이",
      "가 량",
      "매 입",
      "내 는",
      "이 란",
      "연구 원",
      "개 의",
      "농 촌",
      "조 기",
      "놓 고",
      "탄소 중립",
      "겼 다",
      "부 와",
      "사업 으로",
      "9 9",
      "장 으로",
      "자 녀",
      "발표 한",
      "T F",
      "농 협",
      "것 이라는",
      "법 원",
      "총 리는",
      "하 우",
      "페이스 북",
      "현대 차",
      "최 저",
      "가 동",
      "발 행",
      "진행 한다",
      "판 결",
      "단 속",
      "나 무",
      "인 으로",
      "제공 한다",
      "사업 이",
      "하고 자",
      "더 라도",
      "기 회를",
      "수 석",
      "간 의",
      "형 사",
      "메 이",
      "집계 됐다",
      "들 에",
      "개 편",
      "하겠다 고",
      "평가 를",
      "머 니",
      "티 브",
      ". ”",
      "검 증",
      "부 를",
      "제 는",
      "이 로",
      "준 수",
      "기업 이",
      "전 주",
      "a n",
      "받 는다",
      "서 로",
      "주 관",
      "피해 를",
      "오 염",
      "주 문",
      "수 용",
      "첨 단",
      "상황 이",
      "제 대로",
      "매 매",
      "남 성",
      "삼성 전자",
      "말 까지",
      "고려 해",
      "추 정",
      "주 행",
      "이 같이",
      "허 용",
      "I P",
      "3 2",
      "지 수",
      "물 질",
      "처음 으로",
      "관심 을",
      "라이 브",
      "리 티",
      "적극 적인",
      "명 령",
      "전 담",
      "주 제로",
      "확 장",
      "않 다",
      "의 사",
      "비 상",
      "빠 르게",
      "차 단",
      "쉽 게",
      "고 민",
      "충 청",
      "렇 게",
      "코 인",
      "6 명",
      "4 년",
      "제품 을",
      "뉴 딜",
      "이 러",
      "메 시",
      "노력 하겠다",
      "학 대",
      "만 든",
      "부 여",
      "폭 행",
      "지 분",
      "청 주",
      "드 라",
      "시간 이",
      "상 호",
      "지원 하는",
      "만 족",
      "대표 가",
      "o r",
      "6 개",
      "6 개월",
      "20 15",
      "현 황",
      "1 회",
      "촬 영",
      "등 이다",
      "역 을",
      "부 에",
      "의 약",
      "질 문",
      "경 로",
      "올해 는",
      "사실 을",
      "선 보",
      "충 전",
      "혐의 를",
      "애 플",
      "담 은",
      "시장 에",
      "제공 하는",
      "특 수",
      "5 명",
      "임 을",
      "수요 가",
      "지원 한다",
      "사실 상",
      "음 을",
      "근 거",
      "늘어 난",
      "카 페",
      "공 감",
      "예방 접종",
      "유 입",
      "모습 을",
      "심 을",
      "불 과",
      "운 전",
      "과 정을",
      "심 각",
      "긍 정",
      "여부 를",
      "원 하는",
      "부 지",
      "스 의",
      "시스템 을",
      "정 확",
      "원 칙",
      "효과 를",
      "여 름",
      "4 만",
      "파 크",
      "역 량을",
      "지 침",
      "점 으로",
      "1 분기",
      "회 에서",
      "포함 해",
      "선 제",
      "지 켜",
      "확인 할",
      "6 8",
      "라 우",
      "회 견",
      "모 니",
      "어 떻",
      "우려 가",
      "마 켓",
      "기 계",
      "그 리고",
      "당국 은",
      "6 7",
      "시 의",
      "해 왔다",
      "성 에",
      "했 는데",
      "a l",
      "에 이",
      "안 이",
      "5 8",
      "인 과",
      "20 30",
      "조 원",
      "계약 을",
      "혜택 을",
      "상황 이다",
      "( -",
[...]
